{
  "version": "1.0",
  "truncation": null,
  "padding": null,
  "added_tokens": [
    {
      "id": 0,
      "content": "[UNK]",
      "single_word": false,
      "lstrip": false,
      "rstrip": false,
      "normalized": false,
      "special": true
    },
    {
      "id": 1,
      "content": "[PAD]",
      "single_word": false,
      "lstrip": false,
      "rstrip": false,
      "normalized": false,
      "special": true
    },
    {
      "id": 2,
      "content": "[SOS]",
      "single_word": false,
      "lstrip": false,
      "rstrip": false,
      "normalized": false,
      "special": true
    },
    {
      "id": 3,
      "content": "[EOS]",
      "single_word": false,
      "lstrip": false,
      "rstrip": false,
      "normalized": false,
      "special": true
    }
  ],
  "normalizer": null,
  "pre_tokenizer": null,
  "post_processor": null,
  "decoder": null,
  "model": {
    "type": "WordPiece",
    "unk_token": "[UNK]",
    "continuing_subword_prefix": "##",
    "max_input_chars_per_word": 100,
    "vocab": {
      "[UNK]": 0,
      "[PAD]": 1,
      "[SOS]": 2,
      "[EOS]": 3,
      " ": 4,
      "!": 5,
      "\"": 6,
      "#": 7,
      "$": 8,
      "%": 9,
      "&": 10,
      "'": 11,
      "(": 12,
      ")": 13,
      "*": 14,
      "+": 15,
      ",": 16,
      "-": 17,
      ".": 18,
      "/": 19,
      "0": 20,
      "1": 21,
      "2": 22,
      "3": 23,
      "4": 24,
      "5": 25,
      "6": 26,
      "7": 27,
      "8": 28,
      "9": 29,
      ":": 30,
      ";": 31,
      "<": 32,
      "=": 33,
      ">": 34,
      "?": 35,
      "@": 36,
      "A": 37,
      "B": 38,
      "C": 39,
      "D": 40,
      "E": 41,
      "F": 42,
      "G": 43,
      "H": 44,
      "I": 45,
      "J": 46,
      "K": 47,
      "L": 48,
      "M": 49,
      "N": 50,
      "O": 51,
      "P": 52,
      "Q": 53,
      "R": 54,
      "S": 55,
      "T": 56,
      "U": 57,
      "V": 58,
      "W": 59,
      "X": 60,
      "Y": 61,
      "Z": 62,
      "[": 63,
      "\\": 64,
      "]": 65,
      "^": 66,
      "_": 67,
      "`": 68,
      "a": 69,
      "b": 70,
      "c": 71,
      "d": 72,
      "e": 73,
      "f": 74,
      "g": 75,
      "h": 76,
      "i": 77,
      "j": 78,
      "k": 79,
      "l": 80,
      "m": 81,
      "n": 82,
      "o": 83,
      "p": 84,
      "q": 85,
      "r": 86,
      "s": 87,
      "t": 88,
      "u": 89,
      "v": 90,
      "w": 91,
      "x": 92,
      "y": 93,
      "z": 94,
      "{": 95,
      "}": 96,
      "~": 97,
      "": 98,
      "": 99,
      "": 100,
      "": 101,
      "": 102,
      "": 103,
      "": 104,
      "": 105,
      "": 106,
      "": 107,
      "": 108,
      "": 109,
      "": 110,
      "": 111,
      "": 112,
      "": 113,
      "": 114,
      "": 115,
      " ": 116,
      "¡": 117,
      "¢": 118,
      "£": 119,
      "¤": 120,
      "¥": 121,
      "¦": 122,
      "§": 123,
      "¨": 124,
      "©": 125,
      "ª": 126,
      "¬": 127,
      "­": 128,
      "®": 129,
      "¯": 130,
      "°": 131,
      "±": 132,
      "²": 133,
      "³": 134,
      "´": 135,
      "µ": 136,
      "¶": 137,
      "·": 138,
      "¸": 139,
      "¹": 140,
      "º": 141,
      "¼": 142,
      "½": 143,
      "¾": 144,
      "¿": 145,
      "À": 146,
      "Á": 147,
      "Â": 148,
      "Ã": 149,
      "Ä": 150,
      "Å": 151,
      "Æ": 152,
      "Ç": 153,
      "È": 154,
      "É": 155,
      "Ì": 156,
      "Í": 157,
      "Ï": 158,
      "Ð": 159,
      "Ñ": 160,
      "Ò": 161,
      "Ó": 162,
      "Ô": 163,
      "Õ": 164,
      "Ö": 165,
      "×": 166,
      "Ø": 167,
      "Ú": 168,
      "Ü": 169,
      "Ý": 170,
      "ß": 171,
      "à": 172,
      "á": 173,
      "â": 174,
      "ã": 175,
      "ä": 176,
      "å": 177,
      "æ": 178,
      "ç": 179,
      "è": 180,
      "é": 181,
      "ê": 182,
      "ë": 183,
      "ì": 184,
      "í": 185,
      "î": 186,
      "ï": 187,
      "ð": 188,
      "ñ": 189,
      "ò": 190,
      "ó": 191,
      "ô": 192,
      "õ": 193,
      "ö": 194,
      "÷": 195,
      "ø": 196,
      "ú": 197,
      "û": 198,
      "ü": 199,
      "ý": 200,
      "þ": 201,
      "Ā": 202,
      "ā": 203,
      "Ă": 204,
      "ă": 205,
      "Č": 206,
      "č": 207,
      "ē": 208,
      "ė": 209,
      "ę": 210,
      "ě": 211,
      "Ğ": 212,
      "ğ": 213,
      "ī": 214,
      "ĭ": 215,
      "İ": 216,
      "ı": 217,
      "Ł": 218,
      "ł": 219,
      "Ń": 220,
      "ń": 221,
      "ň": 222,
      "Ō": 223,
      "ō": 224,
      "ŏ": 225,
      "ő": 226,
      "œ": 227,
      "Ř": 228,
      "ř": 229,
      "Ś": 230,
      "Ş": 231,
      "ş": 232,
      "Š": 233,
      "š": 234,
      "ţ": 235,
      "Ť": 236,
      "ŭ": 237,
      "Ÿ": 238,
      "ž": 239,
      "ƒ": 240,
      "Α": 241,
      "Β": 242,
      "Ε": 243,
      "Η": 244,
      "Κ": 245,
      "Ν": 246,
      "Ο": 247,
      "Τ": 248,
      "θ": 249,
      "μ": 250,
      "ο": 251,
      "π": 252,
      "Ў": 253,
      "В": 254,
      "Г": 255,
      "а": 256,
      "г": 257,
      "е": 258,
      "о": 259,
      "р": 260,
      "т": 261,
      "ѕ": 262,
      "і": 263,
      "​": 264,
      "–": 265,
      "—": 266,
      "‘": 267,
      "’": 268,
      "‚": 269,
      "“": 270,
      "”": 271,
      "†": 272,
      "‡": 273,
      "•": 274,
      "…": 275,
      "‭": 276,
      "‰": 277,
      "⁈": 278,
      "₣": 279,
      "€": 280,
      "™": 281,
      "⅔": 282,
      "→": 283,
      "∣": 284,
      "⌊": 285,
      "⌋": 286,
      "─": 287,
      "☃": 288,
      "☻": 289,
      "♥": 290,
      "♪": 291,
      "♫": 292,
      "❤": 293,
      "《": 294,
      "》": 295,
      "「": 296,
      "」": 297,
      "あ": 298,
      "い": 299,
      "く": 300,
      "せ": 301,
      "た": 302,
      "っ": 303,
      "で": 304,
      "と": 305,
      "な": 306,
      "に": 307,
      "の": 308,
      "は": 309,
      "ひ": 310,
      "ま": 311,
      "め": 312,
      "り": 313,
      "る": 314,
      "わ": 315,
      "を": 316,
      "・": 317,
      "味": 318,
      "左": 319,
      "後": 320,
      "意": 321,
      "握": 322,
      "斬": 323,
      "最": 324,
      "死": 325,
      "決": 326,
      "無": 327,
      "碈": 328,
      "締": 329,
      "羘": 330,
      "胸": 331,
      "裂": 332,
      "言": 333,
      "鷓": 334,
      "": 335,
      "ﬁ": 336,
      "ﬂ": 337,
      "﻿": 338,
      "＃": 339,
      "ｓ": 340,
      "｡": 341,
      "�": 342,
      "##S": 343,
      "##U": 344,
      "##'": 345,
      "##s": 346,
      "## ": 347,
      "##b": 348,
      "##e": 349,
      "##n": 350,
      "##r": 351,
      "##a": 352,
      "##l": 353,
      "##y": 354,
      "##c": 355,
      "##k": 356,
      "##d": 357,
      "##u": 358,
      "##p": 359,
      "##.": 360,
      "##h": 361,
      "##t": 362,
      "##o": 363,
      "##w": 364,
      "##g": 365,
      "##f": 366,
      "##?": 367,
      "##i": 368,
      "##m": 369,
      "##v": 370,
      "##,": 371,
      "##I": 372,
      "##W": 373,
      "##(": 374,
      "##)": 375,
      "##N": 376,
      "##\"": 377,
      "##B": 378,
      "##x": 379,
      "##Y": 380,
      "##!": 381,
      "##R": 382,
      "##G": 383,
      "##A": 384,
      "##H": 385,
      "##E": 386,
      "##j": 387,
      "##T": 388,
      "##L": 389,
      "##3": 390,
      "##1": 391,
      "##6": 392,
      "##V": 393,
      "##P": 394,
      "##D": 395,
      "##O": 396,
      "##M": 397,
      "##z": 398,
      "##0": 399,
      "##:": 400,
      "##_": 401,
      "##J": 402,
      "##C": 403,
      "##-": 404,
      "##q": 405,
      "##]": 406,
      "##;": 407,
      "##2": 408,
      "##%": 409,
      "##9": 410,
      "##♪": 411,
      "##4": 412,
      "##5": 413,
      "##“": 414,
      "##K": 415,
      "##”": 416,
      "##F": 417,
      "##ö": 418,
      "##Z": 419,
      "##♫": 420,
      "##é": 421,
      "##à": 422,
      "##": 423,
      "##ü": 424,
      "##&": 425,
      "##$": 426,
      "##Q": 427,
      "##*": 428,
      "##’": 429,
      "##–": 430,
      "##8": 431,
      "##+": 432,
      "##7": 433,
      "##[": 434,
      "##/": 435,
      "##X": 436,
      "##—": 437,
      "##`": 438,
      "## ": 439,
      "##‘": 440,
      "##í": 441,
      "###": 442,
      "##ﬂ": 443,
      "##^": 444,
      "##>": 445,
      "##": 446,
      "##=": 447,
      "##ο": 448,
      "##}": 449,
      "##ā": 450,
      "##\\": 451,
      "##{": 452,
      "##ş": 453,
      "##ñ": 454,
      "##@": 455,
      "##¶": 456,
      "##Ã": 457,
      "##‰": 458,
      "##ø": 459,
      "##ä": 460,
      "##â": 461,
      "##~": 462,
      "##á": 463,
      "##è": 464,
      "##ý": 465,
      "##ï": 466,
      "##¬": 467,
      "##‚": 468,
      "##µ": 469,
      "##ó": 470,
      "##¢": 471,
      "##Ü": 472,
      "##Ó": 473,
      "##¡": 474,
      "##×": 475,
      "##­": 476,
      "##²": 477,
      "##Η": 478,
      "##Ε": 479,
      "##Τ": 480,
      "##ô": 481,
      "##": 482,
      "##": 483,
      "##": 484,
      "##ª": 485,
      "##Ä": 486,
      "##": 487,
      "##Í": 488,
      "##ê": 489,
      "##É": 490,
      "##È": 491,
      "##Á": 492,
      "##½": 493,
      "##°": 494,
      "##æ": 495,
      "##š": 496,
      "##©": 497,
      "##Г": 498,
      "##±": 499,
      "##⌊": 500,
      "##⌋": 501,
      "##…": 502,
      "##》": 503,
      "##¯": 504,
      "##õ": 505,
      "##™": 506,
      "##ë": 507,
      "##û": 508,
      "##⁈": 509,
      "##ç": 510,
      "##─": 511,
      "##ţ": 512,
      "##ă": 513,
      "##‭": 514,
      "##£": 515,
      "##ı": 516,
      "##Ğ": 517,
      "##<": 518,
      "##Ì": 519,
      "##": 520,
      "##": 521,
      "##³": 522,
      "##º": 523,
      "##Ō": 524,
      "##´": 525,
      "##Ο": 526,
      "##​": 527,
      "##ú": 528,
      "##Â": 529,
      "##ő": 530,
      "##®": 531,
      "##·": 532,
      "##ī": 533,
      "##¾": 534,
      "##ė": 535,
      "##ž": 536,
      "##å": 537,
      "##č": 538,
      "##Ř": 539,
      "##¿": 540,
      "##ō": 541,
      "##ò": 542,
      "##ã": 543,
      "##Š": 544,
      "##‡": 545,
      "##•": 546,
      "##€": 547,
      "##¤": 548,
      "##Ÿ": 549,
      "##¥": 550,
      "##ƒ": 551,
      "##ł": 552,
      "##ń": 553,
      "##ğ": 554,
      "##ŭ": 555,
      "##ę": 556,
      "##Æ": 557,
      "##À": 558,
      "##Ð": 559,
      "##Ö": 560,
      "##Ò": 561,
      "##Ô": 562,
      "##鷓": 563,
      "##Ń": 564,
      "##Ť": 565,
      "##î": 566,
      "##þ": 567,
      "##碈": 568,
      "##": 569,
      "##握": 570,
      "##り": 571,
      "##締": 572,
      "##め": 573,
      "##た": 574,
      "##決": 575,
      "##意": 576,
      "##を": 577,
      "##左": 578,
      "##胸": 579,
      "##に": 580,
      "##斬": 581,
      "##裂": 582,
      "##く": 583,
      "##の": 584,
      "##は": 585,
      "##": 586,
      "##": 587,
      "##": 588,
      "##": 589,
      "##": 590,
      "##§": 591,
      "##": 592,
      "##": 593,
      "##Å": 594,
      "##¸": 595,
      "##☻": 596,
      "##♥": 597,
      "##羘": 598,
      "##＃": 599,
      "##ß": 600,
      "##Α": 601,
      "##İ": 602,
      "##Ā": 603,
      "##ĭ": 604,
      "##Ν": 605,
      "##¹": 606,
      "##Ñ": 607,
      "##Ï": 608,
      "##÷": 609,
      "##Ú": 610,
      "##ě": 611,
      "##": 612,
      "##¦": 613,
      "##ē": 614,
      "##�": 615,
      "##ｓ": 616,
      "##ð": 617,
      "##œ": 618,
      "##Ў": 619,
      "##｡": 620,
      "##г": 621,
      "##о": 622,
      "##р": 623,
      "##а": 624,
      "##т": 625,
      "##і": 626,
      "##ѕ": 627,
      "##е": 628,
      "##Β": 629,
      "##ň": 630,
      "##「": 631,
      "##無": 632,
      "##味": 633,
      "##な": 634,
      "##死": 635,
      "##で": 636,
      "##あ": 637,
      "##っ": 638,
      "##」": 639,
      "##と": 640,
      "##言": 641,
      "##わ": 642,
      "##せ": 643,
      "##い": 644,
      "##最": 645,
      "##後": 646,
      "##ひ": 647,
      "##る": 648,
      "##ま": 649,
      "##": 650,
      "##ì": 651,
      "##ŏ": 652,
      "##Ł": 653,
      "##": 654,
      "##ﬁ": 655,
      "##ř": 656,
      "##❤": 657,
      "##→": 658,
      "##θ": 659,
      "##e ": 660,
      "## t": 661,
      "##t ": 662,
      "##ou": 663,
      "##s ": 664,
      "##in": 665,
      "## th": 666,
      "##er": 667,
      "##an": 668,
      "##, ": 669,
      "##d ": 670,
      "##on": 671,
      "##o ": 672,
      "##you": 673,
      "##y ": 674,
      "##ll": 675,
      "##en": 676,
      "##or": 677,
      "##ha": 678,
      "##ing": 679,
      "## the ": 680,
      "##th": 681,
      "##ar": 682,
      "##a ": 683,
      "##e.": 684,
      "##re": 685,
      "## w": 686,
      "##ow": 687,
      "##st": 688,
      "##om": 689,
      "##. ": 690,
      "##is ": 691,
      "##at": 692,
      "##it": 693,
      "## to ": 694,
      "##you ": 695,
      "##'s ": 696,
      "##of": 697,
      "##ing ": 698,
      "##ve ": 699,
      "##ll ": 700,
      "##es": 701,
      "##is": 702,
      "##ea": 703,
      "##ed ": 704,
      "##er ": 705,
      "##..": 706,
      "##li": 707,
      "##ed": 708,
      "##us": 709,
      "##gh": 710,
      "##I ": 711,
      "- ": 712,
      "##for": 713,
      "##and ": 714,
      "##he ": 715,
      "##r ": 716,
      "##m ": 717,
      "##al": 718,
      "##'t ": 719,
      "##ay": 720,
      "##ch": 721,
      "##ri": 722,
      "##oo": 723,
      "##her": 724,
      "##el": 725,
      "##of ": 726,
      "##ac": 727,
      "##at ": 728,
      "##no": 729,
      "##k ": 730,
      "##re ": 731,
      "##be": 732,
      "I ": 733,
      "##as": 734,
      "##hat ": 735,
      "##now": 736,
      "##an ": 737,
      "You": 738,
      "##hi": 739,
      "##en ": 740,
      "##go": 741,
      "##id": 742,
      "##as ": 743,
      "##et": 744,
      "##ev": 745,
      "## the": 746,
      "##me ": 747,
      "##ic": 748,
      "##he": 749,
      "##in ": 750,
      "##ke ": 751,
      "##ion": 752,
      "##s.": 753,
      "##it ": 754,
      "##ith": 755,
      "##e w": 756,
      "##se": 757,
      "##ab": 758,
      "##have ": 759,
      "##un": 760,
      "##ro": 761,
      "##hat": 762,
      "##pl": 763,
      "## that ": 764,
      "##ld ": 765,
      "##be ": 766,
      "##me": 767,
      "##'re ": 768,
      "##know": 769,
      "##all": 770,
      "##your ": 771,
      "##il": 772,
      "##t.": 773,
      "##ad": 774,
      "##os": 775,
      "##ur": 776,
      "##et ": 777,
      "##for ": 778,
      "##y.": 779,
      "##are ": 780,
      "##'m ": 781,
      "## to": 782,
      "##up": 783,
      "##my ": 784,
      "##to ": 785,
      "##and": 786,
      "##ne": 787,
      "##not ": 788,
      "##do": 789,
      "##es ": 790,
      "You ": 791,
      "##ut ": 792,
      "##don": 793,
      "##ir": 794,
      "##e, ": 795,
      "##ec": 796,
      "##am": 797,
      "##on ": 798,
      "##ust ": 799,
      "##f ": 800,
      "##ill ": 801,
      "##com": 802,
      "##out ": 803,
      "##his ": 804,
      "##nd ": 805,
      "##sa": 806,
      "##...": 807,
      "##ent": 808,
      "##ould ": 809,
      "##ght": 810,
      "##ma": 811,
      "##ut": 812,
      "##ith ": 813,
      "## this ": 814,
      "##ell": 815,
      "##di": 816,
      "##ver": 817,
      "##sh": 818,
      "##som": 819,
      "##le ": 820,
      "##ra": 821,
      "##, w": 822,
      "##le": 823,
      "##ow ": 824,
      "##lo": 825,
      "##rom": 826,
      "##one ": 827,
      "##ght ": 828,
      "##op": 829,
      "The ": 830,
      "## that": 831,
      "##ant": 832,
      "##don't ": 833,
      "##n't ": 834,
      "##er.": 835,
      "##h, ": 836,
      "##do ": 837,
      "##ag": 838,
      "##ing.": 839,
      "##n ": 840,
      "##the ": 841,
      "##d.": 842,
      "##ere ": 843,
      "##y, ": 844,
      "##ly ": 845,
      "##here ": 846,
      "##like ": 847,
      "##t's ": 848,
      "##im": 849,
      "##all ": 850,
      "##su": 851,
      "##ch ": 852,
      "##e?": 853,
      "##bo": 854,
      "##just ": 855,
      "##from": 856,
      "##con": 857,
      "##ill": 858,
      "##ol": 859,
      "##ay ": 860,
      "##ep": 861,
      "##or ": 862,
      "##out": 863,
      "##'ll ": 864,
      "No": 865,
      "##ear": 866,
      "##gu": 867,
      "##ck": 868,
      "##e. ": 869,
      "##ex": 870,
      "##in the ": 871,
      "##e's ": 872,
      "##pp": 873,
      "##em": 874,
      "##ho ": 875,
      "##it.": 876,
      "And ": 877,
      "##get ": 878,
      "##ation": 879,
      "##was ": 880,
      "##ul": 881,
      "##I'm ": 882,
      "##him": 883,
      "##ed to ": 884,
      "##sp": 885,
      "##can ": 886,
      "##al ": 887,
      "I'm ": 888,
      "##- ": 889,
      "##ent ": 890,
      "## they ": 891,
      "##can": 892,
      "##ter": 893,
      "##s, ": 894,
      "##ca": 895,
      "## thin": 896,
      "##wor": 897,
      "##of the ": 898,
      "##ever": 899,
      "##ack": 900,
      "##You": 901,
      "##? ": 902,
      "##'ve ": 903,
      "##... ": 904,
      "##you.": 905,
      "##hat's ": 906,
      "##ain": 907,
      "##ed.": 908,
      "##ong": 909,
      "##man": 910,
      "##ook": 911,
      "##est": 912,
      "##nd": 913,
      "##you w": 914,
      "##oth": 915,
      "##si": 916,
      "##gon": 917,
      "##mor": 918,
      "##es.": 919,
      "##na ": 920,
      "##ho": 921,
      "##eth": 922,
      "It's ": 923,
      "What ": 924,
      "##pro": 925,
      "##ing to ": 926,
      "##kay": 927,
      "##if": 928,
      "##so ": 929,
      "##ever ": 930,
      "We ": 931,
      "##ce ": 932,
      "##hen ": 933,
      "##lea": 934,
      "##fin": 935,
      "##ake ": 936,
      "##qu": 937,
      "##to": 938,
      "## ther": 939,
      "##way": 940,
      "##! ": 941,
      "##ru": 942,
      "##I w": 943,
      "##me.": 944,
      "##but ": 945,
      "##use ": 946,
      "##about ": 947,
      "##did": 948,
      "##der": 949,
      "##w ": 950,
      "##right": 951,
      "##cou": 952,
      "##'s": 953,
      "##if ": 954,
      "##got ": 955,
      "##se ": 956,
      "##ive ": 957,
      "##any": 958,
      "##res": 959,
      "##dow": 960,
      "##goo": 961,
      "##ell ": 962,
      "##per": 963,
      "##art": 964,
      "##from ": 965,
      "##you're ": 966,
      "##gonna ": 967,
      "He ": 968,
      "##um": 969,
      "##id ": 970,
      "##ld": 971,
      "##bl": 972,
      "##fa": 973,
      "##rou": 974,
      "##with ": 975,
      "##our ": 976,
      "##no ": 977,
      "##ang": 978,
      "##eo": 979,
      "##know ": 980,
      "##it's ": 981,
      "##end": 982,
      "##ir ": 983,
      "##her ": 984,
      "##ak": 985,
      "##iv": 986,
      "##we ": 987,
      "##, I ": 988,
      "I w": 989,
      "##ally ": 990,
      "##, and ": 991,
      "##ig": 992,
      "##e're ": 993,
      "## them": 994,
      "##come ": 995,
      "## this": 996,
      "##tt": 997,
      "##h ": 998,
      "##ect": 999,
      "##p ": 1000,
      "The": 1001,
      "##sel": 1002,
      "##eopl": 1003,
      "##hy ": 1004,
      "##get": 1005,
      "##ry": 1006,
      "##ook ": 1007,
      "##fe": 1008,
      "##ct": 1009,
      "##. T": 1010,
      "##mo": 1011,
      "This ": 1012,
      "##act": 1013,
      "##min": 1014,
      "##he's ": 1015,
      "##ey": 1016,
      "##ome ": 1017,
      "##day": 1018,
      "##been ": 1019,
      "Well": 1020,
      "##itt": 1021,
      "##see ": 1022,
      "##car": 1023,
      "##him ": 1024,
      "##she ": 1025,
      "##ess": 1026,
      "##what ": 1027,
      "##back": 1028,
      "##th ": 1029,
      "## think ": 1030,
      "##has ": 1031,
      "##so": 1032,
      "## with ": 1033,
      "It ": 1034,
      "##co": 1035,
      "##peopl": 1036,
      "##say": 1037,
      "##on the ": 1038,
      "##here.": 1039,
      "But ": 1040,
      "## to the ": 1041,
      "##po": 1042,
      "##alk": 1043,
      "##us ": 1044,
      "##fu": 1045,
      "##'t": 1046,
      "##You ": 1047,
      "##fi": 1048,
      "##some ": 1049,
      "Th": 1050,
      "##, you ": 1051,
      "##on.": 1052,
      "##ant ": 1053,
      "##ion ": 1054,
      "##ose ": 1055,
      "##up ": 1056,
      "##on't ": 1057,
      "##ate ": 1058,
      "##happ": 1059,
      "##la": 1060,
      "##ust": 1061,
      "##'d ": 1062,
      "##had ": 1063,
      "Yea": 1064,
      "##af": 1065,
      "## take ": 1066,
      "##off": 1067,
      "##someth": 1068,
      "##hel": 1069,
      "##na": 1070,
      "## ti": 1071,
      "##. W": 1072,
      "##did ": 1073,
      "##har": 1074,
      "##go ": 1075,
      "##ni": 1076,
      "##dea": 1077,
      "- W": 1078,
      "##de": 1079,
      "##ght.": 1080,
      "##can't ": 1081,
      "##beli": 1082,
      "##not": 1083,
      "##Go": 1084,
      "##ar ": 1085,
      "##your": 1086,
      "##could ": 1087,
      "##orr": 1088,
      "##make ": 1089,
      "##thing ": 1090,
      "##: ": 1091,
      "##. I": 1092,
      "##a b": 1093,
      "##we": 1094,
      "You're ": 1095,
      "##cl": 1096,
      "##, the ": 1097,
      "##will ": 1098,
      "##All": 1099,
      "##hea": 1100,
      "## their ": 1101,
      "##about": 1102,
      "##down": 1103,
      "##by ": 1104,
      "##our": 1105,
      "##ack ": 1106,
      "##any ": 1107,
      "##didn't ": 1108,
      "##ist": 1109,
      "##k.": 1110,
      "##mon": 1111,
      "##es, ": 1112,
      "That's ": 1113,
      "##ff": 1114,
      "## them ": 1115,
      "##more ": 1116,
      "##ther": 1117,
      "##cre": 1118,
      "## we ": 1119,
      "##ob": 1120,
      "##look": 1121,
      "##bod": 1122,
      "##ant to ": 1123,
      "##mean": 1124,
      "##that ": 1125,
      "##know w": 1126,
      "##ke": 1127,
      "##ess ": 1128,
      "She ": 1129,
      "##No": 1130,
      "##dis": 1131,
      "##y?": 1132,
      "##est ": 1133,
      "Oh, ": 1134,
      "What": 1135,
      "##s?": 1136,
      "So ": 1137,
      "##every": 1138,
      "## thou": 1139,
      "##litt": 1140,
      "##se.": 1141,
      "##Alla": 1142,
      "##st ": 1143,
      "##ud": 1144,
      "##s to ": 1145,
      "##other ": 1146,
      "##have to ": 1147,
      "They ": 1148,
      "##how ": 1149,
      "##read": 1150,
      "##should ": 1151,
      "##pos": 1152,
      "##you, ": 1153,
      "##ing?": 1154,
      "##pre": 1155,
      "##very ": 1156,
      "##att": 1157,
      "## the t": 1158,
      "##happen": 1159,
      "##par": 1160,
      "##e!": 1161,
      "##again": 1162,
      "##fir": 1163,
      "##good ": 1164,
      "##you?": 1165,
      "##right ": 1166,
      "##never ": 1167,
      "##fri": 1168,
      "##ese ": 1169,
      "## tell ": 1170,
      "##sid": 1171,
      "##ard": 1172,
      "##pr": 1173,
      "##only ": 1174,
      "##king ": 1175,
      "##him.": 1176,
      "##por": 1177,
      "##befor": 1178,
      "##ost ": 1179,
      "##. H": 1180,
      "##ast ": 1181,
      "##with": 1182,
      "##gr": 1183,
      "##mu": 1184,
      "##kill": 1185,
      "##ly": 1186,
      "##the": 1187,
      "##anc": 1188,
      "##a s": 1189,
      "##, but ": 1190,
      "If ": 1191,
      "##year": 1192,
      "How ": 1193,
      "##el ": 1194,
      "##ord": 1195,
      "##ound ": 1196,
      "##, th": 1197,
      "##little ": 1198,
      "I don't ": 1199,
      "##ight ": 1200,
      "##okay": 1201,
      "He": 1202,
      "##en.": 1203,
      "##rea": 1204,
      "##. S": 1205,
      "##over": 1206,
      "##thing": 1207,
      "##lif": 1208,
      "##give ": 1209,
      "##sha": 1210,
      "##urn": 1211,
      "##need ": 1212,
      "##mad": 1213,
      "Okay": 1214,
      "##ap": 1215,
      "##ould": 1216,
      "##int": 1217,
      "##bu": 1218,
      "##ast": 1219,
      "##going to ": 1220,
      "##some": 1221,
      "##gre": 1222,
      "##hen": 1223,
      "##cause ": 1224,
      "##l ": 1225,
      "##call": 1226,
      "##ed the ": 1227,
      "##ers ": 1228,
      "##. I ": 1229,
      "##really ": 1230,
      "## tr": 1231,
      "##. - ": 1232,
      "##e who ": 1233,
      "##for the ": 1234,
      "##ep ": 1235,
      "- T": 1236,
      "##wo ": 1237,
      "##aw": 1238,
      "##hom": 1239,
      "My ": 1240,
      "##ish": 1241,
      "##ation ": 1242,
      "##et's ": 1243,
      "##ing the ": 1244,
      "##under": 1245,
      "That ": 1246,
      "##kin": 1247,
      "##long": 1248,
      "##plac": 1249,
      "##ank ": 1250,
      "##liv": 1251,
      "##ck ": 1252,
      "And": 1253,
      "##a w": 1254,
      "##here's ": 1255,
      "##but": 1256,
      "##00": 1257,
      "##ter ": 1258,
      "## talk": 1259,
      "##was": 1260,
      "##mb": 1261,
      "A ": 1262,
      "Do ": 1263,
      "##enc": 1264,
      "##ice ": 1265,
      "##a.": 1266,
      "## think": 1267,
      "##find ": 1268,
      "##am ": 1269,
      "##ick": 1270,
      "##end ": 1271,
      "##) ": 1272,
      "##said": 1273,
      "##got": 1274,
      "##it?": 1275,
      "##app": 1276,
      "## there ": 1277,
      "Well, ": 1278,
      "##ent.": 1279,
      "##; ": 1280,
      "##people ": 1281,
      "##t of ": 1282,
      "##'s the ": 1283,
      "##one.": 1284,
      "##y're ": 1285,
      "##br": 1286,
      "- H": 1287,
      "##a m": 1288,
      "##ov": 1289,
      "##. A": 1290,
      "##gh ": 1291,
      "##me?": 1292,
      "## time ": 1293,
      "##shi": 1294,
      "All ": 1295,
      "##me, ": 1296,
      "##s of ": 1297,
      "##hav": 1298,
      "##ave ": 1299,
      "##are you ": 1300,
      "##We ": 1301,
      "## that's ": 1302,
      "##fuck": 1303,
      "##iou": 1304,
      "##plea": 1305,
      "##would ": 1306,
      "##ful": 1307,
      "##ound": 1308,
      "##self": 1309,
      "##now.": 1310,
      "##other": 1311,
      "##nt": 1312,
      "##rong": 1313,
      "## was ": 1314,
      "##ph": 1315,
      "##ion.": 1316,
      "##just": 1317,
      "##eve ": 1318,
      "Yeah, ": 1319,
      "##cont": 1320,
      "##is the ": 1321,
      "##dr": 1322,
      "##go.": 1323,
      "##hear": 1324,
      "##at the ": 1325,
      "##even ": 1326,
      "##ing, ": 1327,
      "He's ": 1328,
      "##look ": 1329,
      "##on, ": 1330,
      "##e was ": 1331,
      "##ank": 1332,
      "##out.": 1333,
      "##mis": 1334,
      "##does": 1335,
      "##St": 1336,
      "##made ": 1337,
      "##hand": 1338,
      "##ite ": 1339,
      "##able ": 1340,
      "No, ": 1341,
      "##and the ": 1342,
      "##ge ": 1343,
      "##sure ": 1344,
      "##mar": 1345,
      "##new ": 1346,
      "##rec": 1347,
      "##us.": 1348,
      "Come ": 1349,
      "##ass": 1350,
      "##back ": 1351,
      "##hich ": 1352,
      "##s and ": 1353,
      "##ther ": 1354,
      "##d of ": 1355,
      "## with": 1356,
      "##by": 1357,
      "##a c": 1358,
      "##a p": 1359,
      "##ting ": 1360,
      "##were ": 1361,
      "##r. ": 1362,
      "##before ": 1363,
      "This is ": 1364,
      "##gir": 1365,
      "##need to ": 1366,
      "##guy": 1367,
      "##stop": 1368,
      "##lic": 1369,
      "## that.": 1370,
      "Why ": 1371,
      "##ood ": 1372,
      "##ser": 1373,
      "##body ": 1374,
      "##, we ": 1375,
      "##up.": 1376,
      "##still ": 1377,
      "##ity ": 1378,
      "St": 1379,
      "##you to ": 1380,
      "##bro": 1381,
      "##au": 1382,
      "##il ": 1383,
      "##ait": 1384,
      "## what ": 1385,
      "##from the ": 1386,
      "##because ": 1387,
      "##believe ": 1388,
      "##comp": 1389,
      "##ight": 1390,
      "##d, ": 1391,
      "##hou": 1392,
      "##memb": 1393,
      "##sup": 1394,
      "##let ": 1395,
      "I'll ": 1396,
      "##sur": 1397,
      "##ot": 1398,
      "##h.": 1399,
      "##s are ": 1400,
      "So": 1401,
      "##sw": 1402,
      "##when ": 1403,
      "- I": 1404,
      "Don't ": 1405,
      "##run": 1406,
      "##own": 1407,
      "##a t": 1408,
      "##out of ": 1409,
      "We're ": 1410,
      "##ad ": 1411,
      "##in.": 1412,
      "## will ": 1413,
      "##my": 1414,
      "##Yea": 1415,
      "##do you ": 1416,
      "##sc": 1417,
      "##say ": 1418,
      "##pres": 1419,
      "##have a ": 1420,
      "##aybe ": 1421,
      "##ic ": 1422,
      "##old ": 1423,
      "##into ": 1424,
      "##ree ": 1425,
      "##--": 1426,
      "##something ": 1427,
      "##inter": 1428,
      "##prob": 1429,
      "##said ": 1430,
      "##, t": 1431,
      "##e...": 1432,
      "##going ": 1433,
      "##need": 1434,
      "##love ": 1435,
      "##right?": 1436,
      "##is.": 1437,
      "## wor": 1438,
      "##'m": 1439,
      "##ry ": 1440,
      "##came ": 1441,
      "##that": 1442,
      "## thing": 1443,
      "##son": 1444,
      "##own ": 1445,
      "Hey, ": 1446,
      "##re you ": 1447,
      "##sorr": 1448,
      "##stor": 1449,
      "##bet": 1450,
      "##help ": 1451,
      "##ch.": 1452,
      "##I was ": 1453,
      "##must ": 1454,
      "##st.": 1455,
      "##underst": 1456,
      "##cle": 1457,
      "##ed, ": 1458,
      "## there.": 1459,
      "##day ": 1460,
      "##lef": 1461,
      "##or.": 1462,
      "##m.": 1463,
      "##help": 1464,
      "##et.": 1465,
      "##this ": 1466,
      "- I ": 1467,
      "##\" ": 1468,
      "##ine ": 1469,
      "##ti": 1470,
      "##er, ": 1471,
      "##last ": 1472,
      "##ime.": 1473,
      "##ood": 1474,
      "Yeah": 1475,
      "##Allah ": 1476,
      "##mov": 1477,
      "##al.": 1478,
      "##acc": 1479,
      "##g ": 1480,
      "##an.": 1481,
      "- A": 1482,
      "##hu": 1483,
      "##may ": 1484,
      "##alway": 1485,
      "##way.": 1486,
      "##lat": 1487,
      "##day.": 1488,
      "I've ": 1489,
      "##fam": 1490,
      "##0 ": 1491,
      "##oll": 1492,
      "##port": 1493,
      "##gn": 1494,
      "##it, ": 1495,
      "##e with ": 1496,
      "##th.": 1497,
      "##av": 1498,
      "No ": 1499,
      "##des": 1500,
      "##pt": 1501,
      "##right.": 1502,
      "##ment": 1503,
      "##giv": 1504,
      "##e we ": 1505,
      "##s that ": 1506,
      "##ect ": 1507,
      "##ely ": 1508,
      "##what": 1509,
      "##l.": 1510,
      "##s the ": 1511,
      "## these ": 1512,
      "##sy": 1513,
      "##thing.": 1514,
      "##friend": 1515,
      "##ure ": 1516,
      "##her.": 1517,
      "##dec": 1518,
      "##lik": 1519,
      "Just ": 1520,
      "##how": 1521,
      "##om ": 1522,
      "##in a ": 1523,
      "##umb": 1524,
      "##mat": 1525,
      "##comm": 1526,
      "##most ": 1527,
      "##e of ": 1528,
      "##work": 1529,
      "On": 1530,
      "##fac": 1531,
      "You w": 1532,
      "##riv": 1533,
      "##cas": 1534,
      "##iz": 1535,
      "##put ": 1536,
      "##here?": 1537,
      "##ure": 1538,
      "##doesn't ": 1539,
      "##uck": 1540,
      "##d to ": 1541,
      "##' ": 1542,
      "##new": 1543,
      "##cour": 1544,
      "##gl": 1545,
      "- S": 1546,
      "##kill ": 1547,
      "## those ": 1548,
      "##en't ": 1549,
      "##. You ": 1550,
      "##who ": 1551,
      "## throu": 1552,
      "##fil": 1553,
      "## that?": 1554,
      "Not ": 1555,
      "##if you ": 1556,
      "##chang": 1557,
      "##over ": 1558,
      "##I'll ": 1559,
      "##much ": 1560,
      "Look": 1561,
      "##kid": 1562,
      "##ret": 1563,
      "##ict": 1564,
      "##to the ": 1565,
      "##man ": 1566,
      "##unt": 1567,
      "There's ": 1568,
      "##fun": 1569,
      "##ance ": 1570,
      "##down ": 1571,
      "##fl": 1572,
      "##part": 1573,
      "##is a ": 1574,
      "##might ": 1575,
      "##want": 1576,
      "##inv": 1577,
      "##ask": 1578,
      "Plea": 1579,
      "##ation.": 1580,
      "##eng": 1581,
      "## this.": 1582,
      "Your ": 1583,
      "##He ": 1584,
      "##plan": 1585,
      "##where ": 1586,
      "##I've ": 1587,
      "## told ": 1588,
      "##pa": 1589,
      "##cer": 1590,
      "## two ": 1591,
      "##rememb": 1592,
      "##every ": 1593,
      "##know, ": 1594,
      "##always ": 1595,
      "## try": 1596,
      "##call ": 1597,
      "- O": 1598,
      "##quest": 1599,
      "##after ": 1600,
      "##minut": 1601,
      "##list": 1602,
      "##ble ": 1603,
      "##enou": 1604,
      "##abl": 1605,
      "##ose who ": 1606,
      "##do.": 1607,
      "## too ": 1608,
      "## thought ": 1609,
      "##ouldn't ": 1610,
      "##me to ": 1611,
      "##der ": 1612,
      "##e will ": 1613,
      "##a lo": 1614,
      "## them.": 1615,
      "##man.": 1616,
      "Now": 1617,
      "##jo": 1618,
      "##miss": 1619,
      "##could": 1620,
      "We": 1621,
      "##i ": 1622,
      "##ause ": 1623,
      "##now ": 1624,
      "## tru": 1625,
      "##n't": 1626,
      "##gg": 1627,
      "##-- ": 1628,
      "Get ": 1629,
      "##cur": 1630,
      "## than ": 1631,
      "##sir": 1632,
      "##ind": 1633,
      "##s. ": 1634,
      "##keep ": 1635,
      "## the w": 1636,
      "##don't": 1637,
      "##shall ": 1638,
      "##mer": 1639,
      "##ence ": 1640,
      "##for a ": 1641,
      "##x ": 1642,
      "##ment ": 1643,
      "##du": 1644,
      "##bett": 1645,
      "##e,": 1646,
      "##oh": 1647,
      "##red ": 1648,
      "##found ": 1649,
      "##en, ": 1650,
      "##form": 1651,
      "##oc": 1652,
      "##ies ": 1653,
      "##gott": 1654,
      "##er?": 1655,
      "##looking ": 1656,
      "There ": 1657,
      "##ated ": 1658,
      "##ain ": 1659,
      "Do you ": 1660,
      "##off ": 1661,
      "Are you ": 1662,
      "##diff": 1663,
      "##know.": 1664,
      "##od": 1665,
      "##hur": 1666,
      "##sor": 1667,
      "##e to ": 1668,
      "##very": 1669,
      "##dam": 1670,
      "##ink": 1671,
      "##str": 1672,
      "##inc": 1673,
      "##here, ": 1674,
      "##a little ": 1675,
      "Did ": 1676,
      "##e were ": 1677,
      "##war": 1678,
      "##ord ": 1679,
      "##its ": 1680,
      "I was ": 1681,
      "##back.": 1682,
      "##it was ": 1683,
      "## this is ": 1684,
      "##God": 1685,
      "##ess.": 1686,
      "##ie": 1687,
      "##Mar": 1688,
      "##choo": 1689,
      "♪ ": 1690,
      "##job": 1691,
      "Where ": 1692,
      "##you were ": 1693,
      "##famil": 1694,
      "##, no": 1695,
      "##h?": 1696,
      "##they ": 1697,
      "## to be ": 1698,
      "##leave ": 1699,
      "But": 1700,
      "##The ": 1701,
      "## tak": 1702,
      "##ding ": 1703,
      "##ed?": 1704,
      "##ub": 1705,
      "##alread": 1706,
      "##right, ": 1707,
      "##girl": 1708,
      "##name ": 1709,
      "##nex": 1710,
      "##'ll": 1711,
      "##ers.": 1712,
      "## the b": 1713,
      "##o.": 1714,
      "##ish ": 1715,
      "##se, ": 1716,
      "##fucking ": 1717,
      "An": 1718,
      "##play": 1719,
      "##hop": 1720,
      "##first ": 1721,
      "##rev": 1722,
      "##being ": 1723,
      "- You ": 1724,
      "##add": 1725,
      "##s like ": 1726,
      "## who ": 1727,
      "##ice.": 1728,
      "##ali": 1729,
      "It": 1730,
      "##, they ": 1731,
      "##, what ": 1732,
      "##at.": 1733,
      "##okay?": 1734,
      "##sign": 1735,
      "##God ": 1736,
      "##night": 1737,
      "##geth": 1738,
      "##ise ": 1739,
      "##lov": 1740,
      "Who ": 1741,
      "##want to ": 1742,
      "## then ": 1743,
      "##good": 1744,
      "##did you ": 1745,
      "##star": 1746,
      "##. O": 1747,
      "##he was ": 1748,
      "##You're ": 1749,
      "##cri": 1750,
      "##ur ": 1751,
      "When ": 1752,
      "##sl": 1753,
      "##start": 1754,
      "##ek": 1755,
      "##inn": 1756,
      "##doing ": 1757,
      "## there's ": 1758,
      "##alk ": 1759,
      "##been": 1760,
      "##why ": 1761,
      "##ig ": 1762,
      "##atch": 1763,
      "##anything ": 1764,
      "##age ": 1765,
      "##saf": 1766,
      "##exc": 1767,
      "##I don't ": 1768,
      "##room": 1769,
      "##mone": 1770,
      "##, that's ": 1771,
      "##feel": 1772,
      "##.. ": 1773,
      "##cr": 1774,
      "##ask ": 1775,
      "Som": 1776,
      "Let's ": 1777,
      "##ail": 1778,
      "##many ": 1779,
      "##p.": 1780,
      "- D": 1781,
      "##. C": 1782,
      "## time.": 1783,
      "##proble": 1784,
      "##urn ": 1785,
      "##mag": 1786,
      "##eal": 1787,
      "##'ll be ": 1788,
      "##y to ": 1789,
      "##count": 1790,
      "##does ": 1791,
      "##away ": 1792,
      "##bus": 1793,
      "##foll": 1794,
      "##ick ": 1795,
      "## what": 1796,
      "##ear ": 1797,
      "##s!": 1798,
      "##here": 1799,
      "##same ": 1800,
      "##eg": 1801,
      "##it!": 1802,
      "##, that ": 1803,
      "##know what ": 1804,
      "##secon": 1805,
      "##cha": 1806,
      "##es?": 1807,
      "## tri": 1808,
      "##vis": 1809,
      "##feel ": 1810,
      "##rect": 1811,
      "##. B": 1812,
      "In": 1813,
      "##. It's ": 1814,
      "Go": 1815,
      "##ed in ": 1816,
      "No.": 1817,
      "##sist": 1818,
      "##resp": 1819,
      "##self.": 1820,
      "##, M": 1821,
      "What's ": 1822,
      "## those who ": 1823,
      "##son ": 1824,
      "##'t.": 1825,
      "##gun": 1826,
      "##. L": 1827,
      "##isn't ": 1828,
      "##way ": 1829,
      "##self ": 1830,
      "##side ": 1831,
      "##hon": 1832,
      "##each ": 1833,
      "##Allah": 1834,
      "She's ": 1835,
      "##chil": 1836,
      "##understand": 1837,
      "##mak": 1838,
      "##morn": 1839,
      "##all.": 1840,
      "##bab": 1841,
      "##arr": 1842,
      "##long ": 1843,
      "##ecause ": 1844,
      "##oo.": 1845,
      "##let": 1846,
      "##fre": 1847,
      "##Ch": 1848,
      "##chec": 1849,
      "##kind of ": 1850,
      "##again.": 1851,
      "## tell": 1852,
      "- No": 1853,
      "##] ": 1854,
      "##stay ": 1855,
      "##sin": 1856,
      "##yea": 1857,
      "##old": 1858,
      "##wrong": 1859,
      "##ial ": 1860,
      "##spea": 1861,
      "##pow": 1862,
      "##ef": 1863,
      "##rid": 1864,
      "##lock": 1865,
      "##exp": 1866,
      "##down.": 1867,
      "## they're ": 1868,
      "##ron": 1869,
      "##oun": 1870,
      "##getting ": 1871,
      "##numb": 1872,
      "##ity.": 1873,
      "##believ": 1874,
      "##tain": 1875,
      "##bea": 1876,
      "##sho": 1877,
      "##prom": 1878,
      "##hear ": 1879,
      "##grou": 1880,
      "##another ": 1881,
      "Can ": 1882,
      "I'm not ": 1883,
      "Ex": 1884,
      "##hour": 1885,
      "##ow.": 1886,
      "##hell ": 1887,
      "##lin": 1888,
      "Oh": 1889,
      "What?": 1890,
      "##reas": 1891,
      "##you've ": 1892,
      "They're ": 1893,
      "I have ": 1894,
      "##hey ": 1895,
      "##stu": 1896,
      "##killed ": 1897,
      "##hy": 1898,
      "Sh": 1899,
      "##cor": 1900,
      "##pi": 1901,
      "##someone ": 1902,
      "##you can ": 1903,
      "##. I'm ": 1904,
      "I think ": 1905,
      "##better ": 1906,
      "##rain": 1907,
      "##who": 1908,
      "##saw ": 1909,
      "Thank ": 1910,
      "##she's ": 1911,
      "##? - ": 1912,
      "##anna ": 1913,
      "##ext": 1914,
      "## when ": 1915,
      "It was ": 1916,
      "##left ": 1917,
      "##possi": 1918,
      "##life ": 1919,
      "##ett": 1920,
      "##sol": 1921,
      "##gave ": 1922,
      "##do not ": 1923,
      "##about the ": 1924,
      "##prett": 1925,
      "##cra": 1926,
      "##ven": 1927,
      "##mes ": 1928,
      "##sle": 1929,
      "##enough": 1930,
      "##all the ": 1931,
      "Who": 1932,
      "##a, ": 1933,
      "I mean": 1934,
      "##char": 1935,
      "##years ": 1936,
      "##ener": 1937,
      "## this?": 1938,
      "##leav": 1939,
      "##differ": 1940,
      "- C": 1941,
      "##spec": 1942,
      "##. D": 1943,
      "Hey": 1944,
      "##ept ": 1945,
      "##put": 1946,
      "##mm": 1947,
      "##after": 1948,
      "##already ": 1949,
      "##air": 1950,
      "## through": 1951,
      "##sure": 1952,
      "##ful ": 1953,
      "##ly.": 1954,
      "##y!": 1955,
      "##ind ": 1956,
      "##nam": 1957,
      "- M": 1958,
      "##pris": 1959,
      "##mil": 1960,
      "##Lord ": 1961,
      "##will be ": 1962,
      "##me. ": 1963,
      "##I can ": 1964,
      "##even": 1965,
      "##i.": 1966,
      "##ary ": 1967,
      "##ort": 1968,
      "##ad.": 1969,
      "Maybe ": 1970,
      "##keep": 1971,
      "##atch ": 1972,
      "##e-": 1973,
      "##good.": 1974,
      "##nor": 1975,
      "##E ": 1976,
      "##mur": 1977,
      "I can't ": 1978,
      "##a d": 1979,
      "##a good ": 1980,
      "## togeth": 1981,
      "##s in ": 1982,
      "##s for ": 1983,
      "Okay, ": 1984,
      "##place ": 1985,
      "##coming ": 1986,
      "Because ": 1987,
      "##ike ": 1988,
      "##prot": 1989,
      "##hile ": 1990,
      "##y's ": 1991,
      "##we're ": 1992,
      "##ally": 1993,
      "##great ": 1994,
      "##sk": 1995,
      "Every": 1996,
      "##actu": 1997,
      "##around ": 1998,
      "##have been ": 1999,
      "##foo": 2000,
      "##ed by ": 2001,
      "##head": 2002,
      "##live ": 2003,
      "##by the ": 2004,
      "##. M": 2005,
      "##you think ": 2006,
      "##I'd ": 2007,
      "##med": 2008,
      "##rac": 2009,
      "##ant.": 2010,
      "##ach": 2011,
      "##log": 2012,
      "##ik": 2013,
      "##pu": 2014,
      "##iful": 2015,
      "##rav": 2016,
      "##got to ": 2017,
      "##selv": 2018,
      "##bor": 2019,
      "##, \"": 2020,
      "##op ": 2021,
      "##sen": 2022,
      "##am.": 2023,
      "##em ": 2024,
      "## turn": 2025,
      "##had": 2026,
      "##Lord": 2027,
      "##ar.": 2028,
      "##schoo": 2029,
      "##guy ": 2030,
      "##n.": 2031,
      "##ing a ": 2032,
      "##and I ": 2033,
      "If": 2034,
      "##you have ": 2035,
      "Yes, ": 2036,
      "##itch": 2037,
      "##few ": 2038,
      "##in this ": 2039,
      "Then ": 2040,
      "##, I'm ": 2041,
      "##ical ": 2042,
      "##ident": 2043,
      "##care ": 2044,
      "##father": 2045,
      "##seem": 2046,
      "Yes": 2047,
      "##ans": 2048,
      "##done ": 2049,
      "##mom": 2050,
      "##is not ": 2051,
      "##well": 2052,
      "##ip": 2053,
      "##with the ": 2054,
      "##able to ": 2055,
      "##col": 2056,
      "##ing w": 2057,
      "##me!": 2058,
      "##answ": 2059,
      "Let ": 2060,
      "##det": 2061,
      "To ": 2062,
      "##sorry.": 2063,
      "##az": 2064,
      "## they": 2065,
      "##ept": 2066,
      "##gotta ": 2067,
      "##seen ": 2068,
      "##compl": 2069,
      "##e wor": 2070,
      "How": 2071,
      "##serv": 2072,
      "##hun": 2073,
      "##err": 2074,
      "##dest": 2075,
      "##ide ": 2076,
      "##boy": 2077,
      "##den": 2078,
      "##o, ": 2079,
      "##reak": 2080,
      "## thing ": 2081,
      "##used to ": 2082,
      "##show": 2083,
      "##work ": 2084,
      "##betwe": 2085,
      "##ris": 2086,
      "##such ": 2087,
      "In ": 2088,
      "##ard ": 2089,
      "##ult": 2090,
      "- What ": 2091,
      "##ous ": 2092,
      "##. We ": 2093,
      "##, u": 2094,
      "##person": 2095,
      "##pretty ": 2096,
      "##ers": 2097,
      "##e... ": 2098,
      "##ros": 2099,
      "I'm": 2100,
      "##clos": 2101,
      "##less ": 2102,
      "##dat": 2103,
      "##than ": 2104,
      "##ight.": 2105,
      "##inst": 2106,
      "##hell": 2107,
      "I just ": 2108,
      "##omorr": 2109,
      "- G": 2110,
      "##beh": 2111,
      "##men": 2112,
      "Is ": 2113,
      "Se": 2114,
      "##, it's ": 2115,
      "##listen": 2116,
      "Have ": 2117,
      "##on?": 2118,
      "- B": 2119,
      "##meet ": 2120,
      "##nothing ": 2121,
      "##like to ": 2122,
      "##arn": 2123,
      "##Fr": 2124,
      "##arm": 2125,
      "## trying to ": 2126,
      "##hal": 2127,
      "##called ": 2128,
      "##sent ": 2129,
      "##dev": 2130,
      "##when": 2131,
      "Al": 2132,
      "##es to ": 2133,
      "##stop ": 2134,
      "##%1": 2135,
      "##ci": 2136,
      "##want ": 2137,
      "##in your ": 2138,
      "##I'm": 2139,
      "##buil": 2140,
      "##them": 2141,
      "##in my ": 2142,
      "##ait ": 2143,
      "##ing with ": 2144,
      "Is": 2145,
      "##IN": 2146,
      "##more.": 2147,
      "##brea": 2148,
      "##him?": 2149,
      "##gonna be ": 2150,
      "##real ": 2151,
      "##pri": 2152,
      "##ay.": 2153,
      "##show ": 2154,
      "##le.": 2155,
      "##conf": 2156,
      "##ire ": 2157,
      "##ann": 2158,
      "##land": 2159,
      "##, and": 2160,
      "##guys ": 2161,
      "## that you ": 2162,
      "##His ": 2163,
      "##question": 2164,
      "##end.": 2165,
      "##O ": 2166,
      "##ple ": 2167,
      "##return": 2168,
      "##light": 2169,
      "##I have ": 2170,
      "##ga": 2171,
      "##ire": 2172,
      "##essa": 2173,
      "##into the ": 2174,
      "##ed to": 2175,
      "##. G": 2176,
      "##both ": 2177,
      "##figu": 2178,
      "##suppos": 2179,
      "You don't ": 2180,
      "##ble.": 2181,
      "Now ": 2182,
      "##Joh": 2183,
      "##bring ": 2184,
      "##What ": 2185,
      "##ass ": 2186,
      "##home.": 2187,
      "##ther.": 2188,
      "Did you ": 2189,
      "##ok": 2190,
      "##sub": 2191,
      "##hor": 2192,
      "##it to ": 2193,
      "If you ": 2194,
      "I know ": 2195,
      "As ": 2196,
      "##cc": 2197,
      "##Mr. ": 2198,
      "##ber": 2199,
      "##maybe ": 2200,
      "##life.": 2201,
      "##lad": 2202,
      "##ure.": 2203,
      "##set ": 2204,
      "##one of ": 2205,
      "##find": 2206,
      "I am ": 2207,
      "##el.": 2208,
      "##sir.": 2209,
      "##reat": 2210,
      "##e with": 2211,
      "##er of ": 2212,
      "##night.": 2213,
      "##it is ": 2214,
      "##men ": 2215,
      "##follow": 2216,
      "## took ": 2217,
      "##home ": 2218,
      "##ood.": 2219,
      "##It's ": 2220,
      "##best ": 2221,
      "##. N": 2222,
      "##cam": 2223,
      "##vers": 2224,
      "##cap": 2225,
      "##pat": 2226,
      "##got a ": 2227,
      "##heard ": 2228,
      "- L": 2229,
      "Do": 2230,
      "##mou": 2231,
      "##are.": 2232,
      "##dra": 2233,
      "##move ": 2234,
      "##your w": 2235,
      "##rad": 2236,
      "##expl": 2237,
      "##next ": 2238,
      "##back to ": 2239,
      "##everything ": 2240,
      "##ide": 2241,
      "##couldn't ": 2242,
      "##A ": 2243,
      "##let's ": 2244,
      "##ing that ": 2245,
      "##. No": 2246,
      "## three ": 2247,
      "##ark": 2248,
      "##order": 2249,
      "He was ": 2250,
      "##e the ": 2251,
      "Come on, ": 2252,
      "##/ ": 2253,
      "##she": 2254,
      "##ious ": 2255,
      "##bel": 2256,
      "##ents ": 2257,
      "##. And ": 2258,
      "##ings ": 2259,
      "##dro": 2260,
      "##also ": 2261,
      "##. The ": 2262,
      "##haven't ": 2263,
      "## tea": 2264,
      "## talk to ": 2265,
      "##aught": 2266,
      "##Al": 2267,
      "##ed a ": 2268,
      "##son.": 2269,
      "## tell me ": 2270,
      "## we": 2271,
      "##ed with ": 2272,
      "##exact": 2273,
      "##of this ": 2274,
      "##coun": 2275,
      "##ition": 2276,
      "##ld.": 2277,
      "##cover": 2278,
      "- Yea": 2279,
      "##En": 2280,
      "## ton": 2281,
      "##e. T": 2282,
      "##law": 2283,
      "##fort": 2284,
      "Her": 2285,
      "His ": 2286,
      "##you want": 2287,
      "##first": 2288,
      "##se?": 2289,
      "##rest": 2290,
      "##yp": 2291,
      "##idea": 2292,
      "##busin": 2293,
      "##e, and ": 2294,
      "##en the ": 2295,
      "##away": 2296,
      "##eat": 2297,
      "##better": 2298,
      "## would ": 2299,
      "##if I ": 2300,
      "##ing to": 2301,
      "##brou": 2302,
      "##not.": 2303,
      "##deal": 2304,
      "##do?": 2305,
      "##okay.": 2306,
      "##night ": 2307,
      "##ship": 2308,
      "## tou": 2309,
      "##know what": 2310,
      "##, he ": 2311,
      "##save ": 2312,
      "##sou": 2313,
      "##ance.": 2314,
      "##omb": 2315,
      "##a f": 2316,
      "##them ": 2317,
      "##Ne": 2318,
      "- I'm ": 2319,
      "##you want to ": 2320,
      "##ity": 2321,
      "##are you?": 2322,
      "##lost ": 2323,
      "##bar": 2324,
      "##afra": 2325,
      "##cop": 2326,
      "##knew ": 2327,
      "##stand": 2328,
      "##something.": 2329,
      "##much": 2330,
      "##for you.": 2331,
      "##pass": 2332,
      "##hich": 2333,
      "##you are ": 2334,
      "##liz": 2335,
      "##ey, ": 2336,
      "##S ": 2337,
      "##In": 2338,
      "## the tru": 2339,
      "##ove ": 2340,
      "##ine.": 2341,
      "##, then ": 2342,
      "##ious": 2343,
      "##er's ": 2344,
      "## tw": 2345,
      "Please ": 2346,
      "##pun": 2347,
      "##of a ": 2348,
      "## talk ": 2349,
      "##import": 2350,
      "##contro": 2351,
      "##eas": 2352,
      "##since ": 2353,
      "##ath": 2354,
      "##wif": 2355,
      "##s, and ": 2356,
      "##And ": 2357,
      "##f cour": 2358,
      "##sav": 2359,
      "##ham": 2360,
      "I'd ": 2361,
      "##knows ": 2362,
      "##ction": 2363,
      "##ue ": 2364,
      "##rist": 2365,
      "##ence.": 2366,
      "That": 2367,
      "##Ar": 2368,
      "I didn't ": 2369,
      "##s,": 2370,
      "##eat ": 2371,
      "##childr": 2372,
      "##makes ": 2373,
      "##ning ": 2374,
      "##utiful": 2375,
      "##fav": 2376,
      "##secre": 2377,
      "##syst": 2378,
      "##against ": 2379,
      "## with the ": 2380,
      "##scar": 2381,
      "You know": 2382,
      "##tru": 2383,
      "##else ": 2384,
      "##e? ": 2385,
      "##month": 2386,
      "##mother": 2387,
      "##on your ": 2388,
      "##as the ": 2389,
      "##shoo": 2390,
      "##cho": 2391,
      "Uh, ": 2392,
      "##, we're ": 2393,
      "##dead.": 2394,
      "##los": 2395,
      "##youn": 2396,
      "##had to ": 2397,
      "Exc": 2398,
      "##away.": 2399,
      "##off.": 2400,
      "##probab": 2401,
      "Go ": 2402,
      "##ah": 2403,
      "##ell, ": 2404,
      "Take ": 2405,
      "Okay.": 2406,
      "##ink ": 2407,
      "##that.": 2408,
      "##ment.": 2409,
      "##ist ": 2410,
      "##ject": 2411,
      "## then": 2412,
      "##around": 2413,
      "##matter": 2414,
      "##rat": 2415,
      "##rit": 2416,
      "##daught": 2417,
      "##mean ": 2418,
      "##ds ": 2419,
      "##e and ": 2420,
      "##enn": 2421,
      "## the hell ": 2422,
      "##meet": 2423,
      "##cli": 2424,
      "Good ": 2425,
      "##promis": 2426,
      "##ry.": 2427,
      "I thought ": 2428,
      "##start ": 2429,
      "##bas": 2430,
      "##which ": 2431,
      "##one of": 2432,
      "##please.": 2433,
      "##you and ": 2434,
      "It's not ": 2435,
      "You've ": 2436,
      "##sorry": 2437,
      "##until ": 2438,
      "##dep": 2439,
      "##, this ": 2440,
      "##inform": 2441,
      "##book": 2442,
      "##act ": 2443,
      "##are the ": 2444,
      "##ax": 2445,
      "##, but": 2446,
      "##coll": 2447,
      "##luck": 2448,
      "List": 2449,
      "##beg": 2450,
      "##huh?": 2451,
      "##onder": 2452,
      "##here. ": 2453,
      "##ress": 2454,
      "##hum": 2455,
      "##talk": 2456,
      "##up, ": 2457,
      "##did.": 2458,
      "##people.": 2459,
      "##fight": 2460,
      "##An": 2461,
      "## there": 2462,
      "##break": 2463,
      "##dre": 2464,
      "I can ": 2465,
      "All right, ": 2466,
      "For": 2467,
      "For ": 2468,
      "##supposed to ": 2469,
      "##brother": 2470,
      "##problem": 2471,
      "##be.": 2472,
      "##eap": 2473,
      "##ies.": 2474,
      "##other.": 2475,
      "##great": 2476,
      "##nice ": 2477,
      "##ed me ": 2478,
      "##00 ": 2479,
      "##craz": 2480,
      "##ses ": 2481,
      "##: \"": 2482,
      "## talking ": 2483,
      "##now?": 2484,
      "##imag": 2485,
      "##anyone ": 2486,
      "##dri": 2487,
      "##caus": 2488,
      "## through ": 2489,
      "##cal": 2490,
      "##you'd ": 2491,
      "##hold ": 2492,
      "One ": 2493,
      "##wom": 2494,
      "You know, ": 2495,
      "##ed for ": 2496,
      "##fact": 2497,
      "##hos": 2498,
      "##go, ": 2499,
      "##cannot ": 2500,
      "##eith": 2501,
      "##erv": 2502,
      "Look ": 2503,
      "##y and ": 2504,
      "All": 2505,
      "##you'll ": 2506,
      "##you think": 2507,
      "##I will ": 2508,
      "##head ": 2509,
      "##offic": 2510,
      "Tell ": 2511,
      "##you will ": 2512,
      "##ate.": 2513,
      "##able.": 2514,
      "##. P": 2515,
      "##respon": 2516,
      "##Just ": 2517,
      "##last": 2518,
      "##oy": 2519,
      "##has been ": 2520,
      "##fine.": 2521,
      "##ge.": 2522,
      "##stud": 2523,
      "##clear": 2524,
      "##Car": 2525,
      "## there?": 2526,
      "##a?": 2527,
      "##thou": 2528,
      "##bad ": 2529,
      "##hol": 2530,
      "##sleep": 2531,
      "Or ": 2532,
      "##I think ": 2533,
      "##wasn't ": 2534,
      "##ster": 2535,
      "##friend ": 2536,
      "##high": 2537,
      "##among": 2538,
      "##ive.": 2539,
      "##of your ": 2540,
      "##see": 2541,
      "##believer": 2542,
      "##dead ": 2543,
      "##ago.": 2544,
      "##sit": 2545,
      "##this": 2546,
      "##can't": 2547,
      "##ble": 2548,
      "##ic.": 2549,
      "##, so ": 2550,
      "##come to ": 2551,
      "##run ": 2552,
      "##damn ": 2553,
      "##swe": 2554,
      "##only": 2555,
      "##ie ": 2556,
      "##vict": 2557,
      "##. Th": 2558,
      "##lice ": 2559,
      "##should be ": 2560,
      "& ": 2561,
      "##og": 2562,
      "##house ": 2563,
      "And I ": 2564,
      "##had a ": 2565,
      "##remember": 2566,
      "##on my ": 2567,
      "## turn ": 2568,
      "##ric": 2569,
      "##let me ": 2570,
      "##open": 2571,
      "##on't": 2572,
      "##on a ": 2573,
      "##father ": 2574,
      "##aliv": 2575,
      "##ER": 2576,
      "##his is ": 2577,
      "##go to ": 2578,
      "##fuck ": 2579,
      "## and ": 2580,
      "##eb": 2581,
      "- It's ": 2582,
      "##dou": 2583,
      "##ash": 2584,
      "##. He ": 2585,
      "##es and ": 2586,
      "##cut": 2587,
      "##one, ": 2588,
      "Like ": 2589,
      "## that the ": 2590,
      "##age.": 2591,
      "He w": 2592,
      "##thing to ": 2593,
      "##of w": 2594,
      "## that I ": 2595,
      "##now, ": 2596,
      "##ould you ": 2597,
      "Hell": 2598,
      "##hus": 2599,
      "##? W": 2600,
      "##d?": 2601,
      "Let me ": 2602,
      "##as a ": 2603,
      "##im ": 2604,
      "##Your ": 2605,
      "Any": 2606,
      "##I'm not ": 2607,
      "##ve": 2608,
      "##doing?": 2609,
      "You are ": 2610,
      "##hope ": 2611,
      "##speak": 2612,
      "##Th": 2613,
      "##light ": 2614,
      "##interest": 2615,
      "##probably ": 2616,
      "##Qu": 2617,
      "## tomorr": 2618,
      "##murder": 2619,
      "##one who ": 2620,
      "##door": 2621,
      "##meric": 2622,
      "##fron": 2623,
      "##rel": 2624,
      "##reg": 2625,
      "##usp": 2626,
      "##adv": 2627,
      "##ps ": 2628,
      "##lar": 2629,
      "##be a ": 2630,
      "You can ": 2631,
      "##will": 2632,
      "##has": 2633,
      "##hid": 2634,
      "##e what ": 2635,
      "##. It ": 2636,
      "All right": 2637,
      "##org": 2638,
      "##ed and ": 2639,
      "Some": 2640,
      "##world ": 2641,
      "##under ": 2642,
      "So, ": 2643,
      "##complet": 2644,
      "When": 2645,
      "##ly, ": 2646,
      "##sear": 2647,
      "##int ": 2648,
      "##doing": 2649,
      "We've ": 2650,
      "##5 ": 2651,
      "##cent": 2652,
      "##bit": 2653,
      "## than": 2654,
      "##far ": 2655,
      "##s...": 2656,
      "##ction ": 2657,
      "##, too.": 2658,
      "##out of the ": 2659,
      "##ye ": 2660,
      "##ally, ": 2661,
      "##es the ": 2662,
      "##brought ": 2663,
      "- N": 2664,
      "##heart": 2665,
      "## things ": 2666,
      "##leg": 2667,
      "##fer": 2668,
      "##, this is ": 2669,
      "##inde": 2670,
      "No, no": 2671,
      "##ed that ": 2672,
      "##ce.": 2673,
      "##husb": 2674,
      "##clo": 2675,
      "##actually ": 2676,
      "##appear": 2677,
      "##destro": 2678,
      "##2 ": 2679,
      "##work.": 2680,
      "##set": 2681,
      "##sim": 2682,
      "##pit": 2683,
      "##For": 2684,
      "##ew": 2685,
      "##igh": 2686,
      "## there, ": 2687,
      "##, we": 2688,
      "##fail": 2689,
      "##pea": 2690,
      "Un": 2691,
      "##less": 2692,
      "##, D": 2693,
      "##er and ": 2694,
      "##Un": 2695,
      "##you don't ": 2696,
      "##direct": 2697,
      "It is ": 2698,
      "##full": 2699,
      "##are you": 2700,
      "##prov": 2701,
      "##; and ": 2702,
      "What do ": 2703,
      "##check": 2704,
      "##ester": 2705,
      "##ech": 2706,
      "##own.": 2707,
      "##ing me ": 2708,
      "##more than ": 2709,
      "##not the ": 2710,
      "##money ": 2711,
      "##making ": 2712,
      "##gonna": 2713,
      "##a lot of ": 2714,
      "##driv": 2715,
      "##ain't ": 2716,
      "##! - ": 2717,
      "##remember ": 2718,
      "##tak": 2719,
      "##stay": 2720,
      "##doct": 2721,
      "##won't ": 2722,
      "##ime ": 2723,
      "##is it?": 2724,
      "##secur": 2725,
      "##port ": 2726,
      "##help.": 2727,
      "##pain": 2728,
      "I got ": 2729,
      "##quite ": 2730,
      "Ther": 2731,
      "##understand ": 2732,
      "##mind ": 2733,
      "##Re": 2734,
      "##AN": 2735,
      "##conne": 2736,
      "##Yeah.": 2737,
      "##here to ": 2738,
      "##eful": 2739,
      "##gra": 2740,
      "##play ": 2741,
      "##hole ": 2742,
      "##part ": 2743,
      "##room.": 2744,
      "##knew": 2745,
      "##five ": 2746,
      "##sul": 2747,
      "##she was ": 2748,
      "##ool": 2749,
      "##anything": 2750,
      "Give ": 2751,
      "##ward": 2752,
      "Mr. ": 2753,
      "##ty ": 2754,
      "##ili": 2755,
      "##D ": 2756,
      "##big ": 2757,
      "##guess ": 2758,
      "These ": 2759,
      "##val": 2760,
      "##dang": 2761,
      "You have ": 2762,
      "##marri": 2763,
      "##ship ": 2764,
      "Is that ": 2765,
      "##Ex": 2766,
      "##My ": 2767,
      "##between ": 2768,
      "##ness ": 2769,
      "##1 ": 2770,
      "##his": 2771,
      "##everything": 2772,
      "##please ": 2773,
      "##right now.": 2774,
      "##read ": 2775,
      "##house.": 2776,
      "##vi": 2777,
      "##stre": 2778,
      "##least ": 2779,
      "##don't think ": 2780,
      "##erc": 2781,
      "##strong": 2782,
      "We'll ": 2783,
      "They": 2784,
      "Our ": 2785,
      "##ing!": 2786,
      "##bir": 2787,
      "##never": 2788,
      "## tra": 2789,
      "##ame ": 2790,
      "##T ": 2791,
      "##rop": 2792,
      "##yl": 2793,
      "##wat": 2794,
      "##ing you ": 2795,
      "## work": 2796,
      "##in' ": 2797,
      "##one w": 2798,
      "Be": 2799,
      "##iss ": 2800,
      "- P": 2801,
      "##side.": 2802,
      "##y the ": 2803,
      "##once ": 2804,
      "##. What ": 2805,
      "##icul": 2806,
      "##. That's ": 2807,
      "Sorr": 2808,
      "## tim": 2809,
      "##earth": 2810,
      "##anything.": 2811,
      "##ez": 2812,
      "##loc": 2813,
      "##sorry, ": 2814,
      "##ing for ": 2815,
      "##of my ": 2816,
      "##hang": 2817,
      "##know?": 2818,
      "##hurt ": 2819,
      "##exper": 2820,
      "##ead": 2821,
      "##up!": 2822,
      "Can": 2823,
      "##dist": 2824,
      "##friend.": 2825,
      "##ies": 2826,
      "##mill": 2827,
      "## their": 2828,
      "##should": 2829,
      "##opt": 2830,
      "##ver ": 2831,
      "## trust ": 2832,
      "##Mr": 2833,
      "## trou": 2834,
      "##become ": 2835,
      "I need ": 2836,
      "##hard ": 2837,
      "##without ": 2838,
      "##fect": 2839,
      "##comes ": 2840,
      "##ound.": 2841,
      "##you want ": 2842,
      "##must be ": 2843,
      "Of cour": 2844,
      "- R": 2845,
      "##know that ": 2846,
      "##Americ": 2847,
      "##hit": 2848,
      "##like a ": 2849,
      "##Com": 2850,
      "##mark": 2851,
      "##certain": 2852,
      "##one's ": 2853,
      "I'm gonna ": 2854,
      "##world": 2855,
      "##ild ": 2856,
      "I will ": 2857,
      "##close ": 2858,
      "##ian": 2859,
      "##exactly ": 2860,
      "##sm": 2861,
      "##hard": 2862,
      "##place.": 2863,
      "##tr": 2864,
      "##scre": 2865,
      "##stat": 2866,
      "##ed my ": 2867,
      "##esseng": 2868,
      "Wait": 2869,
      "##stra": 2870,
      "##us, ": 2871,
      "##along": 2872,
      "##get the ": 2873,
      "##attack": 2874,
      "What are you ": 2875,
      "##ely.": 2876,
      "##beautiful": 2877,
      "##Con": 2878,
      "##is no ": 2879,
      "##oper": 2880,
      "##I.": 2881,
      "##is that ": 2882,
      "##ally.": 2883,
      "##ck.": 2884,
      "## that, ": 2885,
      "##ge": 2886,
      "##I was": 2887,
      "##you a ": 2888,
      "##stuff": 2889,
      "## thought": 2890,
      "##found": 2891,
      "##invest": 2892,
      "Can you ": 2893,
      "##pur": 2894,
      "##give me ": 2895,
      "##figure ": 2896,
      "##hit ": 2897,
      "##, what": 2898,
      "Com": 2899,
      "##bra": 2900,
      "##met": 2901,
      "We have ": 2902,
      "##change ": 2903,
      "To": 2904,
      "##head.": 2905,
      "##key": 2906,
      "- Y": 2907,
      "Then": 2908,
      "##se. ": 2909,
      "##ery ": 2910,
      "##ed up ": 2911,
      "##igg": 2912,
      "##gets ": 2913,
      "##may": 2914,
      "##having ": 2915,
      "##aul": 2916,
      "##led": 2917,
      "##full ": 2918,
      "##).": 2919,
      "##over.": 2920,
      "You were ": 2921,
      "##New ": 2922,
      "##lose ": 2923,
      "##time ": 2924,
      "##cu": 2925,
      "##bad": 2926,
      "##ever.": 2927,
      "##all right?": 2928,
      "##creat": 2929,
      "## to take ": 2930,
      "##into": 2931,
      "##left": 2932,
      "##vie": 2933,
      "##gone ": 2934,
      "## we're ": 2935,
      "##have you ": 2936,
      "##s in the ": 2937,
      "##it's": 2938,
      "## thing.": 2939,
      "I mean, ": 2940,
      "##io": 2941,
      "But I ": 2942,
      "##eep ": 2943,
      "##iss": 2944,
      "I want ": 2945,
      "##fiel": 2946,
      "##on!": 2947,
      "##you!": 2948,
      "##about?": 2949,
      "## that they ": 2950,
      "##family ": 2951,
      "##es are ": 2952,
      "##yet": 2953,
      "##how to ": 2954,
      "##still": 2955,
      "##protect": 2956,
      "## ter": 2957,
      "##gent": 2958,
      "##ement": 2959,
      "##ous.": 2960,
      "##didn't": 2961,
      "##met ": 2962,
      "##e, but ": 2963,
      "##a!": 2964,
      "##P ": 2965,
      "##point": 2966,
      "##consid": 2967,
      "##him to ": 2968,
      "##rep": 2969,
      "##soon ": 2970,
      "##mus": 2971,
      "##ull": 2972,
      "##h...": 2973,
      "##messa": 2974,
      "##ump": 2975,
      "Con": 2976,
      "##saw": 2977,
      "##ens": 2978,
      "##be the ": 2979,
      "##punish": 2980,
      "##concer": 2981,
      "##asked ": 2982,
      "##two ": 2983,
      "##god": 2984,
      "##guid": 2985,
      "##get to ": 2986,
      "Now, ": 2987,
      "##wait": 2988,
      "##what you ": 2989,
      "##send ": 2990,
      "##prof": 2991,
      "##x.": 2992,
      "##id.": 2993,
      "##ness": 2994,
      "It's a ": 2995,
      "##s of the ": 2996,
      "##money.": 2997,
      "##whole ": 2998,
      "##well ": 2999,
      "##Jo": 3000,
      "##, S": 3001,
      "##succ": 3002,
      "##pati": 3003,
      "##ven ": 3004,
      "##,00": 3005,
      "##Br": 3006,
      "##stru": 3007,
      "##ific": 3008,
      "##ily ": 3009,
      "##off the ": 3010,
      "##system": 3011,
      "##It ": 3012,
      "##e! ": 3013,
      "##es of ": 3014,
      "##years.": 3015,
      "##reason": 3016,
      "##nat": 3017,
      "##for your ": 3018,
      "##, I don't ": 3019,
      "##expect": 3020,
      "##agre": 3021,
      "##an, ": 3022,
      "- Oh, ": 3023,
      "It's": 3024,
      "##upon ": 3025,
      "##mist": 3026,
      "##hot": 3027,
      "##ent to ": 3028,
      "##apo": 3029,
      "##gent ": 3030,
      "##gener": 3031,
      "##phone ": 3032,
      "##morning.": 3033,
      "##in his ": 3034,
      "##one of the ": 3035,
      "##one?": 3036,
      "##. F": 3037,
      "##eti": 3038,
      "##u ": 3039,
      "##evid": 3040,
      "##. They ": 3041,
      "Are ": 3042,
      "##ey.": 3043,
      "##fut": 3044,
      "##AR": 3045,
      "##er is ": 3046,
      "##human ": 3047,
      "##susp": 3048,
      "##equ": 3049,
      "##is, ": 3050,
      "##room ": 3051,
      "##means ": 3052,
      "##inside ": 3053,
      "##oft": 3054,
      "##her?": 3055,
      "##def": 3056,
      "##cut ": 3057,
      "##I would ": 3058,
      "##dem": 3059,
      "##I am ": 3060,
      "##almost ": 3061,
      "##not be ": 3062,
      "##die ": 3063,
      "##girl ": 3064,
      "##Him": 3065,
      "##Our ": 3066,
      "## were ": 3067,
      "##are we ": 3068,
      "##mach": 3069,
      "##polic": 3070,
      "##police ": 3071,
      "##given ": 3072,
      "##open ": 3073,
      "##him, ": 3074,
      "##ert": 3075,
      "##uni": 3076,
      "##, when ": 3077,
      "##dog": 3078,
      "##dar": 3079,
      "##ank you.": 3080,
      "Excuse ": 3081,
      "##something": 3082,
      "##ating ": 3083,
      "##rema": 3084,
      "##proc": 3085,
      "##if we ": 3086,
      "##0.": 3087,
      "##er to ": 3088,
      "##this.": 3089,
      "##. You": 3090,
      "##their ": 3091,
      "##fire": 3092,
      "## was": 3093,
      "Af": 3094,
      "##kay.": 3095,
      "Have you ": 3096,
      "##sound": 3097,
      "##dy": 3098,
      "##die.": 3099,
      "##olv": 3100,
      "##yet.": 3101,
      "##ement ": 3102,
      "##I could ": 3103,
      "##says ": 3104,
      "Come on": 3105,
      "##ory ": 3106,
      "##, who ": 3107,
      "##here!": 3108,
      "##of cour": 3109,
      "Some ": 3110,
      "##have the ": 3111,
      "##enough ": 3112,
      "##second": 3113,
      "##learn": 3114,
      "He is ": 3115,
      "##Christ": 3116,
      "##the w": 3117,
      "##elect": 3118,
      "##done.": 3119,
      "##anymore.": 3120,
      "##ore ": 3121,
      "##week": 3122,
      "##mother ": 3123,
      "##see you ": 3124,
      "And the ": 3125,
      "##decid": 3126,
      "##shit.": 3127,
      "##es!": 3128,
      "##ush": 3129,
      "##hospit": 3130,
      "##ard.": 3131,
      "##. R": 3132,
      "##car.": 3133,
      "##, then": 3134,
      "##bos": 3135,
      "##ed it ": 3136,
      "Look, ": 3137,
      "##us?": 3138,
      "##sorry ": 3139,
      "##yourself ": 3140,
      "##heaven": 3141,
      "##stup": 3142,
      "##jud": 3143,
      "##until": 3144,
      "##ing and ": 3145,
      "##ill.": 3146,
      "##yourself": 3147,
      "##uc": 3148,
      "##vo": 3149,
      "##belong": 3150,
      "En": 3151,
      "##pay ": 3152,
      "##Come ": 3153,
      "##alt": 3154,
      "##mot": 3155,
      "##out of": 3156,
      "##spo": 3157,
      "##ign": 3158,
      "##over the ": 3159,
      "##like, ": 3160,
      "##tri": 3161,
      "##in that ": 3162,
      "## which ": 3163,
      "##so.": 3164,
      "##was the ": 3165,
      "##'ll take ": 3166,
      "##row": 3167,
      "##ing this ": 3168,
      "##flo": 3169,
      "##ass.": 3170,
      "##, there's ": 3171,
      "##. You're ": 3172,
      "##real": 3173,
      "##out the ": 3174,
      "##ed you ": 3175,
      "##usu": 3176,
      "##not to ": 3177,
      "##mid": 3178,
      "- F": 3179,
      "I think": 3180,
      "##they": 3181,
      "##ick.": 3182,
      "##up to ": 3183,
      "##ton": 3184,
      "## thre": 3185,
      "##er!": 3186,
      "##e would ": 3187,
      "##money": 3188,
      "##, uh, ": 3189,
      "Right": 3190,
      "## will be ": 3191,
      "## though": 3192,
      "##ug": 3193,
      "##line ": 3194,
      "##i, ": 3195,
      "##drink": 3196,
      "##a lot ": 3197,
      "##pull": 3198,
      "##ING": 3199,
      "##fear": 3200,
      "##appro": 3201,
      "##would be ": 3202,
      "##I want ": 3203,
      "##soci": 3204,
      "##sun": 3205,
      "Which ": 3206,
      "##oint": 3207,
      "##too ": 3208,
      "##kind ": 3209,
      "##19": 3210,
      "##? T": 3211,
      "##much.": 3212,
      "##iat": 3213,
      "You know ": 3214,
      "##told ": 3215,
      "##uli": 3216,
      "##and.": 3217,
      "##near": 3218,
      "##rest ": 3219,
      "##used ": 3220,
      "##yourself.": 3221,
      "##what?": 3222,
      "##s with ": 3223,
      "##ited ": 3224,
      "Hel": 3225,
      "##stri": 3226,
      "##nor ": 3227,
      "##What": 3228,
      "##ident ": 3229,
      "##shot ": 3230,
      "##afraid ": 3231,
      "##anted to ": 3232,
      "##do it.": 3233,
      "##fair": 3234,
      "##don't you ": 3235,
      "##empt": 3236,
      "Thank": 3237,
      "What happen": 3238,
      "##check ": 3239,
      "##& ": 3240,
      "##ered ": 3241,
      "##victim": 3242,
      "##allow": 3243,
      "Re": 3244,
      "##vir": 3245,
      "## what?": 3246,
      "##piec": 3247,
      "##for me.": 3248,
      "##look at ": 3249,
      "##. Come ": 3250,
      "##next": 3251,
      "##behind ": 3252,
      "##Bl": 3253,
      "##stand ": 3254,
      "##of them ": 3255,
      "##I know ": 3256,
      "What do you ": 3257,
      "##s a ": 3258,
      "##qui": 3259,
      "Ab": 3260,
      "##e is ": 3261,
      "##you're not ": 3262,
      "##bull": 3263,
      "## trans": 3264,
      "##Engl": 3265,
      "##. But ": 3266,
      "##a's ": 3267,
      "##s on ": 3268,
      "## to get ": 3269,
      "##fel": 3270,
      "##as.": 3271,
      "##up?": 3272,
      "##suff": 3273,
      "##I'm gonna ": 3274,
      "##hand ": 3275,
      "##lau": 3276,
      "##And": 3277,
      "##could be ": 3278,
      "##pay": 3279,
      "##different ": 3280,
      "##lev": 3281,
      "##everyone ": 3282,
      "##TH": 3283,
      "##aren't ": 3284,
      "##eall": 3285,
      "##can be ": 3286,
      "##hite ": 3287,
      "##kind": 3288,
      "##press": 3289,
      "##solut": 3290,
      "##finish": 3291,
      "She was ": 3292,
      "##gam": 3293,
      "##gover": 3294,
      "##half ": 3295,
      "Gu": 3296,
      "##hom ": 3297,
      "##rece": 3298,
      "##dru": 3299,
      "##, right?": 3300,
      "##ed in the ": 3301,
      "I love ": 3302,
      "##word ": 3303,
      "##story ": 3304,
      "##est.": 3305,
      "##, it ": 3306,
      "##I can't ": 3307,
      "##alone.": 3308,
      "No!": 3309,
      "##lab": 3310,
      "##chance ": 3311,
      "##all of ": 3312,
      "##known ": 3313,
      "##far": 3314,
      "##see the ": 3315,
      "##uck ": 3316,
      "You can't ": 3317,
      "- The ": 3318,
      "At ": 3319,
      "##stair": 3320,
      "Car": 3321,
      "## to me.": 3322,
      "##is?": 3323,
      "I want to ": 3324,
      "##curr": 3325,
      "##burn": 3326,
      "##, which ": 3327,
      "##rul": 3328,
      "##. -": 3329,
      "##see.": 3330,
      "##about it.": 3331,
      "##ran": 3332,
      "##Oh, ": 3333,
      "##ing in ": 3334,
      "##before.": 3335,
      "##red": 3336,
      "##om.": 3337,
      "##like the ": 3338,
      "Prev": 3339,
      "##a few ": 3340,
      "##God.": 3341,
      "##investig": 3342,
      "##ous": 3343,
      "##cod": 3344,
      "##etect": 3345,
      "##in, ": 3346,
      "##stopp": 3347,
      "##Do ": 3348,
      "##car ": 3349,
      "##record": 3350,
      "##looking for ": 3351,
      "##name is ": 3352,
      "##ost": 3353,
      "##dinn": 3354,
      "##se!": 3355,
      "##exam": 3356,
      "##pped ": 3357,
      "##against": 3358,
      "##matt": 3359,
      "##indow": 3360,
      "##on this ": 3361,
      "##up the ": 3362,
      "##eed": 3363,
      "##ie.": 3364,
      "##= ": 3365,
      "##goes ": 3366,
      "##e. - ": 3367,
      "##body.": 3368,
      "##itor": 3369,
      "##liver": 3370,
      "##ount": 3371,
      "##ile ": 3372,
      "## thinking ": 3373,
      "##memor": 3374,
      "##surv": 3375,
      "##away from ": 3376,
      "##pol": 3377,
      "##walk": 3378,
      "##pict": 3379,
      "##enjo": 3380,
      "##fight ": 3381,
      "##everything.": 3382,
      "##rite ": 3383,
      "##went ": 3384,
      "- We ": 3385,
      "##understand.": 3386,
      "##Har": 3387,
      "##ess, ": 3388,
      "## today.": 3389,
      "You're not ": 3390,
      "##family.": 3391,
      "##fear ": 3392,
      "##ely": 3393,
      "##ing my ": 3394,
      "Well, I ": 3395,
      "##sit ": 3396,
      "##go!": 3397,
      "##e, you ": 3398,
      "##wee": 3399,
      "##knowled": 3400,
      "##agg": 3401,
      "##strang": 3402,
      "##job.": 3403,
      "Um": 3404,
      "##mind": 3405,
      "##nic": 3406,
      "##ator": 3407,
      "## today": 3408,
      "##ect.": 3409,
      "##, why ": 3410,
      "##ifi": 3411,
      "##well.": 3412,
      "##bur": 3413,
      "##ones ": 3414,
      "##n't.": 3415,
      "##rot": 3416,
      "##be w": 3417,
      "##del": 3418,
      "##OU": 3419,
      "##reli": 3420,
      "##really": 3421,
      "##ing your ": 3422,
      "Per": 3423,
      "##gri": 3424,
      "##ork": 3425,
      "##there ": 3426,
      "##um ": 3427,
      "I know": 3428,
      "##sure.": 3429,
      "##ial": 3430,
      "##what I ": 3431,
      "- What": 3432,
      "##running ": 3433,
      "## themselv": 3434,
      "## where ": 3435,
      "##blood ": 3436,
      "##body": 3437,
      "What the ": 3438,
      "##fire ": 3439,
      "##doub": 3440,
      "##ON": 3441,
      "- You": 3442,
      "##boy ": 3443,
      "##make it ": 3444,
      "##ublic": 3445,
      "##ed his ": 3446,
      "##about.": 3447,
      "##and then ": 3448,
      "##... and ": 3449,
      "I told ": 3450,
      "##yester": 3451,
      "##on that ": 3452,
      "##thor": 3453,
      "##girl.": 3454,
      "##four ": 3455,
      "Good": 3456,
      "##death": 3457,
      "##realiz": 3458,
      "##\"?": 3459,
      "##you the ": 3460,
      "##high ": 3461,
      "##comput": 3462,
      "##ought ": 3463,
      "##div": 3464,
      "##, there ": 3465,
      "##young ": 3466,
      "Ar": 3467,
      "- You're ": 3468,
      "##ion, ": 3469,
      "##mail": 3470,
      "##guy.": 3471,
      "##ince ": 3472,
      "##forc": 3473,
      "##come.": 3474,
      "##blood": 3475,
      "##build": 3476,
      "##spac": 3477,
      "##did not ": 3478,
      "There are ": 3479,
      "##govern": 3480,
      "##ait.": 3481,
      "##sing": 3482,
      "##Day ": 3483,
      "##ise.": 3484,
      "##hil": 3485,
      "##adm": 3486,
      "##4 ": 3487,
      "##ion of ": 3488,
      "##protect ": 3489,
      "##Jap": 3490,
      "## they were ": 3491,
      "##posit": 3492,
      "##appoint": 3493,
      "##dream": 3494,
      "##hose ": 3495,
      "##, to ": 3496,
      "##s to be ": 3497,
      "##ys": 3498,
      "##an?": 3499,
      "##, no, no": 3500,
      "##do it ": 3501,
      "We are ": 3502,
      "##shit ": 3503,
      "##surely ": 3504,
      "Uh": 3505,
      "##squ": 3506,
      "##in?": 3507,
      "##faul": 3508,
      "Someth": 3509,
      "##bud": 3510,
      "##pose ": 3511,
      "##ations ": 3512,
      "##defin": 3513,
      "##3 ": 3514,
      "Just": 3515,
      "##ze ": 3516,
      "##We have ": 3517,
      "##partn": 3518,
      "##bit ": 3519,
      "##eff": 3520,
      "##funn": 3521,
      "##favor": 3522,
      "##tain ": 3523,
      "##ee ": 3524,
      "##ently ": 3525,
      "Any ": 3526,
      "##fall": 3527,
      "##ond": 3528,
      "##going?": 3529,
      "##lim": 3530,
      "##it's not ": 3531,
      "##cum": 3532,
      "##ani": 3533,
      "##ress ": 3534,
      "##eople ": 3535,
      "##said, ": 3536,
      "##per ": 3537,
      "##I didn't ": 3538,
      "I was": 3539,
      "##wo": 3540,
      "##ed on ": 3541,
      "##enough.": 3542,
      "##secret": 3543,
      "Sir": 3544,
      "##Par": 3545,
      "##going on?": 3546,
      "##fol": 3547,
      "##ers, ": 3548,
      "##ilit": 3549,
      "##iously ": 3550,
      "##danger": 3551,
      "##ne ": 3552,
      "##escap": 3553,
      "##sett": 3554,
      "##me a ": 3555,
      "##D.": 3556,
      "Come on.": 3557,
      "##us to ": 3558,
      "##Allah is ": 3559,
      "##except ": 3560,
      "##does not ": 3561,
      "##of that ": 3562,
      "##file ": 3563,
      "##ill you ": 3564,
      "##brother ": 3565,
      "##days.": 3566,
      "##dead": 3567,
      "## to.": 3568,
      "##can.": 3569,
      "##ake.": 3570,
      "## tow": 3571,
      "##hate ": 3572,
      "##Jan": 3573,
      "##ed to the ": 3574,
      "##boy.": 3575,
      "##camer": 3576,
      "##Cap": 3577,
      "##ari": 3578,
      "##ions ": 3579,
      "##ren": 3580,
      "##second ": 3581,
      "##bag": 3582,
      "##Pet": 3583,
      "##case ": 3584,
      "##pick ": 3585,
      "##. E": 3586,
      "## together.": 3587,
      "##send": 3588,
      "And you ": 3589,
      "## taking ": 3590,
      "##s and the ": 3591,
      "##a big ": 3592,
      "##. He's ": 3593,
      "##clear ": 3594,
      "- Yeah, ": 3595,
      "##een": 3596,
      "##ract": 3597,
      "##, I": 3598,
      "##hey're ": 3599,
      "##job ": 3600,
      "##, you're ": 3601,
      "##I got ": 3602,
      "##best": 3603,
      "##out!": 3604,
      "## way": 3605,
      "##nothing": 3606,
      "##days ": 3607,
      "##follow ": 3608,
      "##error": 3609,
      "##a-": 3610,
      "##pen": 3611,
      "You'll ": 3612,
      "##six ": 3613,
      "Fuck": 3614,
      "Where's ": 3615,
      "##arriv": 3616,
      "##going": 3617,
      "Not": 3618,
      "##myself.": 3619,
      "##But ": 3620,
      "##ed him ": 3621,
      "##uh": 3622,
      "##Col": 3623,
      "##eth ": 3624,
      "##merc": 3625,
      "##gone.": 3626,
      "## them, ": 3627,
      "##somebody ": 3628,
      "##10": 3629,
      "##es that ": 3630,
      "##cau": 3631,
      "##eapon": 3632,
      "##another": 3633,
      "##get a ": 3634,
      "##responsi": 3635,
      "##Pr": 3636,
      "## they are ": 3637,
      "##hands ": 3638,
      "##might be ": 3639,
      "##sea": 3640,
      "##time.": 3641,
      "##wer": 3642,
      "##ago": 3643,
      "##lease ": 3644,
      "##I want to ": 3645,
      "##ke.": 3646,
      "##ff ": 3647,
      "##iate ": 3648,
      "##ried ": 3649,
      "##human": 3650,
      "##land ": 3651,
      "##security ": 3652,
      "##sum": 3653,
      "- How ": 3654,
      "##che": 3655,
      "##ho's ": 3656,
      "##, well": 3657,
      "I would ": 3658,
      "##coo": 3659,
      "##think": 3660,
      "##sto": 3661,
      "##cros": 3662,
      "##♪ ": 3663,
      "##, where ": 3664,
      "##up with ": 3665,
      "##do we ": 3666,
      "##got the ": 3667,
      "You think ": 3668,
      "##school": 3669,
      "##Gre": 3670,
      "##contin": 3671,
      "With ": 3672,
      "##have any ": 3673,
      "##reach": 3674,
      "##you for ": 3675,
      "##empl": 3676,
      "##dur": 3677,
      "##Jes": 3678,
      "## too.": 3679,
      "## when": 3680,
      "##offe": 3681,
      "##asking ": 3682,
      "##sig": 3683,
      "##where.": 3684,
      "##! H": 3685,
      "Pro": 3686,
      "##hair": 3687,
      "##is to ": 3688,
      "- Th": 3689,
      "##bri": 3690,
      "##on his ": 3691,
      "##shot": 3692,
      "##lear": 3693,
      "##earth ": 3694,
      "##know who ": 3695,
      "##speak ": 3696,
      "##idea ": 3697,
      "##destroy": 3698,
      "Qu": 3699,
      "Say": 3700,
      "##one": 3701,
      "That was ": 3702,
      "##bb": 3703,
      "##OK": 3704,
      "##'d you ": 3705,
      "Listen": 3706,
      "##mand": 3707,
      "##Messeng": 3708,
      "##reco": 3709,
      "You should ": 3710,
      "##shouldn't ": 3711,
      "##like that.": 3712,
      "##way to ": 3713,
      "##. We're ": 3714,
      "##yeah.": 3715,
      "##ed your ": 3716,
      "##command": 3717,
      "##ual ": 3718,
      "##if he ": 3719,
      "##a man ": 3720,
      "##know where ": 3721,
      "##ants ": 3722,
      "##eyes ": 3723,
      "##better.": 3724,
      "##report": 3725,
      "##tern": 3726,
      "## time": 3727,
      "##shall be ": 3728,
      "##John": 3729,
      "##cle ": 3730,
      "##me the ": 3731,
      "##name": 3732,
      "##parent": 3733,
      "##commun": 3734,
      "##alive.": 3735,
      "##, wait": 3736,
      "##can you ": 3737,
      "##certainly ": 3738,
      "##sal": 3739,
      "##what's ": 3740,
      "##wanna ": 3741,
      "##things ": 3742,
      "##safe ": 3743,
      "##AL": 3744,
      "##rais": 3745,
      "##ah ": 3746,
      "##try": 3747,
      "##free ": 3748,
      "##coupl": 3749,
      "##name.": 3750,
      "##of his ": 3751,
      "##scen": 3752,
      "##cess": 3753,
      "##w.": 3754,
      "##ations.": 3755,
      "##surpris": 3756,
      "##Yeah, ": 3757,
      "##while ": 3758,
      "##Ma": 3759,
      "##rif": 3760,
      "- That's ": 3761,
      "##ish.": 3762,
      "##safe.": 3763,
      "An ": 3764,
      "##word": 3765,
      "##down the ": 3766,
      "##fortun": 3767,
      "##ions.": 3768,
      "##manag": 3769,
      "##fast": 3770,
      "##ray": 3771,
      "##lun": 3772,
      "##ates ": 3773,
      "##emb": 3774,
      "##ctu": 3775,
      "##has a ": 3776,
      "##looks ": 3777,
      "##problem.": 3778,
      "##? H": 3779,
      "##sign ": 3780,
      "##pray": 3781,
      "##buy ": 3782,
      "Her ": 3783,
      "##dom": 3784,
      "##you ar": 3785,
      "##no.": 3786,
      "This is the ": 3787,
      "Oh, my ": 3788,
      "From": 3789,
      "##eal ": 3790,
      "##nothing.": 3791,
      "##heart ": 3792,
      "##may be ": 3793,
      "##given": 3794,
      "Ch": 3795,
      "##y-": 3796,
      "##men.": 3797,
      "## things.": 3798,
      "In the ": 3799,
      "##Char": 3800,
      "## there was ": 3801,
      "## this, ": 3802,
      "##grand": 3803,
      "##death ": 3804,
      "##New Y": 3805,
      "##gentle": 3806,
      "##sme": 3807,
      "##pan": 3808,
      "##Mon": 3809,
      "##I just ": 3810,
      "##wanted to ": 3811,
      "##row ": 3812,
      "##bott": 3813,
      "##hold": 3814,
      "## too": 3815,
      "##resul": 3816,
      "We don't ": 3817,
      "##father.": 3818,
      "##idea.": 3819,
      "##Pres": 3820,
      "##of their ": 3821,
      "##issu": 3822,
      "##exist": 3823,
      "##. This ": 3824,
      "##sess": 3825,
      "##cell": 3826,
      "##fore ": 3827,
      "##like that": 3828,
      "Don't": 3829,
      "##step": 3830,
      "##acros": 3831,
      "##just a ": 3832,
      "##get you ": 3833,
      "See ": 3834,
      "## S": 3835,
      "## why ": 3836,
      "##looked ": 3837,
      "##ward ": 3838,
      "##Pro": 3839,
      "##clud": 3840,
      "##duc": 3841,
      "Mr": 3842,
      "##low": 3843,
      "##world.": 3844,
      "##bi": 3845,
      "##mall ": 3846,
      "##mind.": 3847,
      "##ean": 3848,
      "##mm.": 3849,
      "##you...": 3850,
      "##enter": 3851,
      "##drive ": 3852,
      "Hold ": 3853,
      "##ary.": 3854,
      "##guil": 3855,
      "##print": 3856,
      "##, too": 3857,
      "##person ": 3858,
      "##face ": 3859,
      "## through the ": 3860,
      "##now!": 3861,
      "##ident.": 3862,
      "##capt": 3863,
      "Please, ": 3864,
      "##Chi": 3865,
      "##anim": 3866,
      "##sound ": 3867,
      "##watch": 3868,
      "##\".": 3869,
      "##haps ": 3870,
      "##a new ": 3871,
      "##power ": 3872,
      "##sn": 3873,
      "##sent": 3874,
      "##OR": 3875,
      "What is ": 3876,
      "##! T": 3877,
      "Hey.": 3878,
      "##answer": 3879,
      "##Mo": 3880,
      "##, my ": 3881,
      "##as you ": 3882,
      "##heard": 3883,
      "##have to": 3884,
      "##yeah": 3885,
      "##power": 3886,
      "##cus": 3887,
      "##ply ": 3888,
      "##spe": 3889,
      "##faith": 3890,
      "##entire ": 3891,
      "##say?": 3892,
      "##. That ": 3893,
      "##. I'll ": 3894,
      "##ts ": 3895,
      "##erg": 3896,
      "I'm sorry.": 3897,
      "It's the ": 3898,
      "##I?": 3899,
      "##ort ": 3900,
      "##as I ": 3901,
      "##rag": 3902,
      "## without ": 3903,
      "##explain": 3904,
      "Che": 3905,
      "##God, ": 3906,
      "##said, \"": 3907,
      "Stay ": 3908,
      "##priv": 3909,
      "##hy?": 3910,
      "##door.": 3911,
      "I don't know ": 3912,
      "##All ": 3913,
      "##else.": 3914,
      "##say, ": 3915,
      "##nothing to ": 3916,
      "##doll": 3917,
      "##heal": 3918,
      "##kept ": 3919,
      "##in'": 3920,
      "##can I ": 3921,
      "##ings.": 3922,
      "##20 ": 3923,
      "##enem": 3924,
      "I'm sorry": 3925,
      "- I don't ": 3926,
      "- And ": 3927,
      "##Sh": 3928,
      "##'cause ": 3929,
      "##san": 3930,
      "##ich": 3931,
      "##you could ": 3932,
      "## tell you ": 3933,
      "##pack": 3934,
      "##den ": 3935,
      "##give you ": 3936,
      "##orry": 3937,
      "##for?": 3938,
      "##make a ": 3939,
      "##let you ": 3940,
      "##ject ": 3941,
      "##, or ": 3942,
      "##e when ": 3943,
      "##op.": 3944,
      "I don't know": 3945,
      "Two ": 3946,
      "##pec": 3947,
      "##gar": 3948,
      "##I thought ": 3949,
      "##orn": 3950,
      "##proper": 3951,
      "Those ": 3952,
      "##and they ": 3953,
      "##firm": 3954,
      "##wouldn't ": 3955,
      "##ed them ": 3956,
      "##roll": 3957,
      "##if they ": 3958,
      "##about your ": 3959,
      "##. So ": 3960,
      "May": 3961,
      "##les ": 3962,
      "##fell": 3963,
      "##EN": 3964,
      "## test": 3965,
      "##in their ": 3966,
      "Tom ": 3967,
      "##smo": 3968,
      "##pick": 3969,
      "##PH": 3970,
      "##about to ": 3971,
      "##kn": 3972,
      "##ia ": 3973,
      "## time to ": 3974,
      "There's no ": 3975,
      "##path": 3976,
      "##norm": 3977,
      "##ically ": 3978,
      "##e. W": 3979,
      "##just...": 3980,
      "##angel": 3981,
      "##late.": 3982,
      "##s, but ": 3983,
      "## the time ": 3984,
      "##ran ": 3985,
      "##thing?": 3986,
      "##sec": 3987,
      "##involv": 3988,
      "##school ": 3989,
      "Joh": 3990,
      "##aur": 3991,
      "##etimes ": 3992,
      "##evil": 3993,
      "##it is.": 3994,
      "##cit": 3995,
      "##me that ": 3996,
      "##ade ": 3997,
      "##saying ": 3998,
      "##make sure ": 3999,
      "##possible ": 4000,
      "##possible.": 4001,
      "##mount": 4002,
      "##uh, ": 4003,
      "##do with ": 4004,
      "##sugg": 4005,
      "No, I ": 4006,
      "- Yeah": 4007,
      "##it is": 4008,
      "##'ve been ": 4009,
      "##you would ": 4010,
      "##when you ": 4011,
      "##minutes.": 4012,
      "##indeed ": 4013,
      "##,000 ": 4014,
      "##working ": 4015,
      "##man?": 4016,
      "##ious.": 4017,
      "##are w": 4018,
      "##go?": 4019,
      "##going to be ": 4020,
      "##care of ": 4021,
      "##s were ": 4022,
      "##point ": 4023,
      "##apart": 4024,
      "## try ": 4025,
      "Dam": 4026,
      "##past": 4027,
      "##er than ": 4028,
      "##rap": 4029,
      "##ational ": 4030,
      "##quick": 4031,
      "##ang ": 4032,
      "##mine.": 4033,
      "##f.": 4034,
      "##Ro": 4035,
      "##around.": 4036,
      "##finally ": 4037,
      "##! W": 4038,
      "##say.": 4039,
      "##break ": 4040,
      "Even ": 4041,
      "##o?": 4042,
      "##first.": 4043,
      "Fir": 4044,
      "##Cause ": 4045,
      "##of.": 4046,
      "##shut ": 4047,
      "Mar": 4048,
      "##gen": 4049,
      "##ash ": 4050,
      "##something to ": 4051,
      "##ful.": 4052,
      "##requ": 4053,
      "##have no ": 4054,
      "##ird ": 4055,
      "##young": 4056,
      "Here ": 4057,
      "##b ": 4058,
      "##you're gonna ": 4059,
      "##day, ": 4060,
      "##author": 4061,
      "Keep ": 4062,
      "##incre": 4063,
      "##ed her ": 4064,
      "##compan": 4065,
      "##yeah, ": 4066,
      "##ings": 4067,
      "##ab ": 4068,
      "##cir": 4069,
      "##dle ": 4070,
      "##y of ": 4071,
      "## that he ": 4072,
      "##. Let's ": 4073,
      "Jes": 4074,
      "##lan": 4075,
      "##e. S": 4076,
      "Yeah, I ": 4077,
      "Be ": 4078,
      "##bomb": 4079,
      "##Ad": 4080,
      "##Him ": 4081,
      "##esid": 4082,
      "##name?": 4083,
      "##deed": 4084,
      "## try to ": 4085,
      "##late ": 4086,
      "##-h": 4087,
      "##y for ": 4088,
      "##care": 4089,
      "But you ": 4090,
      "##ed!": 4091,
      "##alter": 4092,
      "##es in ": 4093,
      "##bell": 4094,
      "##itting ": 4095,
      "##myself ": 4096,
      "##doctor": 4097,
      "##dad": 4098,
      "##all that ": 4099,
      "##conv": 4100,
      "I'm sorry, ": 4101,
      "##Allah, ": 4102,
      "##started ": 4103,
      "Got ": 4104,
      "##e'll ": 4105,
      "##A.": 4106,
      "##down, ": 4107,
      "##aut": 4108,
      "##20": 4109,
      "##evil ": 4110,
      "##unto ": 4111,
      "##died ": 4112,
      "##, they're ": 4113,
      "##need to": 4114,
      "##flow": 4115,
      "## touch": 4116,
      "##ball": 4117,
      "##sam": 4118,
      "##Is": 4119,
      "##guess": 4120,
      "##ben": 4121,
      "##FB": 4122,
      "##ine": 4123,
      "##If ": 4124,
      "##Bar": 4125,
      "##out, ": 4126,
      "##ying ": 4127,
      "##s is ": 4128,
      "##we can ": 4129,
      "##select": 4130,
      "##handle ": 4131,
      "##valu": 4132,
      "##experi": 4133,
      "##city ": 4134,
      "You got ": 4135,
      "##coming.": 4136,
      "##ext ": 4137,
      "##concern": 4138,
      "##ry, ": 4139,
      "##a bit ": 4140,
      "##he?": 4141,
      "##shit": 4142,
      "##. St": 4143,
      "##sli": 4144,
      "##hall": 4145,
      "##ver.": 4146,
      "##are you doing?": 4147,
      "##brother.": 4148,
      "##shoot ": 4149,
      "##10 ": 4150,
      "##anks.": 4151,
      "##fing": 4152,
      "##anna": 4153,
      "## them to ": 4154,
      "##'d be ": 4155,
      "##out of here.": 4156,
      "We were ": 4157,
      "## tre": 4158,
      "## will": 4159,
      "Can I ": 4160,
      "##ork ": 4161,
      "##form ": 4162,
      "##viol": 4163,
      "##you are.": 4164,
      "##elcome ": 4165,
      "##at least ": 4166,
      "##old.": 4167,
      "## time, ": 4168,
      "Get": 4169,
      "and ": 4170,
      "##Mu": 4171,
      "##sci": 4172,
      "##face.": 4173,
      "##number ": 4174,
      "##clean": 4175,
      "##grat": 4176,
      "##am I ": 4177,
      "##phone.": 4178,
      "##s... ": 4179,
      "##king": 4180,
      "##8 ": 4181,
      "##e, I ": 4182,
      "##spir": 4183,
      "##hoto": 4184,
      "##bring": 4185,
      "##story.": 4186,
      "##reveal": 4187,
      "##Nor": 4188,
      "##s from ": 4189,
      "##for.": 4190,
      "##know the ": 4191,
      "##iousl": 4192,
      "##draw": 4193,
      "## tried to ": 4194,
      "##sch": 4195,
      "##ce": 4196,
      "##what happen": 4197,
      "All right.": 4198,
      "##Jack": 4199,
      "##, who": 4200,
      "I've been ": 4201,
      "Fin": 4202,
      "##inno": 4203,
      "##ated.": 4204,
      "##each": 4205,
      "##don't.": 4206,
      "##ordin": 4207,
      "- Come ": 4208,
      "##bad.": 4209,
      "##L ": 4210,
      "## wom": 4211,
      "What about ": 4212,
      "##decis": 4213,
      "##ref": 4214,
      "##saying": 4215,
      "##rang": 4216,
      "##gram": 4217,
      "## what you ": 4218,
      "##cel": 4219,
      "##eave ": 4220,
      "##sell": 4221,
      "##e. H": 4222,
      "##him!": 4223,
      "##apolog": 4224,
      "##felt ": 4225,
      "##cry": 4226,
      "##dad ": 4227,
      "##dark": 4228,
      "## thous": 4229,
      "##prec": 4230,
      "Would you ": 4231,
      "##icha": 4232,
      "##sive ": 4233,
      "##apprec": 4234,
      "Only ": 4235,
      "##search": 4236,
      "##at all.": 4237,
      "##imm": 4238,
      "##no one ": 4239,
      "##looks like ": 4240,
      "##whatever ": 4241,
      "##e will be ": 4242,
      "## tonight.": 4243,
      "##cust": 4244,
      "##me and ": 4245,
      "##man, ": 4246,
      "##others ": 4247,
      "##host": 4248,
      "##post": 4249,
      "##must have ": 4250,
      "##Do": 4251,
      "##y, and ": 4252,
      "##rough": 4253,
      "##year ": 4254,
      "##doing here?": 4255,
      "##count ": 4256,
      "Could ": 4257,
      "##wear": 4258,
      "##Don't ": 4259,
      "##it was": 4260,
      "##e will": 4261,
      "##people who ": 4262,
      "##poin": 4263,
      "## to your ": 4264,
      "##not a ": 4265,
      "##, what's ": 4266,
      "##hurt": 4267,
      "##talking ": 4268,
      "There was ": 4269,
      "##Get ": 4270,
      "The t": 4271,
      "##gett": 4272,
      "##, but I ": 4273,
      "##living ": 4274,
      "##friends.": 4275,
      "##took ": 4276,
      "##ring ": 4277,
      "##catch ": 4278,
      "##ix": 4279,
      "##mean?": 4280,
      "##miss ": 4281,
      "##came to ": 4282,
      "##charg": 4283,
      "##Lor": 4284,
      "##en?": 4285,
      "##unn": 4286,
      "##down!": 4287,
      "What's the ": 4288,
      "##these ": 4289,
      "##using ": 4290,
      "##he'll ": 4291,
      "##amaz": 4292,
      "##out?": 4293,
      "##, and I ": 4294,
      "##. I don't ": 4295,
      "##situ": 4296,
      "##lay": 4297,
      "##ond ": 4298,
      "##eter": 4299,
      "##hey": 4300,
      "##created ": 4301,
      "Dad": 4302,
      "## thes": 4303,
      "##bey": 4304,
      "##round": 4305,
      "##: '": 4306,
      "##later.": 4307,
      "##control ": 4308,
      "Mom": 4309,
      "Put ": 4310,
      "##'em": 4311,
      "##than": 4312,
      "##neith": 4313,
      "##fix": 4314,
      "How do you ": 4315,
      "##AT": 4316,
      "##? S": 4317,
      "##I want": 4318,
      "##mod": 4319,
      "##ate the ": 4320,
      "##bear": 4321,
      "I have to ": 4322,
      "##lock ": 4323,
      "## take the ": 4324,
      "##foot": 4325,
      "That's the ": 4326,
      "##connect": 4327,
      "##above ": 4328,
      "## tot": 4329,
      "##from your ": 4330,
      "##All-": 4331,
      "##key ": 4332,
      "##coffe": 4333,
      "##Who ": 4334,
      "Did": 4335,
      "##ush ": 4336,
      "##al, ": 4337,
      "##ase ": 4338,
      "##way, ": 4339,
      "##), ": 4340,
      "##200": 4341,
      "## typ": 4342,
      "##perf": 4343,
      "##great.": 4344,
      "##gun ": 4345,
      "##necess": 4346,
      "##box": 4347,
      "We need to ": 4348,
      "##death.": 4349,
      "##Yeah": 4350,
      "##business.": 4351,
      "Or": 4352,
      "##ed this ": 4353,
      "## them?": 4354,
      "##find out ": 4355,
      "##enough to ": 4356,
      "With": 4357,
      "##a...": 4358,
      "##black ": 4359,
      "##up and ": 4360,
      "##broke ": 4361,
      "##mission": 4362,
      "##lawy": 4363,
      "##left.": 4364,
      "##mother.": 4365,
      "##zz": 4366,
      "##argu": 4367,
      "##for you": 4368,
      "##information ": 4369,
      "##lor": 4370,
      "##take ": 4371,
      "##wonder": 4372,
      "##loo": 4373,
      "##gif": 4374,
      "##11": 4375,
      "##is that?": 4376,
      "##ray ": 4377,
      "##brok": 4378,
      "##here's the ": 4379,
      "## tomorrow.": 4380,
      "##ju": 4381,
      "##those ": 4382,
      "##No.": 4383,
      "After ": 4384,
      "Ad": 4385,
      "##ian ": 4386,
      "##soon.": 4387,
      "##believe in ": 4388,
      "## telling ": 4389,
      "##Sha": 4390,
      "##wea": 4391,
      "##Ed": 4392,
      "##he is ": 4393,
      "##abb": 4394,
      "##door ": 4395,
      "##worry ": 4396,
      "##lad ": 4397,
      "##year.": 4398,
      "##either ": 4399,
      "##remain": 4400,
      "I'll": 4401,
      "##sil": 4402,
      "##rible ": 4403,
      "Make ": 4404,
      "Show ": 4405,
      "##fill": 4406,
      "##seen": 4407,
      "##should have ": 4408,
      "##promise ": 4409,
      "##a minut": 4410,
      "##here we ": 4411,
      "##do that.": 4412,
      "##runn": 4413,
      "##consider": 4414,
      "Every ": 4415,
      "##pop": 4416,
      "##you know ": 4417,
      "##lie ": 4418,
      "##happy ": 4419,
      "##aus": 4420,
      "##cat": 4421,
      "##I think": 4422,
      "##all right.": 4423,
      "##grow": 4424,
      "##myself": 4425,
      "##view": 4426,
      "##ey ": 4427,
      "##eli": 4428,
      "##een ": 4429,
      "##could have ": 4430,
      "##part of ": 4431,
      "I'll be ": 4432,
      "##wit": 4433,
      "##Gr": 4434,
      "##nde": 4435,
      "##ship.": 4436,
      "##accept": 4437,
      "##detect": 4438,
      "Hi": 4439,
      "##der.": 4440,
      "##for you ": 4441,
      "##so much ": 4442,
      "##ement.": 4443,
      "Right ": 4444,
      "##ness.": 4445,
      "##fli": 4446,
      "##ense ": 4447,
      "##a great ": 4448,
      "##elop": 4449,
      "##prev": 4450,
      "##pract": 4451,
      "##a wom": 4452,
      "Oh ": 4453,
      "##Ger": 4454,
      "##Her": 4455,
      "##ation, ": 4456,
      "##? !": 4457,
      "##four": 4458,
      "##E.": 4459,
      "##ready to ": 4460,
      "##wait ": 4461,
      "##here is ": 4462,
      "##back to the ": 4463,
      "##load": 4464,
      "##outside ": 4465,
      "##needs ": 4466,
      "##associ": 4467,
      "##heav": 4468,
      "##%1 ": 4469,
      "##Dr. ": 4470,
      "I need to ": 4471,
      "I don't think ": 4472,
      "##yes.": 4473,
      "##would": 4474,
      "What the hell ": 4475,
      "## true.": 4476,
      "##evidence ": 4477,
      "##most": 4478,
      "## track": 4479,
      "##pleas": 4480,
      "##game ": 4481,
      "##continu": 4482,
      "##sex": 4483,
      "##company ": 4484,
      "## thos": 4485,
      "##unk": 4486,
      "##discus": 4487,
      "##when I ": 4488,
      "##behind": 4489,
      "##go to the ": 4490,
      "## the way ": 4491,
      "##radi": 4492,
      "##ram": 4493,
      "##y...": 4494,
      "##Bro": 4495,
      "##do, ": 4496,
      "##have.": 4497,
      "##look like ": 4498,
      "##famili": 4499,
      "##gat": 4500,
      "##ress.": 4501,
      "##ter.": 4502,
      "##12": 4503,
      "##e. I ": 4504,
      "##? You ": 4505,
      "##school.": 4506,
      "##e, the ": 4507,
      "##public": 4508,
      "##mp": 4509,
      "##le?": 4510,
      "##minutes ": 4511,
      "##, Mr. ": 4512,
      "##line.": 4513,
      "People ": 4514,
      "##prou": 4515,
      "## that we ": 4516,
      "##all right": 4517,
      "##John ": 4518,
      "##big": 4519,
      "##past ": 4520,
      "##I told ": 4521,
      "##arget": 4522,
      "##obv": 4523,
      "##before the ": 4524,
      "...": 4525,
      "##al?": 4526,
      "##judg": 4527,
      "##'em ": 4528,
      "##bil": 4529,
      "##ail ": 4530,
      "## the same ": 4531,
      "##you got ": 4532,
      "##of a b": 4533,
      "##people, ": 4534,
      "##attent": 4535,
      "##aste ": 4536,
      "##wrong.": 4537,
      "##stuff ": 4538,
      "##business ": 4539,
      "##hasn't ": 4540,
      "##surviv": 4541,
      "##ed it.": 4542,
      "- It ": 4543,
      "##sing ": 4544,
      "##that's ": 4545,
      "##Dav": 4546,
      "##art ": 4547,
      "That's why ": 4548,
      "Looks like ": 4549,
      "##ia": 4550,
      "- E": 4551,
      "##ace ": 4552,
      "##hether ": 4553,
      "##guys.": 4554,
      "## the truth": 4555,
      "##might": 4556,
      "##Grac": 4557,
      "##is this ": 4558,
      "##. This is ": 4559,
      "##hand.": 4560,
      "Does ": 4561,
      "##kno": 4562,
      "## way ": 4563,
      "##neigh": 4564,
      "Well, you ": 4565,
      "## take a ": 4566,
      "##friends ": 4567,
      "##S.": 4568,
      "##'s.": 4569,
      "##I...": 4570,
      "##ing to the ": 4571,
      "##ale ": 4572,
      "That is ": 4573,
      "Thank you, ": 4574,
      "##. Do ": 4575,
      "##after the ": 4576,
      "##you wer": 4577,
      "## talk.": 4578,
      "##t, ": 4579,
      "##gain": 4580,
      "##6 ": 4581,
      "I had ": 4582,
      "##avail": 4583,
      "Ne": 4584,
      "##boo": 4585,
      "##became ": 4586,
      "Wait ": 4587,
      "##which": 4588,
      "##Rus": 4589,
      "##. U": 4590,
      "##do you think ": 4591,
      "##relation": 4592,
      "##yet ": 4593,
      "##rain ": 4594,
      "##togeth": 4595,
      "##something?": 4596,
      "##case.": 4597,
      "##ank.": 4598,
      "##. Just ": 4599,
      "##and his ": 4600,
      "##immed": 4601,
      "## touch ": 4602,
      "##fully ": 4603,
      "## train": 4604,
      "##and a ": 4605,
      "##from a ": 4606,
      "##paper": 4607,
      "## teach": 4608,
      "##are you talking ": 4609,
      "Actu": 4610,
      "##No ": 4611,
      "##going to": 4612,
      "## tonight": 4613,
      "##organ": 4614,
      "##messag": 4615,
      "##song": 4616,
      "##turn": 4617,
      "##ed at ": 4618,
      "##ed by the ": 4619,
      "##couple ": 4620,
      "##fast.": 4621,
      "## told me ": 4622,
      "##baby.": 4623,
      "##prison": 4624,
      "##detail": 4625,
      "##laugh": 4626,
      "# ": 4627,
      "##Agent ": 4628,
      "##Lo": 4629,
      "##cond": 4630,
      "##with a ": 4631,
      "##phon": 4632,
      "##ially ": 4633,
      "##erve ": 4634,
      "##rather ": 4635,
      "And what ": 4636,
      "##not?": 4637,
      "Please.": 4638,
      "##caught ": 4639,
      "##, not ": 4640,
      "##see what ": 4641,
      "I'm going to ": 4642,
      "##cript": 4643,
      "##hours.": 4644,
      "##instea": 4645,
      "Is it ": 4646,
      "##trying to ": 4647,
      "##'d": 4648,
      "##pt ": 4649,
      "##for this ": 4650,
      "##for my ": 4651,
      "##. All ": 4652,
      "Tell me ": 4653,
      "'Cause ": 4654,
      "##fall ": 4655,
      "## want": 4656,
      "##in fron": 4657,
      "##need a ": 4658,
      "Stop ": 4659,
      "##ground ": 4660,
      "Look at ": 4661,
      "Let": 4662,
      "##air ": 4663,
      "##ling ": 4664,
      "##Ge": 4665,
      "##he'd ": 4666,
      "If I ": 4667,
      "##ground": 4668,
      "Is there ": 4669,
      "We w": 4670,
      "##s' ": 4671,
      "##book ": 4672,
      "##vill": 4673,
      "I guess ": 4674,
      "I'm just ": 4675,
      "##pot": 4676,
      "##half": 4677,
      "##months ": 4678,
      "##ia.": 4679,
      "##ed me.": 4680,
      "No one ": 4681,
      "## taken ": 4682,
      "##receiv": 4683,
      "##non": 4684,
      "##or, ": 4685,
      "##ary": 4686,
      "- St": 4687,
      "##anybody ": 4688,
      "That's not ": 4689,
      "##again?": 4690,
      "##birth": 4691,
      "##cla": 4692,
      "## trav": 4693,
      "##ator ": 4694,
      "I hope ": 4695,
      "##a bad ": 4696,
      "- Hey, ": 4697,
      "##like.": 4698,
      "##special ": 4699,
      "##e with the ": 4700,
      "##fle": 4701,
      "##, that": 4702,
      "##. If ": 4703,
      "##long.": 4704,
      "##Juli": 4705,
      "##body's ": 4706,
      "##sever": 4707,
      "##must": 4708,
      "##child ": 4709,
      "##again ": 4710,
      "##about this ": 4711,
      "##search ": 4712,
      "##week.": 4713,
      "##definit": 4714,
      "##of them": 4715,
      "##docum": 4716,
      "##cloth": 4717,
      "Can't ": 4718,
      "##drug": 4719,
      "##ater": 4720,
      "##ards ": 4721,
      "##batt": 4722,
      "##uk": 4723,
      "##her, ": 4724,
      "##rog": 4725,
      "##Mos": 4726,
      "##forget ": 4727,
      "Nothing ": 4728,
      "## work ": 4729,
      "##mad ": 4730,
      "I'm sure ": 4731,
      "##kid.": 4732,
      "##feeling ": 4733,
      "May ": 4734,
      "##a very ": 4735,
      "##, well, ": 4736,
      "##ize ": 4737,
      "##land.": 4738,
      "##. No ": 4739,
      "##couple of ": 4740,
      "## ten ": 4741,
      "##do this.": 4742,
      "##soul": 4743,
      "##ach ": 4744,
      "##Res": 4745,
      "##event": 4746,
      "##ation?": 4747,
      "##can't.": 4748,
      "##. How ": 4749,
      "##Muham": 4750,
      "##cook": 4751,
      "##wis": 4752,
      "##ow, ": 4753,
      "##gives ": 4754,
      "- Okay": 4755,
      "##eful.": 4756,
      "##et, ": 4757,
      "##unless ": 4758,
      "##ecut": 4759,
      "##... - ": 4760,
      "##soldi": 4761,
      "##, we'll ": 4762,
      "##It": 4763,
      "##and that ": 4764,
      "We can ": 4765,
      "You want ": 4766,
      "##I'll be ": 4767,
      "##ma'": 4768,
      "##back!": 4769,
      "##killing ": 4770,
      "Thank you.": 4771,
      "On ": 4772,
      "##s have ": 4773,
      "##insid": 4774,
      "##step ": 4775,
      "## to see ": 4776,
      "##littl": 4777,
      "##Gu": 4778,
      "##Ear": 4779,
      "##On": 4780,
      "##ough": 4781,
      "##your own ": 4782,
      "##club": 4783,
      "There's a ": 4784,
      "##ring": 4785,
      "##t the ": 4786,
      "##fell ": 4787,
      "##shall": 4788,
      "##corn": 4789,
      "##children ": 4790,
      "##. What": 4791,
      "##disappear": 4792,
      "##respect": 4793,
      "##jack": 4794,
      "##eyes.": 4795,
      "##lives ": 4796,
      "##move.": 4797,
      "##edd": 4798,
      "##chanc": 4799,
      "##ion?": 4800,
      "##short": 4801,
      "##bon": 4802,
      "##ater ": 4803,
      "##un ": 4804,
      "You just ": 4805,
      "##if it ": 4806,
      "## there are ": 4807,
      "##access": 4808,
      "##completely ": 4809,
      "##yn": 4810,
      "##Ver": 4811,
      "##an's ": 4812,
      "## who": 4813,
      "I saw ": 4814,
      "##man who ": 4815,
      "That's what ": 4816,
      "##everybody ": 4817,
      "##question ": 4818,
      "##e work": 4819,
      "##kid ": 4820,
      "##h!": 4821,
      "##TV": 4822,
      "##s you ": 4823,
      "##y is ": 4824,
      "## the fuck ": 4825,
      "##good, ": 4826,
      "##black": 4827,
      "##make the ": 4828,
      "##last night.": 4829,
      "Of course ": 4830,
      "##ional ": 4831,
      "##fault": 4832,
      "## thou ": 4833,
      "##contact ": 4834,
      "##present": 4835,
      "##e:": 4836,
      "##ing on ": 4837,
      "##uten": 4838,
      "## they will ": 4839,
      "##paid ": 4840,
      "##gard": 4841,
      "##, though": 4842,
      "##t and ": 4843,
      "##named ": 4844,
      "Cap": 4845,
      "##ef ": 4846,
      "##led ": 4847,
      "##in w": 4848,
      "##ing...": 4849,
      "##ribut": 4850,
      "##ical": 4851,
      "##seem ": 4852,
      "##unch ": 4853,
      "##convers": 4854,
      "##good to ": 4855,
      "##um.": 4856,
      "##how you ": 4857,
      "##cy": 4858,
      "##fast ": 4859,
      "##ing's ": 4860,
      "##if the ": 4861,
      "##, uh": 4862,
      "##find the ": 4863,
      "##cent ": 4864,
      "##danc": 4865,
      "##her to ": 4866,
      "##just like ": 4867,
      "##e. You ": 4868,
      "##yourselv": 4869,
      "##aught ": 4870,
      "##swear": 4871,
      "Hey!": 4872,
      "Never ": 4873,
      "##alone ": 4874,
      "##for you, ": 4875,
      "##it's a ": 4876,
      "##ready.": 4877,
      "##pret": 4878,
      "And then ": 4879,
      "Why don't you ": 4880,
      "##sych": 4881,
      "##isn't it?": 4882,
      "Sorry": 4883,
      "##atter": 4884,
      "##ing it ": 4885,
      "##sud": 4886,
      "##sort of ": 4887,
      "If we ": 4888,
      "##fur": 4889,
      "##lli": 4890,
      "##, with ": 4891,
      "##do I ": 4892,
      "##lead ": 4893,
      "##suggest": 4894,
      "##bigg": 4895,
      "##gni": 4896,
      "##fru": 4897,
      "##account": 4898,
      "##amb": 4899,
      "##spect": 4900,
      "##office ": 4901,
      "##prepar": 4902,
      "##important": 4903,
      "##food ": 4904,
      "##They ": 4905,
      "##state ": 4906,
      "##. Y": 4907,
      "##worth ": 4908,
      "## trust": 4909,
      "Listen, ": 4910,
      "I like ": 4911,
      "I never ": 4912,
      "##. She ": 4913,
      "##damn": 4914,
      "- Do ": 4915,
      "##among ": 4916,
      "Someone ": 4917,
      "Rememb": 4918,
      "##PHP ": 4919,
      "I-": 4920,
      "##Rob": 4921,
      "##upt": 4922,
      "##husband ": 4923,
      "Bl": 4924,
      "O ": 4925,
      "Why": 4926,
      "##sat": 4927,
      "##s to": 4928,
      "##Le": 4929,
      "##includ": 4930,
      "##e was": 4931,
      "##? I ": 4932,
      "##id you ": 4933,
      "##mention": 4934,
      "There is ": 4935,
      "Hello, ": 4936,
      "##husband": 4937,
      "##recogni": 4938,
      "##That's ": 4939,
      "##ing up ": 4940,
      "##es...": 4941,
      "##et me ": 4942,
      "##activ": 4943,
      "##happened to ": 4944,
      "##. And": 4945,
      "##contain": 4946,
      "##drin": 4947,
      "## week": 4948,
      "Good.": 4949,
      "##Ev": 4950,
      "##7 ": 4951,
      "##es, and ": 4952,
      "##do that?": 4953,
      "##back, ": 4954,
      "##on't be ": 4955,
      "##harm": 4956,
      "## tell you": 4957,
      "##Star": 4958,
      "Shut ": 4959,
      "## turned ": 4960,
      "##SA": 4961,
      "##as it ": 4962,
      "##super": 4963,
      "Sorry, ": 4964,
      "##are not ": 4965,
      "I'm so ": 4966,
      "##grad": 4967,
      "##duct": 4968,
      "##current ": 4969,
      "##ai": 4970,
      "##s on the ": 4971,
      "##es,": 4972,
      "##ed, and ": 4973,
      "##prove ": 4974,
      "##happen.": 4975,
      "##only one ": 4976,
      "##between": 4977,
      "##government ": 4978,
      "Very ": 4979,
      "##ought": 4980,
      "##hard to ": 4981,
      "##we'll ": 4982,
      "##each other": 4983,
      "##listen to ": 4984,
      "##photo": 4985,
      "##() ": 4986,
      "##in there.": 4987,
      "##thought ": 4988,
      "##heavens and the ": 4989,
      "##relig": 4990,
      "##, B": 4991,
      "##are": 4992,
      "##be?": 4993,
      "##ign ": 4994,
      "##going on ": 4995,
      "##feel like ": 4996,
      "##secret ": 4997,
      "##Japan": 4998,
      "##s to the ": 4999,
      "##we were ": 5000,
      "##glad ": 5001,
      "##Let's ": 5002,
      "Op": 5003,
      "##rank": 5004,
      "##going.": 5005,
      "We have to ": 5006,
      "##happened.": 5007,
      "## that was ": 5008,
      "- All ": 5009,
      "##raise ": 5010,
      "##out there.": 5011,
      "##ourselv": 5012,
      "##somewhere ": 5013,
      "##crazy.": 5014,
      "##.\"": 5015,
      "##RE": 5016,
      "##This ": 5017,
      "##of our ": 5018,
      "##becaus": 5019,
      "##stuff.": 5020,
      "##etective ": 5021,
      "##cell ": 5022,
      "##gin": 5023,
      "##vert": 5024,
      "##lex": 5025,
      "##lost": 5026,
      "##princ": 5027,
      "##need you to ": 5028,
      "##question.": 5029,
      "##choose ": 5030,
      "##pull ": 5031,
      "- Get ": 5032,
      "##around the ": 5033,
      "##net": 5034,
      "##righte": 5035,
      "##love.": 5036,
      "##Chin": 5037,
      "##ather": 5038,
      "##road": 5039,
      "##comfort": 5040,
      "##house": 5041,
      "##reason ": 5042,
      "##Mc": 5043,
      "##er of the ": 5044,
      "##do this": 5045,
      "##ignor": 5046,
      "##yours.": 5047,
      "- He ": 5048,
      "##system ": 5049,
      "##you think?": 5050,
      "##profess": 5051,
      "Nice ": 5052,
      "##bly ": 5053,
      "##did he ": 5054,
      "##Not ": 5055,
      "##call.": 5056,
      "God ": 5057,
      "##Frank": 5058,
      "##has to ": 5059,
      "##arrest": 5060,
      "##ity, ": 5061,
      "##not gonna ": 5062,
      "##ife ": 5063,
      "##day?": 5064,
      "But the ": 5065,
      "##Hell": 5066,
      "##Merc": 5067,
      "##is your ": 5068,
      "##plan ": 5069,
      "##we have ": 5070,
      "##back?": 5071,
      "##knowledge ": 5072,
      "##en't": 5073,
      "##you should ": 5074,
      "##ing in the ": 5075,
      "##plan.": 5076,
      "##God!": 5077,
      "##mountain": 5078,
      "OK": 5079,
      "##block": 5080,
      "##write ": 5081,
      "##himself ": 5082,
      "##we've ": 5083,
      "##employ": 5084,
      "Ah, ": 5085,
      "Well ": 5086,
      "##pal": 5087,
      "##ima": 5088,
      "##orig": 5089,
      "##ing t": 5090,
      "##three ": 5091,
      "By": 5092,
      "##anni": 5093,
      "##, huh?": 5094,
      "##onc": 5095,
      "##bodi": 5096,
      "## with a ": 5097,
      "##deal.": 5098,
      "Whatever ": 5099,
      "##plann": 5100,
      "##de ": 5101,
      "##ient ": 5102,
      "##er in ": 5103,
      "##ed,": 5104,
      "##els": 5105,
      "I could ": 5106,
      "##rest of ": 5107,
      "##soon": 5108,
      "##appreciate ": 5109,
      "God": 5110,
      "##dut": 5111,
      "##hey, ": 5112,
      "Is this ": 5113,
      "##middle ": 5114,
      "Tr": 5115,
      "##sac": 5116,
      "You want to ": 5117,
      "##– ": 5118,
      "##you take ": 5119,
      "##you in ": 5120,
      "And he ": 5121,
      "##right now": 5122,
      "##hang ": 5123,
      "Help ": 5124,
      "##of what ": 5125,
      "##few": 5126,
      "##fire.": 5127,
      "##function ": 5128,
      "##leave.": 5129,
      "##them.": 5130,
      "##budd": 5131,
      "##ebr": 5132,
      "##jour": 5133,
      "##pois": 5134,
      "You're gonna ": 5135,
      "##scri": 5136,
      "##. Okay": 5137,
      "##dir": 5138,
      "##Man": 5139,
      "##a v": 5140,
      "##ets.": 5141,
      "##eye ": 5142,
      "##port.": 5143,
      "## working ": 5144,
      "##wrong ": 5145,
      "##better than ": 5146,
      "##walk ": 5147,
      "##Hou": 5148,
      "##ermin": 5149,
      "##, T": 5150,
      "##confirm": 5151,
      "##sleep ": 5152,
      "##sense ": 5153,
      "##choice.": 5154,
      "##are you talking about?": 5155,
      "##watch ": 5156,
      "##ans ": 5157,
      "## wait": 5158,
      "##ed...": 5159,
      "You have to ": 5160,
      "##program": 5161,
      "This": 5162,
      "##ffic": 5163,
      "##ation of ": 5164,
      "##a part": 5165,
      "##what they ": 5166,
      "Something ": 5167,
      "##nice.": 5168,
      "##dear": 5169,
      "##ger": 5170,
      "##ondon": 5171,
      "##or the ": 5172,
      "##hath ": 5173,
      "##you know": 5174,
      "##forward": 5175,
      "##rob": 5176,
      "##fresh": 5177,
      "##Fren": 5178,
      "No, no, no": 5179,
      "-W": 5180,
      "##sla": 5181,
      "##seven ": 5182,
      "##bast": 5183,
      "##or?": 5184,
      "##hap": 5185,
      "##hile.": 5186,
      "##you with ": 5187,
      "##make you ": 5188,
      "##share ": 5189,
      "##last night": 5190,
      "##control": 5191,
      "##beginn": 5192,
      "##langu": 5193,
      "##IS": 5194,
      "##CH": 5195,
      "##, okay?": 5196,
      "##is this?": 5197,
      "##man's ": 5198,
      "##ify ": 5199,
      "##aware ": 5200,
      "##said: ": 5201,
      "##I've been ": 5202,
      "## together": 5203,
      "## talk about ": 5204,
      "##dud": 5205,
      "##anti": 5206,
      "##cast": 5207,
      "##you wanna ": 5208,
      "- What's ": 5209,
      "##ies and ": 5210,
      "##shar": 5211,
      "##bal": 5212,
      "##5.": 5213,
      "##inside.": 5214,
      "I have a ": 5215,
      "How many ": 5216,
      "Stop": 5217,
      "##children": 5218,
      "##eep": 5219,
      "##Book": 5220,
      "##ed out ": 5221,
      "##so...": 5222,
      "##suppose ": 5223,
      "##s, the ": 5224,
      "##ft": 5225,
      "##3.": 5226,
      "## wrong": 5227,
      "##omat": 5228,
      "##is it ": 5229,
      "##create ": 5230,
      "- He's ": 5231,
      "##serve ": 5232,
      "##million ": 5233,
      "##rout": 5234,
      "##pag": 5235,
      "##inf": 5236,
      "## thank ": 5237,
      "##a and ": 5238,
      "##in our ": 5239,
      "##ire.": 5240,
      "##spend ": 5241,
      "##mean, ": 5242,
      "So you ": 5243,
      "They were ": 5244,
      "## there is ": 5245,
      "##Day of ": 5246,
      "##Sat": 5247,
      "##tell ": 5248,
      "##ier": 5249,
      "##Mart": 5250,
      "##of t": 5251,
      "You need to ": 5252,
      "##on it.": 5253,
      "##like this.": 5254,
      "##important ": 5255,
      "##wife ": 5256,
      "##sour": 5257,
      "##mea": 5258,
      "##ing his ": 5259,
      "##upon": 5260,
      "##say, \"": 5261,
      "##a mom": 5262,
      "##crimin": 5263,
      "##hours ": 5264,
      "##at this ": 5265,
      "##? What ": 5266,
      "##happened ": 5267,
      "##provid": 5268,
      "##arm ": 5269,
      "##as soon ": 5270,
      "##lot": 5271,
      "##come on.": 5272,
      "##, you know": 5273,
      "##deliver": 5274,
      "##said: \"": 5275,
      "##does that ": 5276,
      "##Sam": 5277,
      "##and...": 5278,
      "##outsid": 5279,
      "##hot ": 5280,
      "## there!": 5281,
      "##if you're ": 5282,
      "I want": 5283,
      "##fly": 5284,
      "##30 ": 5285,
      "##for a w": 5286,
      "##except": 5287,
      "Pl": 5288,
      "##a th": 5289,
      "##foc": 5290,
      "##, a ": 5291,
      "##here and ": 5292,
      "##guard": 5293,
      "##drink ": 5294,
      "##freak": 5295,
      "##such a ": 5296,
      "##imagin": 5297,
      "##ors ": 5298,
      "##absolut": 5299,
      "##gul": 5300,
      "##ry?": 5301,
      "##mistak": 5302,
      "##bed": 5303,
      "##mir": 5304,
      "##us!": 5305,
      "I believe ": 5306,
      "He has ": 5307,
      "##when the ": 5308,
      "##either.": 5309,
      "##point.": 5310,
      "##1.": 5311,
      "##he's": 5312,
      "##all the t": 5313,
      "## think.": 5314,
      "##. A ": 5315,
      "Why would ": 5316,
      "We're gonna ": 5317,
      "##streng": 5318,
      "##playing ": 5319,
      "## the truth.": 5320,
      "##%2": 5321,
      "##ough ": 5322,
      "##rem": 5323,
      "##life": 5324,
      "##near ": 5325,
      "##mast": 5326,
      "##earli": 5327,
      "## they have ": 5328,
      "##word.": 5329,
      "## times ": 5330,
      "##said.": 5331,
      "##ve.": 5332,
      "##th, ": 5333,
      "##do the ": 5334,
      "##amp": 5335,
      "##, thank ": 5336,
      "## tran": 5337,
      "##matter ": 5338,
      "##Mus": 5339,
      "## while ": 5340,
      "##he had ": 5341,
      "##, when": 5342,
      "##ride ": 5343,
      "##drop ": 5344,
      "## is ": 5345,
      "##ull ": 5346,
      "##Lis": 5347,
      "You will ": 5348,
      "##etim": 5349,
      "##ents.": 5350,
      "Why are you ": 5351,
      "##gotten ": 5352,
      "##. Don't ": 5353,
      "##immediat": 5354,
      "Sure": 5355,
      "##oly ": 5356,
      "##area": 5357,
      "##als ": 5358,
      "##siz": 5359,
      "##lead": 5360,
      "##problem ": 5361,
      "Everything ": 5362,
      "##she?": 5363,
      "##fault ": 5364,
      "##cool": 5365,
      "##we w": 5366,
      "##-t": 5367,
      "##’s ": 5368,
      "##ont": 5369,
      "##in and ": 5370,
      "##, you know, ": 5371,
      "##cred": 5372,
      "##mas": 5373,
      "##4.": 5374,
      "##ent, ": 5375,
      "##many": 5376,
      "##rough ": 5377,
      "##position": 5378,
      "##match": 5379,
      "##fun.": 5380,
      "##dollar": 5381,
      "Su": 5382,
      "##yes": 5383,
      "##ty.": 5384,
      "##fal": 5385,
      "##itut": 5386,
      "##ition ": 5387,
      "##do this ": 5388,
      "##your t": 5389,
      "What's": 5390,
      "##. My ": 5391,
      "##afraid": 5392,
      "##against the ": 5393,
      "##Russi": 5394,
      "##I-": 5395,
      "##DE": 5396,
      "##Okay": 5397,
      "##of them.": 5398,
      "##ed for": 5399,
      "##of you ": 5400,
      "##himself.": 5401,
      "It's just ": 5402,
      "##ing at ": 5403,
      "You're the ": 5404,
      "##flu": 5405,
      "Everyone ": 5406,
      "As": 5407,
      "Lo": 5408,
      "##gi": 5409,
      "## way.": 5410,
      "## to you.": 5411,
      "##cover ": 5412,
      "##help me ": 5413,
      "##may have ": 5414,
      "##be we ": 5415,
      "##dict": 5416,
      "##CI": 5417,
      "## took": 5418,
      "##red.": 5419,
      "##is in ": 5420,
      "##m I ": 5421,
      "##behav": 5422,
      "##dog ": 5423,
      "We can't ": 5424,
      "##quar": 5425,
      "##ency ": 5426,
      "##into a ": 5427,
      "##design": 5428,
      "##country ": 5429,
      "##Know": 5430,
      "##ori": 5431,
      "##rest.": 5432,
      "##at?": 5433,
      "##you can't ": 5434,
      "##force ": 5435,
      "##il.": 5436,
      "##but the ": 5437,
      "##call me ": 5438,
      "##don't think": 5439,
      "##God's ": 5440,
      "## takes ": 5441,
      "##gun.": 5442,
      "Use ": 5443,
      "##it the ": 5444,
      "##he was": 5445,
      "##ell.": 5446,
      "##like this": 5447,
      "##person.": 5448,
      "##happen ": 5449,
      "##baby ": 5450,
      "## together ": 5451,
      "##figured ": 5452,
      "##yesterday.": 5453,
      "##smell": 5454,
      "Po": 5455,
      "##ox": 5456,
      "##Di": 5457,
      "##:00": 5458,
      "##Fin": 5459,
      "##it's the ": 5460,
      "##ets ": 5461,
      "## that is ": 5462,
      "##please?": 5463,
      "##writ": 5464,
      "##you tell ": 5465,
      "##come with ": 5466,
      "##office.": 5467,
      "##before you ": 5468,
      "##stop.": 5469,
      "- Don't ": 5470,
      "##correct": 5471,
      "##full of ": 5472,
      "##machine ": 5473,
      "Gre": 5474,
      "##London": 5475,
      "##I am": 5476,
      "##make me ": 5477,
      "##ist.": 5478,
      "## though ": 5479,
      "##parents ": 5480,
      "##ounc": 5481,
      "##ideo ": 5482,
      "##game.": 5483,
      "##intell": 5484,
      "##let him ": 5485,
      "##God is ": 5486,
      "##group ": 5487,
      "##sure?": 5488,
      "##dress": 5489,
      "##et?": 5490,
      "##see, ": 5491,
      "##execut": 5492,
      "##poor ": 5493,
      "##home, ": 5494,
      "##clean ": 5495,
      "##wants to ": 5496,
      "##polit": 5497,
      "##Qur": 5498,
      "##e that ": 5499,
      "##died.": 5500,
      "We got ": 5501,
      "##ump ": 5502,
      "How about ": 5503,
      "I don't want to ": 5504,
      "##you want?": 5505,
      "##seeing ": 5506,
      "##'s, ": 5507,
      "##smar": 5508,
      "##nerv": 5509,
      "##perfect": 5510,
      "##reach ": 5511,
      "##shot.": 5512,
      "##s)": 5513,
      "##sed ": 5514,
      "##ame": 5515,
      "##uri": 5516,
      "##Tom": 5517,
      "##Or": 5518,
      "##stick": 5519,
      "##easy": 5520,
      "##notic": 5521,
      "##holding ": 5522,
      "##unit": 5523,
      "##six": 5524,
      "##success": 5525,
      "##often ": 5526,
      "##LE": 5527,
      "##Jud": 5528,
      "##ome": 5529,
      "##ater.": 5530,
      "You must ": 5531,
      "##get it ": 5532,
      "## there. ": 5533,
      "##. It": 5534,
      "##okay, ": 5535,
      "##intern": 5536,
      "- Not ": 5537,
      "##murder ": 5538,
      "##Sar": 5539,
      "##les": 5540,
      "##city.": 5541,
      "##relat": 5542,
      "##ed them": 5543,
      "##ion to ": 5544,
      "##e we": 5545,
      "##pock": 5546,
      "##killed.": 5547,
      "##stole ": 5548,
      "##ton ": 5549,
      "##Jim": 5550,
      "##of these ": 5551,
      "##elev": 5552,
      "##ily": 5553,
      "##bless": 5554,
      "##come on": 5555,
      "##some kind of ": 5556,
      "- Why ": 5557,
      "##father's ": 5558,
      "##John.": 5559,
      "##tell": 5560,
      "##AM": 5561,
      "##out there ": 5562,
      "Oh, no": 5563,
      "##answer ": 5564,
      "##easy.": 5565,
      "Ser": 5566,
      "##cul": 5567,
      "##m-h": 5568,
      "##for that ": 5569,
      "##life, ": 5570,
      "##phys": 5571,
      "Give me ": 5572,
      "##ritt": 5573,
      "##vol": 5574,
      "##eaf": 5575,
      "##chie": 5576,
      "##shut": 5577,
      "Who's ": 5578,
      "##part of the ": 5579,
      "##natur": 5580,
      "Will you ": 5581,
      "##you just ": 5582,
      "You said ": 5583,
      "##emerg": 5584,
      "##fine ": 5585,
      "##with you.": 5586,
      "##know how ": 5587,
      "##class": 5588,
      "##avo": 5589,
      "## two": 5590,
      "##future ": 5591,
      "##ling": 5592,
      "##hoo": 5593,
      "##Ber": 5594,
      "##a long": 5595,
      "##ep.": 5596,
      "##command ": 5597,
      "##ured ": 5598,
      "- So ": 5599,
      "##morning": 5600,
      "##communic": 5601,
      "##Sp": 5602,
      "##son, ": 5603,
      "##cru": 5604,
      "##t?": 5605,
      "##(the ": 5606,
      "##I have to ": 5607,
      "##get it.": 5608,
      "##didn't.": 5609,
      "- Are you ": 5610,
      "##years ago.": 5611,
      "##personal ": 5612,
      "Ah": 5613,
      "Jo": 5614,
      "##is in the ": 5615,
      "##an old ": 5616,
      "Do not ": 5617,
      "##usually ": 5618,
      "##nd.": 5619,
      "##How ": 5620,
      "##at all": 5621,
      "You didn't ": 5622,
      "##ago ": 5623,
      "##anything?": 5624,
      "##ives ": 5625,
      "##down to ": 5626,
      "##find a ": 5627,
      "##help you.": 5628,
      "##origin": 5629,
      "##eight ": 5630,
      "##once.": 5631,
      "Nobody ": 5632,
      "##iff": 5633,
      "Hello": 5634,
      "Leave ": 5635,
      "##date ": 5636,
      "##arri": 5637,
      "##blood.": 5638,
      "##look.": 5639,
      "##support": 5640,
      "##each other.": 5641,
      "I want you to ": 5642,
      "## W": 5643,
      "##u.": 5644,
      "##....": 5645,
      "##chance.": 5646,
      "I am": 5647,
      "##get your ": 5648,
      "Thank you ": 5649,
      "##Per": 5650,
      "##ind.": 5651,
      "##. K": 5652,
      "##I had ": 5653,
      "##do that": 5654,
      "##about you.": 5655,
      "## we can ": 5656,
      "##crit": 5657,
      "##Will": 5658,
      "##hack": 5659,
      "##icult": 5660,
      "##anything to ": 5661,
      "##what he ": 5662,
      "##, you can ": 5663,
      "Don't wor": 5664,
      "Once ": 5665,
      "##Exc": 5666,
      "## then.": 5667,
      "## to his ": 5668,
      "##chur": 5669,
      "##see w": 5670,
      "##separ": 5671,
      "##known": 5672,
      "##board": 5673,
      "##ready ": 5674,
      "- That ": 5675,
      "##under the ": 5676,
      "##beat ": 5677,
      "##fool": 5678,
      "##Lord, ": 5679,
      "##neighbor": 5680,
      "By ": 5681,
      "Hu": 5682,
      "##Tru": 5683,
      "##Po": 5684,
      "##you, and ": 5685,
      "##atri": 5686,
      "##ely, ": 5687,
      "##for you to ": 5688,
      "##happy.": 5689,
      "##order ": 5690,
      "##missing ": 5691,
      "##believers ": 5692,
      "##regard": 5693,
      "##ies, ": 5694,
      "##report ": 5695,
      "## to a ": 5696,
      "##at a ": 5697,
      "##, will ": 5698,
      "##lot ": 5699,
      "How did you ": 5700,
      "##duce ": 5701,
      "##letter": 5702,
      "Perhaps ": 5703,
      "##none ": 5704,
      "##Hen": 5705,
      "##ene": 5706,
      "##rock": 5707,
      "##comb": 5708,
      "##get some ": 5709,
      "##ive, ": 5710,
      "##crazy ": 5711,
      "##Book ": 5712,
      "## town": 5713,
      "##you to": 5714,
      "##. Go": 5715,
      "##you didn't ": 5716,
      "##all this ": 5717,
      "## take it ": 5718,
      "##present ": 5719,
      "##Allah and ": 5720,
      "When I ": 5721,
      "##expect ": 5722,
      "##develop": 5723,
      "##depart": 5724,
      "##What?": 5725,
      "Call ": 5726,
      "##Red ": 5727,
      "##ens ": 5728,
      "##nobody ": 5729,
      "##ulti": 5730,
      "##mort": 5731,
      "##card": 5732,
      "How long ": 5733,
      "##longer ": 5734,
      "What's your ": 5735,
      "##imagine ": 5736,
      "##wel": 5737,
      "##OM": 5738,
      "##Just": 5739,
      "##. \"": 5740,
      "##plo": 5741,
      "##spend": 5742,
      "##worth": 5743,
      "##... I ": 5744,
      "##held ": 5745,
      "##there.": 5746,
      "She is ": 5747,
      "##hands.": 5748,
      "##accord": 5749,
      "I've got ": 5750,
      "##American ": 5751,
      "##by.": 5752,
      "##p!": 5753,
      "##lie.": 5754,
      "##your Lord ": 5755,
      "## the whole ": 5756,
      "##stupid ": 5757,
      "There": 5758,
      "##lis": 5759,
      "##ts.": 5760,
      "##itud": 5761,
      "##eder": 5762,
      "##fore": 5763,
      "##assu": 5764,
      "Your": 5765,
      "##maj": 5766,
      "##mail ": 5767,
      "##offer": 5768,
      "##people are ": 5769,
      "##child": 5770,
      "##s this ": 5771,
      "##itch.": 5772,
      "##ice, ": 5773,
      "##spent ": 5774,
      "##what we ": 5775,
      "##a messa": 5776,
      "##alive ": 5777,
      "##slow": 5778,
      "##second.": 5779,
      "##group": 5780,
      "## team": 5781,
      "##children.": 5782,
      "##collect": 5783,
      "Mov": 5784,
      "##an un": 5785,
      "##urrect": 5786,
      "##th and ": 5787,
      "##but...": 5788,
      "##news.": 5789,
      "##glad": 5790,
      "Does": 5791,
      "##standing ": 5792,
      "##meeting ": 5793,
      "##smil": 5794,
      "##vic": 5795,
      "##Plea": 5796,
      "##bet ": 5797,
      "You know what ": 5798,
      "##imp": 5799,
      "Three ": 5800,
      "So what ": 5801,
      "##ence, ": 5802,
      "##moving ": 5803,
      "##sym": 5804,
      "##honest": 5805,
      "##building ": 5806,
      "##definitely ": 5807,
      "##hour ": 5808,
      "##mom ": 5809,
      "##, they": 5810,
      "##I'll": 5811,
      "##you have to ": 5812,
      "##forgive ": 5813,
      "##assist": 5814,
      "##himself": 5815,
      "##can't be ": 5816,
      "## T": 5817,
      "##bed.": 5818,
      "##jump": 5819,
      "##Day": 5820,
      "##ed up.": 5821,
      "##el, ": 5822,
      "##attack ": 5823,
      "##giving ": 5824,
      "##function": 5825,
      "##straight ": 5826,
      "##field ": 5827,
      "##ah, ": 5828,
      "##s me ": 5829,
      "##s it ": 5830,
      "## thy ": 5831,
      "## throw ": 5832,
      "##rela": 5833,
      "##ed from ": 5834,
      "##an you ": 5835,
      "##ird": 5836,
      "##about that.": 5837,
      "##object": 5838,
      "## trad": 5839,
      "- Sh": 5840,
      "##owe ": 5841,
      "##ed it": 5842,
      "##el?": 5843,
      "##in S": 5844,
      "##suck": 5845,
      "##get out of ": 5846,
      "##ong ": 5847,
      "##nder": 5848,
      "##blame ": 5849,
      "##night, ": 5850,
      "##promise.": 5851,
      "##large ": 5852,
      "##beautiful ": 5853,
      "Hon": 5854,
      "##request": 5855,
      "##alon": 5856,
      "I haven't ": 5857,
      "##early ": 5858,
      "##! S": 5859,
      "##anyway.": 5860,
      "Look, I ": 5861,
      "Everybody ": 5862,
      "Ma": 5863,
      "##pil": 5864,
      "##wood": 5865,
      "##,\" ": 5866,
      "##As": 5867,
      "##in!": 5868,
      "##ing them ": 5869,
      "##ese.": 5870,
      "##! No": 5871,
      "##ble, ": 5872,
      "I wish ": 5873,
      "##bought ": 5874,
      "##wher": 5875,
      "##mess": 5876,
      "##50 ": 5877,
      "##ory.": 5878,
      "##icid": 5879,
      "So I ": 5880,
      "And they ": 5881,
      "##please, ": 5882,
      "##when he ": 5883,
      "##crime ": 5884,
      "##had the ": 5885,
      "##seems ": 5886,
      "##. Get ": 5887,
      "##neither ": 5888,
      "##low ": 5889,
      "##push": 5890,
      "##Ab": 5891,
      "##you... ": 5892,
      "##you'll be ": 5893,
      "##to meet ": 5894,
      "##ir.": 5895,
      "##opp": 5896,
      "##guar": 5897,
      "##I'm going to ": 5898,
      "##cold ": 5899,
      "They are ": 5900,
      "##number": 5901,
      "##hear me?": 5902,
      "##suspect": 5903,
      "##eautiful": 5904,
      "##als.": 5905,
      "##assa": 5906,
      "##for his ": 5907,
      "##does.": 5908,
      "##rong ": 5909,
      "##clear.": 5910,
      "##hour.": 5911,
      "##een.": 5912,
      "##, please.": 5913,
      "##in here.": 5914,
      "##ions": 5915,
      "##opport": 5916,
      "##was a ": 5917,
      "##see you.": 5918,
      "##country.": 5919,
      "##energ": 5920,
      "##dark ": 5921,
      "About ": 5922,
      "##picture": 5923,
      "##across the ": 5924,
      "##brid": 5925,
      "##Fil": 5926,
      "##is my ": 5927,
      "##ed you.": 5928,
      "##as well ": 5929,
      "##allow ": 5930,
      "What is it?": 5931,
      "##with your ": 5932,
      "##cot": 5933,
      "##law ": 5934,
      "##a sing": 5935,
      "##sleep.": 5936,
      "Last ": 5937,
      "##sitting ": 5938,
      "##e: ": 5939,
      "##But": 5940,
      "##, C": 5941,
      "##in an ": 5942,
      "##y, but ": 5943,
      "##man!": 5944,
      "##use the ": 5945,
      "There is no ": 5946,
      "##difficult": 5947,
      "##taken ": 5948,
      "##goddamn ": 5949,
      "##oh, ": 5950,
      "##Gener": 5951,
      "## to my ": 5952,
      "##ed of ": 5953,
      "##earn": 5954,
      "##. She's ": 5955,
      "##end of the ": 5956,
      "##invit": 5957,
      "##supposed to be ": 5958,
      "##punishment ": 5959,
      "John": 5960,
      "##bill": 5961,
      "##obe": 5962,
      "##whom ": 5963,
      "##ie, ": 5964,
      "##Min": 5965,
      "##are they ": 5966,
      "##...?": 5967,
      "##said that ": 5968,
      "This is a ": 5969,
      "##kidd": 5970,
      "##party ": 5971,
      "##sinc": 5972,
      "##That ": 5973,
      "## tech": 5974,
      "##of those ": 5975,
      "##I am.": 5976,
      "##entr": 5977,
      "##you want.": 5978,
      "## talking to ": 5979,
      "##accident.": 5980,
      "##wife.": 5981,
      "##perfect ": 5982,
      "##rand": 5983,
      "##pap": 5984,
      "##ones.": 5985,
      "##ing of ": 5986,
      "##agent ": 5987,
      "##right here.": 5988,
      "##intro": 5989,
      "##committ": 5990,
      "##medic": 5991,
      "##, uh...": 5992,
      "##they're ": 5993,
      "##kind of": 5994,
      "##effect": 5995,
      "Tom": 5996,
      "##bid": 5997,
      "##ior ": 5998,
      "##ipp": 5999,
      "##Isl": 6000,
      "##Wor": 6001,
      "##); ": 6002,
      "##EL": 6003,
      "##Most ": 6004,
      "##ed with": 6005,
      "I knew ": 6006,
      "##it out.": 6007,
      "##e we're ": 6008,
      "I'm sorry ": 6009,
      "##anymor": 6010,
      "##would have ": 6011,
      "##because of ": 6012,
      "##complic": 6013,
      "## true ": 6014,
      "- Yes, ": 6015,
      "##fault.": 6016,
      "##ahead.": 6017,
      "##g.": 6018,
      "##YOU": 6019,
      "## to this ": 6020,
      "##. Not ": 6021,
      "##real.": 6022,
      "##ed up": 6023,
      "##hir": 6024,
      "##do it": 6025,
      "##like that ": 6026,
      "##know why ": 6027,
      "##n't that ": 6028,
      "What happened?": 6029,
      "What the hell": 6030,
      "First ": 6031,
      "Fuck ": 6032,
      "##catch": 6033,
      "##steal": 6034,
      "##river": 6035,
      "You know what": 6036,
      "##blow": 6037,
      "##particul": 6038,
      "##kne": 6039,
      "##2.": 6040,
      "##shit!": 6041,
      "##! You ": 6042,
      "##perat": 6043,
      "##look at": 6044,
      "##charge ": 6045,
      "##in front of ": 6046,
      "Move ": 6047,
      "Unt": 6048,
      "##Sup": 6049,
      "## told": 6050,
      "Nothing": 6051,
      "##so much": 6052,
      "##. They're ": 6053,
      "You're a ": 6054,
      "##support ": 6055,
      "Bec": 6056,
      "##sick": 6057,
      "##a, who": 6058,
      "##Mom": 6059,
      "- Well": 6060,
      "##monst": 6061,
      "##sense.": 6062,
      "Char": 6063,
      "##y,": 6064,
      "##iel": 6065,
      "I can't": 6066,
      "##following ": 6067,
      "##strong ": 6068,
      "##a... ": 6069,
      "##De": 6070,
      "##on't.": 6071,
      "##assi": 6072,
      "##emot": 6073,
      "##anyway": 6074,
      "##so that ": 6075,
      "- We're ": 6076,
      "##ream ": 6077,
      "##a mist": 6078,
      "##destroy ": 6079,
      "More ": 6080,
      "##Are you ": 6081,
      "##P.": 6082,
      "##Dad": 6083,
      "##s at ": 6084,
      "## threat": 6085,
      "##as we ": 6086,
      "## to them": 6087,
      "##do is ": 6088,
      "##suit": 6089,
      "Well, that's ": 6090,
      "##ion is ": 6091,
      "##shap": 6092,
      "##morning, ": 6093,
      "##milit": 6094,
      "##exampl": 6095,
      "##s will ": 6096,
      "##ead ": 6097,
      "##difficul": 6098,
      "## the best ": 6099,
      "##shoot": 6100,
      "##last time ": 6101,
      "Sorry.": 6102,
      "##chance to ": 6103,
      "Most ": 6104,
      "##vot": 6105,
      "##50": 6106,
      "##, no ": 6107,
      "##ors.": 6108,
      "##ashi": 6109,
      "##olut": 6110,
      "##sport": 6111,
      "##anyone.": 6112,
      "##faith ": 6113,
      "##carry ": 6114,
      "##hard.": 6115,
      "##deb": 6116,
      "##deep ": 6117,
      "##ance, ": 6118,
      "##calling ": 6119,
      "##others.": 6120,
      "##return ": 6121,
      "##might have ": 6122,
      "##born ": 6123,
      "##when they ": 6124,
      "##woman ": 6125,
      "##Miss ": 6126,
      "##ony": 6127,
      "##forget": 6128,
      "##establ": 6129,
      "I won't ": 6130,
      "- Where ": 6131,
      "##grap": 6132,
      "##Sec": 6133,
      "## H": 6134,
      "##bitch": 6135,
      "##18": 6136,
      "##, um": 6137,
      "##rett": 6138,
      "##box ": 6139,
      "##buck": 6140,
      "##. - H": 6141,
      "Don't you ": 6142,
      "- A ": 6143,
      "##always": 6144,
      "##afterno": 6145,
      "##figure out ": 6146,
      "##struct": 6147,
      "Chi": 6148,
      "##why": 6149,
      "##of us ": 6150,
      "##as he ": 6151,
      "##on the t": 6152,
      "##have to be ": 6153,
      "- But ": 6154,
      "##hide ": 6155,
      "Jan": 6156,
      "##went": 6157,
      "##C ": 6158,
      "##Co": 6159,
      "##you that ": 6160,
      "##through": 6161,
      "##sell ": 6162,
      "##opin": 6163,
      "##ly the ": 6164,
      "##revel": 6165,
      "Damn ": 6166,
      "Didn't ": 6167,
      "Actually, ": 6168,
      "##brain": 6169,
      "##ine, ": 6170,
      "##stol": 6171,
      "##iter": 6172,
      "##sometimes ": 6173,
      "##like this ": 6174,
      "##board ": 6175,
      "##const": 6176,
      "##'ve got ": 6177,
      "We need ": 6178,
      "##had been ": 6179,
      "## tell you w": 6180,
      "##intend": 6181,
      "##hous": 6182,
      "##ieuten": 6183,
      "## tomorrow": 6184,
      "##skin": 6185,
      "##, don't ": 6186,
      "##as long ": 6187,
      "##it for ": 6188,
      "##lot of ": 6189,
      "##summ": 6190,
      "##ethear": 6191,
      "##, you know?": 6192,
      "That's a ": 6193,
      "##made a ": 6194,
      "##beautiful.": 6195,
      "##spoke ": 6196,
      "Reall": 6197,
      "##dred ": 6198,
      "##fish": 6199,
      "##onder ": 6200,
      "Think ": 6201,
      "##happened?": 6202,
      "##moment ": 6203,
      "##knock": 6204,
      "Dis": 6205,
      "##van": 6206,
      "It's all ": 6207,
      "It's been ": 6208,
      "##about that ": 6209,
      "##ers are ": 6210,
      "We're not ": 6211,
      "##that?": 6212,
      "##files ": 6213,
      "##safet": 6214,
      "##visit": 6215,
      "##sister ": 6216,
      "##ner": 6217,
      "##clock": 6218,
      "##Yes.": 6219,
      "##Mr ": 6220,
      "## word": 6221,
      "##chem": 6222,
      "##it and ": 6223,
      "##like you ": 6224,
      "##. There's ": 6225,
      "##there's ": 6226,
      "##heart.": 6227,
      "##rect ": 6228,
      "Where is ": 6229,
      "##leave the ": 6230,
      "##arrang": 6231,
      "##miles ": 6232,
      "##gather": 6233,
      "##yet?": 6234,
      "##ah.": 6235,
      "##s for the ": 6236,
      "##and to ": 6237,
      "##, with": 6238,
      "##to take ": 6239,
      "## trouble.": 6240,
      "Bet": 6241,
      "##my.": 6242,
      "##ert ": 6243,
      "##and your ": 6244,
      "##of it.": 6245,
      "##see?": 6246,
      "##see that ": 6247,
      "##build ": 6248,
      "##. Oh, ": 6249,
      "- Yes": 6250,
      "##remain ": 6251,
      "Man": 6252,
      "##s) ": 6253,
      "##nut": 6254,
      "##Bo": 6255,
      "##Phi": 6256,
      "##DN": 6257,
      "##has the ": 6258,
      "##ste": 6259,
      "##is an ": 6260,
      "##is...": 6261,
      "- Just ": 6262,
      "##and their ": 6263,
      "##doing.": 6264,
      "##get this ": 6265,
      "##join ": 6266,
      "##enjoy": 6267,
      "##cow": 6268,
      "##, she ": 6269,
      "##ed their ": 6270,
      "And we ": 6271,
      "##looking at ": 6272,
      "##. Okay.": 6273,
      "## what they ": 6274,
      "##close.": 6275,
      "##among the ": 6276,
      "##lay ": 6277,
      "##pha": 6278,
      "##one more ": 6279,
      "##out to ": 6280,
      "##come back ": 6281,
      "## work.": 6282,
      "##ount ": 6283,
      "After": 6284,
      "De": 6285,
      "##wall": 6286,
      "##iam": 6287,
      "##Dr": 6288,
      "##ins.": 6289,
      "## was the ": 6290,
      "##I saw ": 6291,
      "##ood, ": 6292,
      "##able": 6293,
      "No, you ": 6294,
      "##s, you ": 6295,
      "##pregn": 6296,
      "##buy": 6297,
      "##moved ": 6298,
      "##kidding ": 6299,
      "##excuse ": 6300,
      "##ask you ": 6301,
      "##Captain": 6302,
      "##learn ": 6303,
      "Ed": 6304,
      "##IM": 6305,
      "##7.": 6306,
      "##s for": 6307,
      "##a is ": 6308,
      "##list.": 6309,
      "##best.": 6310,
      "##age, ": 6311,
      "##I won't ": 6312,
      "##something that ": 6313,
      "##made it ": 6314,
      "##excit": 6315,
      "##child.": 6316,
      "Yes, I ": 6317,
      "##sudden": 6318,
      "Dr": 6319,
      "Hmm": 6320,
      "##mal": 6321,
      "##15 ": 6322,
      "##, L": 6323,
      "- K": 6324,
      "##unt ": 6325,
      "##amer": 6326,
      "##y, you ": 6327,
      "##he's not ": 6328,
      "##order.": 6329,
      "##guys": 6330,
      "##loves ": 6331,
      "##instru": 6332,
      "##daughter.": 6333,
      "##vehi": 6334,
      "New ": 6335,
      "Agent ": 6336,
      "##Sher": 6337,
      "##sick ": 6338,
      "##:00 ": 6339,
      "##, sir.": 6340,
      "##ate": 6341,
      "##. Well": 6342,
      "##disbeliev": 6343,
      "## the two ": 6344,
      "##grac": 6345,
      "##you've been ": 6346,
      "##oul": 6347,
      "##arget ": 6348,
      "## to do.": 6349,
      "##deserve ": 6350,
      "##each other ": 6351,
      "##e without ": 6352,
      "##explos": 6353,
      "##gonna take ": 6354,
      "##matter.": 6355,
      "From ": 6356,
      "##Excuse ": 6357,
      "##bank": 6358,
      "##Yes, ": 6359,
      "##ed on the ": 6360,
      "##and you ": 6361,
      "##icking ": 6362,
      "##guess.": 6363,
      "##igur": 6364,
      "##discover": 6365,
      "##killer ": 6366,
      "##self-": 6367,
      "##put it ": 6368,
      "##number of ": 6369,
      "##determin": 6370,
      "##idea w": 6371,
      "##message ": 6372,
      "##egg": 6373,
      "##s or ": 6374,
      "- U": 6375,
      "I said ": 6376,
      "##me...": 6377,
      "Their ": 6378,
      "##fight.": 6379,
      "##made the ": 6380,
      "##audi": 6381,
      "##join": 6382,
      "##indow ": 6383,
      "##leaving ": 6384,
      "##destin": 6385,
      "##front ": 6386,
      "Lad": 6387,
      "##nu": 6388,
      "##roo": 6389,
      "##kick": 6390,
      "##ory": 6391,
      "##you go.": 6392,
      "##road ": 6393,
      "##for it.": 6394,
      "##e. It's ": 6395,
      "##. Why ": 6396,
      "##again, ": 6397,
      "I've never ": 6398,
      "##benef": 6399,
      "##condition": 6400,
      "##T.": 6401,
      "##ed about ": 6402,
      "##dig": 6403,
      "##in the t": 6404,
      "##to.": 6405,
      "##I were ": 6406,
      "- Okay.": 6407,
      "##, no.": 6408,
      "- No ": 6409,
      "##Sun": 6410,
      "##ny": 6411,
      "##refer": 6412,
      "##me,": 6413,
      "##do that ": 6414,
      "##on our ": 6415,
      "##ittle ": 6416,
      "##not that ": 6417,
      "On the ": 6418,
      "##of course.": 6419,
      "Will ": 6420,
      "##a C": 6421,
      "## top ": 6422,
      "It doesn't ": 6423,
      "##because I ": 6424,
      "Yeah?": 6425,
      "##party.": 6426,
      "##hospital.": 6427,
      "##Merciful": 6428,
      "Acc": 6429,
      "Sound": 6430,
      "##civ": 6431,
      "##AS": 6432,
      "##of those who ": 6433,
      "##sequ": 6434,
      "##conc": 6435,
      "We should ": 6436,
      "##least": 6437,
      "He said ": 6438,
      "## with your ": 6439,
      "- Hell": 6440,
      "Who are you?": 6441,
      "##simpl": 6442,
      "##peace ": 6443,
      "##suffer": 6444,
      "Pr": 6445,
      "Wow": 6446,
      "##less.": 6447,
      "##Paul": 6448,
      "##easi": 6449,
      "##in her ": 6450,
      "##do to ": 6451,
      "##from?": 6452,
      "##blow ": 6453,
      "##just... ": 6454,
      "I can't believe ": 6455,
      "##ah!": 6456,
      "##Ang": 6457,
      "##you want me to ": 6458,
      "##intellig": 6459,
      "Right.": 6460,
      "Say ": 6461,
      "##small ": 6462,
      "##be with ": 6463,
      "##ate, ": 6464,
      "##ed as ": 6465,
      "##he has ": 6466,
      "##short ": 6467,
      "##with my ": 6468,
      "##offer ": 6469,
      "##will not ": 6470,
      "##a tri": 6471,
      "##\" \"": 6472,
      "##change.": 6473,
      "##built ": 6474,
      "##brought": 6475,
      "##view ": 6476,
      "App": 6477,
      "##s. S": 6478,
      "##ek ": 6479,
      "##ago, ": 6480,
      "##ly?": 6481,
      "##itch ": 6482,
      "##ing out ": 6483,
      "##asp": 6484,
      "What did you ": 6485,
      "Yeah, but ": 6486,
      "##needed ": 6487,
      "##Allah has ": 6488,
      "Thank you": 6489,
      "##hundred ": 6490,
      "##eally?": 6491,
      "##yst": 6492,
      "##m, ": 6493,
      "##Y ": 6494,
      "##El": 6495,
      "##ing with": 6496,
      "##regre": 6497,
      "##what you're ": 6498,
      "##just the ": 6499,
      "##press ": 6500,
      "##breath": 6501,
      "##I want you to ": 6502,
      "## totally ": 6503,
      "Sam": 6504,
      "##s? ": 6505,
      "##ny ": 6506,
      "##I wouldn't ": 6507,
      "##ey!": 6508,
      "##more than": 6509,
      "##live.": 6510,
      "##shir": 6511,
      "##help you ": 6512,
      "## the truth ": 6513,
      "I'd like to ": 6514,
      "##value ": 6515,
      "##water ": 6516,
      "##level": 6517,
      "##stairs.": 6518,
      "##responsible ": 6519,
      "##claim": 6520,
      "-S": 6521,
      "Ver": 6522,
      "##ahea": 6523,
      "##lu": 6524,
      "##ix ": 6525,
      "##er...": 6526,
      "##react": 6527,
      "##ition.": 6528,
      "##with me.": 6529,
      "I wouldn't ": 6530,
      "##minist": 6531,
      "- Who ": 6532,
      "##questions.": 6533,
      "Sp": 6534,
      "##o-": 6535,
      "##% ": 6536,
      "## we were ": 6537,
      "##libr": 6538,
      "Those who ": 6539,
      "##different": 6540,
      "##week ": 6541,
      "##h-": 6542,
      "##Don": 6543,
      "## till ": 6544,
      "##ing their ": 6545,
      "##rew": 6546,
      "##really.": 6547,
      "##. (": 6548,
      "I'm a ": 6549,
      "##ongrat": 6550,
      "Should ": 6551,
      "##whoever ": 6552,
      "##business": 6553,
      "##calm ": 6554,
      "##small": 6555,
      "Hi, ": 6556,
      "Wher": 6557,
      "##aid ": 6558,
      "##ue.": 6559,
      "##on their ": 6560,
      "##chick": 6561,
      "##lob": 6562,
      "What, ": 6563,
      "##appl": 6564,
      "##izz": 6565,
      "##He has ": 6566,
      "##your wif": 6567,
      "##veill": 6568,
      "##. Come on.": 6569,
      "##eful ": 6570,
      "##dad.": 6571,
      "##tim": 6572,
      "##you two ": 6573,
      "##ed him.": 6574,
      "##he didn't ": 6575,
      "##come on, ": 6576,
      "##fix ": 6577,
      "##possess": 6578,
      "When you ": 6579,
      "##baby": 6580,
      "How's ": 6581,
      "## terri": 6582,
      "Dr. ": 6583,
      "##grav": 6584,
      "##video ": 6585,
      "##He will ": 6586,
      "##This is ": 6587,
      "##reck": 6588,
      "##it that ": 6589,
      "##coming": 6590,
      "##sak": 6591,
      "##out of my ": 6592,
      "##months.": 6593,
      "##folk": 6594,
      "Sha": 6595,
      "Where": 6596,
      "##Se": 6597,
      "##besid": 6598,
      "##vid": 6599,
      "##Tr": 6600,
      "##in-": 6601,
      "I couldn't ": 6602,
      "##ics.": 6603,
      "##round ": 6604,
      "##how much ": 6605,
      "##first time ": 6606,
      "##lucky ": 6607,
      "##drink.": 6608,
      "##fem": 6609,
      "##I can": 6610,
      "##in order": 6611,
      "##you're the ": 6612,
      "##care.": 6613,
      "##carry": 6614,
      "##part.": 6615,
      "My name is ": 6616,
      "##applic": 6617,
      "## trouble ": 6618,
      "##doubt ": 6619,
      "##anal": 6620,
      "##. Yeah.": 6621,
      "##ated": 6622,
      "##her!": 6623,
      "##account ": 6624,
      "You look ": 6625,
      "##gonna get ": 6626,
      "##ending ": 6627,
      "##grow ": 6628,
      "##honor": 6629,
      "##medical ": 6630,
      "##screw": 6631,
      "##image ": 6632,
      "##U.": 6633,
      "## then, ": 6634,
      "## want ": 6635,
      "## to you ": 6636,
      "##beat": 6637,
      "##asn't ": 6638,
      "##ever, ": 6639,
      "##proto": 6640,
      "##produc": 6641,
      "##'s too ": 6642,
      "##rypt": 6643,
      "## times.": 6644,
      "##popul": 6645,
      "##heavens and the earth": 6646,
      "Watch ": 6647,
      "##bath": 6648,
      "##cup": 6649,
      "##ot ": 6650,
      "##iev": 6651,
      "## teach ": 6652,
      "##ed him": 6653,
      "##enter ": 6654,
      "##ed to be ": 6655,
      "##, you don't ": 6656,
      "##. - W": 6657,
      "##run.": 6658,
      "- My ": 6659,
      "##easy ": 6660,
      "##king.": 6661,
      "##o!": 6662,
      "##i?": 6663,
      "##iri": 6664,
      "##men, ": 6665,
      "##Lu": 6666,
      "##eren't ": 6667,
      "##ease ": 6668,
      "##forgiven": 6669,
      "##else": 6670,
      "##need.": 6671,
      "##in the middle ": 6672,
      "##need your ": 6673,
      "Don't be ": 6674,
      "##kids ": 6675,
      "##warn": 6676,
      "##United ": 6677,
      "##machin": 6678,
      "##cross": 6679,
      "## those w": 6680,
      "##sacrif": 6681,
      "Read": 6682,
      "##urop": 6683,
      "##psych": 6684,
      "##Micha": 6685,
      "##zer": 6686,
      "##hair ": 6687,
      "I did ": 6688,
      "##napp": 6689,
      "##accident": 6690,
      "##news ": 6691,
      "##kids.": 6692,
      "##risk": 6693,
      "##close to ": 6694,
      "%1 ": 6695,
      "Hur": 6696,
      "Jack": 6697,
      "##ra ": 6698,
      "##Gard": 6699,
      "##Good ": 6700,
      "##insan": 6701,
      "I heard ": 6702,
      "##ants.": 6703,
      "##th of ": 6704,
      "##affair": 6705,
      "##deal ": 6706,
      "##stopped ": 6707,
      "##ongratul": 6708,
      "Even": 6709,
      "Since ": 6710,
      "##ins ": 6711,
      "##you're a ": 6712,
      "##liver ": 6713,
      "##does it ": 6714,
      "##deni": 6715,
      "##book.": 6716,
      "##future.": 6717,
      "##company.": 6718,
      "##celebr": 6719,
      "##UR": 6720,
      "##lou": 6721,
      "##pass ": 6722,
      "##He will": 6723,
      "##raz": 6724,
      "##say that ": 6725,
      "##call the ": 6726,
      "- This ": 6727,
      "##due ": 6728,
      "##hadn't ": 6729,
      "##paint": 6730,
      "##system.": 6731,
      "##iously on ": 6732,
      "##yr": 6733,
      "##y? ": 6734,
      "##To ": 6735,
      "##ould.": 6736,
      "##ony ": 6737,
      "##ing her ": 6738,
      "##acter": 6739,
      "##nolog": 6740,
      "##to be ": 6741,
      "##degre": 6742,
      "##cle.": 6743,
      "And that ": 6744,
      "##a matt": 6745,
      "##contact": 6746,
      "##son?": 6747,
      "## through.": 6748,
      "##sounds ": 6749,
      "##rote ": 6750,
      "Rem": 6751,
      "Sec": 6752,
      "Were ": 6753,
      "##IC": 6754,
      "## want to ": 6755,
      "##eak": 6756,
      "##act.": 6757,
      "The only ": 6758,
      "And when ": 6759,
      "##so, ": 6760,
      "##if you don't ": 6761,
      "Where are you ": 6762,
      "##information": 6763,
      "##luck.": 6764,
      "##doubt": 6765,
      "##fortunat": 6766,
      "I'll take ": 6767,
      "##ror": 6768,
      "##pet": 6769,
      "##hy.": 6770,
      "##Ben": 6771,
      "##reward ": 6772,
      "##ities ": 6773,
      "##light.": 6774,
      "##I love ": 6775,
      "##of you.": 6776,
      "##about a ": 6777,
      "##know about ": 6778,
      "He's not ": 6779,
      "##jur": 6780,
      "##eph": 6781,
      "##something, ": 6782,
      "## time?": 6783,
      "##prefer": 6784,
      "##Stat": 6785,
      "##before I ": 6786,
      "##minute.": 6787,
      "##understand?": 6788,
      "##hungr": 6789,
      "##restaur": 6790,
      "##bloody ": 6791,
      "##cool.": 6792,
      "##Maj": 6793,
      "##cand": 6794,
      "##IT": 6795,
      "##Okay.": 6796,
      "##Fa": 6797,
      "##ed in": 6798,
      "##ney ": 6799,
      "##shel": 6800,
      "And I'm ": 6801,
      "##right to ": 6802,
      "##from my ": 6803,
      "## track ": 6804,
      "##I've got ": 6805,
      "- No, ": 6806,
      "##moment": 6807,
      "##connection": 6808,
      "##decided to ": 6809,
      "##i-": 6810,
      "##Naz": 6811,
      "## treat": 6812,
      "##s out ": 6813,
      "##an!": 6814,
      "##is he ": 6815,
      "##esom": 6816,
      "##isn't": 6817,
      "##here with ": 6818,
      "##ics ": 6819,
      "##meth": 6820,
      "##dial": 6821,
      "##'s...": 6822,
      "##key.": 6823,
      "##call you ": 6824,
      "##murder.": 6825,
      "##field": 6826,
      "##Sk": 6827,
      "##yes, ": 6828,
      "##p, ": 6829,
      "##tea": 6830,
      "## walk": 6831,
      "##ed into ": 6832,
      "##and w": 6833,
      "##elt": 6834,
      "##done, ": 6835,
      "##a bab": 6836,
      "##would you ": 6837,
      "## what I ": 6838,
      "##like?": 6839,
      "##wants ": 6840,
      "## when you ": 6841,
      "##different.": 6842,
      "##data ": 6843,
      "##stupid": 6844,
      "Par": 6845,
      "Wel": 6846,
      "##Bri": 6847,
      "##ers?": 6848,
      "##er was ": 6849,
      "##ofess": 6850,
      "##an in": 6851,
      "## to tell ": 6852,
      "And now ": 6853,
      "##you who ": 6854,
      "##affor": 6855,
      "##compet": 6856,
      "What's going on?": 6857,
      "I'm the ": 6858,
      "##complete ": 6859,
      "Can we ": 6860,
      "##scream": 6861,
      "##a single ": 6862,
      "##yell": 6863,
      "##Mor": 6864,
      "I found ": 6865,
      "##consc": 6866,
      "##we are ": 6867,
      "##there": 6868,
      "##lives.": 6869,
      "No, it's ": 6870,
      "##a cri": 6871,
      "##bably ": 6872,
      "##approach": 6873,
      "##require": 6874,
      "##L.": 6875,
      "##ham ": 6876,
      "##remove ": 6877,
      "##aband": 6878,
      "##do with": 6879,
      "##guy?": 6880,
      "##, thank you.": 6881,
      "##marry ": 6882,
      "##putting ": 6883,
      "Everything": 6884,
      "##color": 6885,
      "Look at": 6886,
      "##simply ": 6887,
      "##favorite ": 6888,
      "Col": 6889,
      "Sur": 6890,
      "##link": 6891,
      "##messeng": 6892,
      "##hara": 6893,
      "##relea": 6894,
      "##elder": 6895,
      "##heel": 6896,
      "##neck": 6897,
      "##romis": 6898,
      "##sight": 6899,
      "I don't want ": 6900,
      "##engag": 6901,
      "##sister.": 6902,
      "If the ": 6903,
      "##one of those ": 6904,
      "##level ": 6905,
      "## themselves ": 6906,
      "Sar": 6907,
      "##iet": 6908,
      "##Wat": 6909,
      "##May": 6910,
      "##Kar": 6911,
      "##ouch": 6912,
      "##you tell me ": 6913,
      "##for their ": 6914,
      "##asle": 6915,
      "##und": 6916,
      "##road.": 6917,
      "##shol": 6918,
      "##both": 6919,
      "##way!": 6920,
      "This isn't ": 6921,
      "- Who": 6922,
      "##: %1": 6923,
      "If he ": 6924,
      "##made me ": 6925,
      "##boss.": 6926,
      "##ritten ": 6927,
      "Er": 6928,
      "##ual": 6929,
      "##($": 6930,
      "##Bu": 6931,
      "##Jer": 6932,
      "##C.": 6933,
      "##hero": 6934,
      "##else?": 6935,
      "##as much ": 6936,
      "##unto": 6937,
      "##ild": 6938,
      "##loy": 6939,
      "No. No": 6940,
      "##aster ": 6941,
      "- I'll ": 6942,
      "##accept ": 6943,
      "##son of a b": 6944,
      "I need you to ": 6945,
      "##during the ": 6946,
      "We will ": 6947,
      "##fra": 6948,
      "##Cor": 6949,
      "##Cal": 6950,
      "##eath": 6951,
      "##like": 6952,
      "##ooth": 6953,
      "##verily ": 6954,
      "##rain.": 6955,
      "##lear ": 6956,
      "##... but ": 6957,
      "Do you think ": 6958,
      "##guy's ": 6959,
      "##ike, ": 6960,
      "Somebody ": 6961,
      "##dog.": 6962,
      "## thousand ": 6963,
      "##ft ": 6964,
      "##vac": 6965,
      "##, take ": 6966,
      "##O.": 6967,
      "##en to ": 6968,
      "##a S": 6969,
      "##ing is ": 6970,
      "##it all ": 6971,
      "##open.": 6972,
      "##ations, ": 6973,
      "It's like ": 6974,
      "##final ": 6975,
      "##We shall ": 6976,
      "##later": 6977,
      "##deserv": 6978,
      "##mission ": 6979,
      "##found the ": 6980,
      "##single ": 6981,
      "-H": 6982,
      "##US": 6983,
      "##Ir": 6984,
      "##Cl": 6985,
      "##Fri": 6986,
      "##, just ": 6987,
      "## which": 6988,
      "##forever.": 6989,
      "##of Allah": 6990,
      "##acob": 6991,
      "##being": 6992,
      "##his own ": 6993,
      "##bot": 6994,
      "##ends ": 6995,
      "- They ": 6996,
      "##home": 6997,
      "##place to ": 6998,
      "- Let's ": 6999,
      "Sorry ": 7000,
      "##list of ": 7001,
      "Find ": 7002,
      "##y, the ": 7003,
      "##kitch": 7004,
      "##typ": 7005,
      "##Abra": 7006,
      "##Che": 7007,
      "## town.": 7008,
      "##you need to ": 7009,
      "##ch?": 7010,
      "##acqu": 7011,
      "I see ": 7012,
      "##hiding ": 7013,
      "##it in ": 7014,
      "##all-": 7015,
      "##maint": 7016,
      "##! I ": 7017,
      "##how many ": 7018,
      "##param": 7019,
      "##a ser": 7020,
      "And that's ": 7021,
      "##indic": 7022,
      "##wrong with ": 7023,
      "##custom": 7024,
      "##pill": 7025,
      "##ial.": 7026,
      "##mitt": 7027,
      "##you can": 7028,
      "##you had ": 7029,
      "##leader": 7030,
      "##about my ": 7031,
      "##ry!": 7032,
      "##a small ": 7033,
      "##place?": 7034,
      "##supp": 7035,
      "I've been": 7036,
      "##addres": 7037,
      "##crow": 7038,
      "##ridicul": 7039,
      "##put the ": 7040,
      "##important.": 7041,
      "For the ": 7042,
      "##straight": 7043,
      "Previously on ": 7044,
      "Fe": 7045,
      "Rel": 7046,
      "##iec": 7047,
      "##Ros": 7048,
      "##The": 7049,
      "##army ": 7050,
      "##plent": 7051,
      "##not have ": 7052,
      "##rud": 7053,
      "##you, but ": 7054,
      "If you're ": 7055,
      "##judge ": 7056,
      "##divid": 7057,
      "Pet": 7058,
      "##Rom": 7059,
      "## tem": 7060,
      "##nother ": 7061,
      "And if ": 7062,
      "##canc": 7063,
      "##resour": 7064,
      "##ers and ": 7065,
      "##people of ": 7066,
      "##hundre": 7067,
      "- Good ": 7068,
      "##okay ": 7069,
      "##, but...": 7070,
      "Too ": 7071,
      "##organiz": 7072,
      "##s. W": 7073,
      "##ech ": 7074,
      "##ty": 7075,
      "##Be": 7076,
      "##16": 7077,
      "##you,": 7078,
      "##thre": 7079,
      "##arent": 7080,
      "## we w": 7081,
      "##ati": 7082,
      "##got.": 7083,
      "##idi": 7084,
      "What did ": 7085,
      "We just ": 7086,
      "##company": 7087,
      "##a lot.": 7088,
      "##magic": 7089,
      "##number.": 7090,
      "##born": 7091,
      "##dropp": 7092,
      "##doctor.": 7093,
      "Before ": 7094,
      "##instead of ": 7095,
      "##Muhammad": 7096,
      "##enemy ": 7097,
      "##cast ": 7098,
      "##ggl": 7099,
      "##right there.": 7100,
      "##a whole ": 7101,
      "##store ": 7102,
      "##could've ": 7103,
      "##Resurrect": 7104,
      "##ps.": 7105,
      "##on's ": 7106,
      "##edi": 7107,
      "##for those who ": 7108,
      "##histor": 7109,
      "##it would ": 7110,
      "##it up.": 7111,
      "##abilit": 7112,
      "## to that ": 7113,
      "##get me ": 7114,
      "##akes ": 7115,
      "It wasn't ": 7116,
      "##give us ": 7117,
      "No, I'm ": 7118,
      "##family": 7119,
      "##boys.": 7120,
      "Guy": 7121,
      "##absolutely ": 7122,
      "##food": 7123,
      "##Mer": 7124,
      "##Mad": 7125,
      "##zomb": 7126,
      "##arch": 7127,
      "##of all": 7128,
      "##history ": 7129,
      "##have an ": 7130,
      "##impress": 7131,
      "##surveill": 7132,
      "##syn": 7133,
      "##fun ": 7134,
      "##ground.": 7135,
      "## tomorrow ": 7136,
      "Excuse me.": 7137,
      "##building.": 7138,
      "##FBI ": 7139,
      "Ro": 7140,
      "##bed ": 7141,
      "##fer ": 7142,
      "##Li": 7143,
      "##OW": 7144,
      "## the...": 7145,
      "##, if ": 7146,
      "##ative ": 7147,
      "##ask.": 7148,
      "You guys ": 7149,
      "##likes ": 7150,
      "##. You can ": 7151,
      "##ward.": 7152,
      "## team ": 7153,
      "## two.": 7154,
      "##recognize ": 7155,
      "##rate ": 7156,
      "##Dadd": 7157,
      "##reject": 7158,
      "##it? ": 7159,
      "##ird.": 7160,
      "##on and ": 7161,
      "##home?": 7162,
      "##got to be ": 7163,
      "##reason.": 7164,
      "##Why ": 7165,
      "##jail": 7166,
      "##init": 7167,
      "##it...": 7168,
      "##'s that ": 7169,
      "##get that ": 7170,
      "And then": 7171,
      "##guys are ": 7172,
      "##Command": 7173,
      "## term": 7174,
      "##computer ": 7175,
      "##divor": 7176,
      "##smell ": 7177,
      "Becaus": 7178,
      "##dadd": 7179,
      "##ID": 7180,
      "##Go ": 7181,
      "##100": 7182,
      "##12 ": 7183,
      "##Jam": 7184,
      "##Fir": 7185,
      "##ries ": 7186,
      "##at your ": 7187,
      "##at my ": 7188,
      "I really ": 7189,
      "##seat": 7190,
      "##and then": 7191,
      "##- - ": 7192,
      "I wanted to ": 7193,
      "But we ": 7194,
      "##, then.": 7195,
      "##fuckin' ": 7196,
      "So...": 7197,
      "##that the ": 7198,
      "##friend?": 7199,
      "##Allah's ": 7200,
      "##boys ": 7201,
      "##problem?": 7202,
      "##ING ": 7203,
      "##THE ": 7204,
      "Doesn't ": 7205,
      "Nor": 7206,
      "##dumb": 7207,
      "##window": 7208,
      "##Bill": 7209,
      "##ans.": 7210,
      "##, A": 7211,
      "##arm.": 7212,
      "##ital ": 7213,
      "##you guys ": 7214,
      "##guide ": 7215,
      "##aint": 7216,
      "What kind of ": 7217,
      "##had no ": 7218,
      "##off!": 7219,
      "##clou": 7220,
      "##want to": 7221,
      "Sometimes ": 7222,
      "I have no ": 7223,
      "Here, ": 7224,
      "##voic": 7225,
      "Am I ": 7226,
      "##30": 7227,
      "##For ": 7228,
      "##think ": 7229,
      "##some w": 7230,
      "##ag ": 7231,
      "##illeg": 7232,
      "##blue ": 7233,
      "##ready?": 7234,
      "##reak ": 7235,
      "##brings ": 7236,
      "##soul ": 7237,
      "## than the ": 7238,
      "##Christm": 7239,
      "##piece of ": 7240,
      "##increas": 7241,
      "Run": 7242,
      "##corr": 7243,
      "##ton.": 7244,
      "##Mur": 7245,
      "##ing,": 7246,
      "##thy ": 7247,
      "##it doesn't ": 7248,
      "##doz": 7249,
      "## that...": 7250,
      "##, and he ": 7251,
      "##month.": 7252,
      "##Stre": 7253,
      "##invent": 7254,
      "##larg": 7255,
      "##strange ": 7256,
      "##private ": 7257,
      "##mut": 7258,
      "## tor": 7259,
      "##er the ": 7260,
      "##lies ": 7261,
      "##educ": 7262,
      "##god ": 7263,
      "##plant": 7264,
      "##your hands ": 7265,
      "##don't have ": 7266,
      "##y, I ": 7267,
      "##all your ": 7268,
      "##kill you.": 7269,
      "##where the ": 7270,
      "##remember.": 7271,
      "Is he ": 7272,
      "##choic": 7273,
      "##secure ": 7274,
      "##innocent ": 7275,
      "##oke ": 7276,
      "##Gri": 7277,
      "##s he ": 7278,
      "##inking ": 7279,
      "## watch": 7280,
      "##e where ": 7281,
      "##on you.": 7282,
      "##no longer ": 7283,
      "##before he ": 7284,
      "##needs to ": 7285,
      "##a little bit ": 7286,
      "##, Mr": 7287,
      "##should've ": 7288,
      "At least ": 7289,
      "##relationship": 7290,
      "##be wor": 7291,
      "##list ": 7292,
      "##Wal": 7293,
      "##the wor": 7294,
      "##. Your ": 7295,
      "##ator.": 7296,
      "I can": 7297,
      "## today ": 7298,
      "##ut the ": 7299,
      "##ook.": 7300,
      "##deep": 7301,
      "##ation of the ": 7302,
      "##bye.": 7303,
      "##street": 7304,
      "##ified ": 7305,
      "##experienc": 7306,
      "##unch of ": 7307,
      "##retty ": 7308,
      "Mon": 7309,
      "Turn ": 7310,
      "##le, ": 7311,
      "##itz": 7312,
      "##my own ": 7313,
      "##eck": 7314,
      "##shor": 7315,
      "And We ": 7316,
      "##I wanted to ": 7317,
      "##attempt": 7318,
      "##a mur": 7319,
      "##aliz": 7320,
      "##let them ": 7321,
      "##Carri": 7322,
      "##. It was ": 7323,
      "Open ": 7324,
      "##s:": 7325,
      "##, like, ": 7326,
      "##ense.": 7327,
      "##station.": 7328,
      "##ung": 7329,
      "##aff": 7330,
      "##, these ": 7331,
      "##, thank": 7332,
      "##house?": 7333,
      "##a ter": 7334,
      "##mission.": 7335,
      "## whatever ": 7336,
      "##chast": 7337,
      "##honest ": 7338,
      "##until the ": 7339,
      "Besid": 7340,
      "Dadd": 7341,
      "##ST": 7342,
      "##aver": 7343,
      "##pas": 7344,
      "##tra": 7345,
      "##Europ": 7346,
      "##One ": 7347,
      "##as well.": 7348,
      "##it will ": 7349,
      "##ampi": 7350,
      "##out for ": 7351,
      "##, you are ": 7352,
      "##ion of the ": 7353,
      "##up a ": 7354,
      "Why don't ": 7355,
      "##eating ": 7356,
      "##abe": 7357,
      "##les.": 7358,
      "##tomorr": 7359,
      "##Hi": 7360,
      "## tast": 7361,
      "## taught ": 7362,
      "##, sir": 7363,
      "##es to the ": 7364,
      "##ed at the ": 7365,
      "##it wasn't ": 7366,
      "##abo": 7367,
      "##open the ": 7368,
      "##boat": 7369,
      "He'll ": 7370,
      "##retch": 7371,
      "##capable ": 7372,
      "##Intern": 7373,
      "##choice ": 7374,
      "##convinc": 7375,
      "##Isra": 7376,
      "## thousand": 7377,
      "##100 ": 7378,
      "##Oh": 7379,
      "## thank": 7380,
      "## to me ": 7381,
      "##ism": 7382,
      "##chos": 7383,
      "##lost.": 7384,
      "##I wanna ": 7385,
      "##year-": 7386,
      "##busy ": 7387,
      "##greatest ": 7388,
      "##sweethear": 7389,
      "##enjoy ": 7390,
      "##like that?": 7391,
      "##ma'am.": 7392,
      "##c ": 7393,
      "##c.": 7394,
      "##multi": 7395,
      "##Ja": 7396,
      "##infect": 7397,
      "##recover": 7398,
      "##. I was ": 7399,
      "##finish ": 7400,
      "##anywhere.": 7401,
      "##mind?": 7402,
      "##kind.": 7403,
      "##He is ": 7404,
      "##honey": 7405,
      "##gave me ": 7406,
      "##datab": 7407,
      "##cannot be ": 7408,
      "##gram ": 7409,
      "##dangerous.": 7410,
      "##knif": 7411,
      "##bow": 7412,
      "##fly ": 7413,
      "##F ": 7414,
      "##ou ": 7415,
      "##, your ": 7416,
      "##arrest ": 7417,
      "##steal ": 7418,
      "##assign": 7419,
      "##all these ": 7420,
      "##ent?": 7421,
      "Nothing.": 7422,
      "##guard ": 7423,
      "##I'm sorry.": 7424,
      "He's a ": 7425,
      "##nothing but ": 7426,
      "##realize ": 7427,
      "##Cla": 7428,
      "##, and the ": 7429,
      "##itness": 7430,
      "##I get ": 7431,
      "##I should ": 7432,
      "##for what ": 7433,
      "##one that ": 7434,
      "##, I can ": 7435,
      "##get to the ": 7436,
      "##careful": 7437,
      "##remember?": 7438,
      "##Mark": 7439,
      "##girls ": 7440,
      "##stuck ": 7441,
      "##believers.": 7442,
      "##. Thank ": 7443,
      "##voice ": 7444,
      "Check": 7445,
      "Ok": 7446,
      "##hood ": 7447,
      "## town ": 7448,
      "##remin": 7449,
      "##regul": 7450,
      "##it, and ": 7451,
      "##for them": 7452,
      "##main ": 7453,
      "##uty ": 7454,
      "##, you know.": 7455,
      "##. We": 7456,
      "##killer.": 7457,
      "How much ": 7458,
      "##going on": 7459,
      "##risk ": 7460,
      "##mother's ": 7461,
      "##hidden ": 7462,
      "##I wasn't ": 7463,
      "##told me ": 7464,
      "##said, “": 7465,
      "##Lord.": 7466,
      "##ies and gentle": 7467,
      "Miss ": 7468,
      "Welcome ": 7469,
      "##sev": 7470,
      "##tw": 7471,
      "##Bob": 7472,
      "##Ell": 7473,
      "##Fre": 7474,
      "## tick": 7475,
      "## terror": 7476,
      "##omin": 7477,
      "##ash.": 7478,
      "You think": 7479,
      "##prog": 7480,
      "## there were ": 7481,
      "##feet ": 7482,
      "##someone.": 7483,
      "##service ": 7484,
      "You've been ": 7485,
      "Are we ": 7486,
      "First": 7487,
      "## travel": 7488,
      "##cab": 7489,
      "##pe": 7490,
      "##tre": 7491,
      "##fif": 7492,
      "##Can": 7493,
      "## target": 7494,
      "##those who ": 7495,
      "##ite.": 7496,
      "##chose ": 7497,
      "##distr": 7498,
      "What if ": 7499,
      "##certain ": 7500,
      "##passed ": 7501,
      "##begin": 7502,
      "##police.": 7503,
      "##Do you ": 7504,
      "##public ": 7505,
      "##document": 7506,
      "Eas": 7507,
      "##dear ": 7508,
      "## went ": 7509,
      "##eav": 7510,
      "##it down.": 7511,
      "##all over the ": 7512,
      "##bother": 7513,
      "##from his ": 7514,
      "## we have ": 7515,
      "##body, ": 7516,
      "##because they ": 7517,
      "##excell": 7518,
      "Go!": 7519,
      "##control.": 7520,
      "##truth": 7521,
      "When the ": 7522,
      "##hotel ": 7523,
      "##name's ": 7524,
      "##sty": 7525,
      "##used to": 7526,
      "##he is.": 7527,
      "##gold ": 7528,
      "##meant ": 7529,
      "##express": 7530,
      "##feed": 7531,
      "##him and ": 7532,
      "## trac": 7533,
      "Why did you ": 7534,
      "##crack": 7535,
      "##daughter ": 7536,
      "All the ": 7537,
      "##same.": 7538,
      "##sched": 7539,
      "##several ": 7540,
      "– ": 7541,
      "##UN": 7542,
      "##set.": 7543,
      "##sick.": 7544,
      "##nes": 7545,
      "##hunt": 7546,
      "##White ": 7547,
      "##LA": 7548,
      "##15": 7549,
      "##east ": 7550,
      "##elet": 7551,
      "##as an ": 7552,
      "## to their ": 7553,
      "##on her ": 7554,
      "##bol": 7555,
      "##from their ": 7556,
      "##... you ": 7557,
      "##orry.": 7558,
      "##clus": 7559,
      "##years, ": 7560,
      "This is my ": 7561,
      "##tim ": 7562,
      "##specif": 7563,
      "##counter": 7564,
      "##study ": 7565,
      "Anything ": 7566,
      "##doctor ": 7567,
      "##stupid.": 7568,
      "##Captain ": 7569,
      "##President ": 7570,
      "##finger": 7571,
      "Dav": 7572,
      "##vali": 7573,
      "##Em": 7574,
      "##Lad": 7575,
      "##, R": 7576,
      "##or's ": 7577,
      "##reward": 7578,
      "##lit ": 7579,
      "##hill": 7580,
      "##es in the ": 7581,
      "##spok": 7582,
      "##que ": 7583,
      "##saying?": 7584,
      "##ave you ": 7585,
      "##phet": 7586,
      "##server": 7587,
      "##mate.": 7588,
      "##morning ": 7589,
      "##hung": 7590,
      "##barely ": 7591,
      "##inside the ": 7592,
      "##. Every": 7593,
      "##trav": 7594,
      "##jam": 7595,
      "##Lau": 7596,
      "##* ": 7597,
      "##ones": 7598,
      "I know what ": 7599,
      "##plat": 7600,
      "What are you talking about?": 7601,
      "##so many ": 7602,
      "We must ": 7603,
      "##'s that?": 7604,
      "##, I am ": 7605,
      "##affect": 7606,
      "##out of your ": 7607,
      "##president ": 7608,
      "##descri": 7609,
      "##wanted ": 7610,
      "Thank you for ": 7611,
      "##answer.": 7612,
      "##. Plea": 7613,
      "##local ": 7614,
      "##pursu": 7615,
      "##apost": 7616,
      "##English ": 7617,
      "##position ": 7618,
      "Cal": 7619,
      "##nur": 7620,
      "- Go": 7621,
      "##forth ": 7622,
      "##on me.": 7623,
      "##do something ": 7624,
      "##all my ": 7625,
      "##ain.": 7626,
      "##know how to ": 7627,
      "##mine ": 7628,
      "##notice ": 7629,
      "##. I'm": 7630,
      "##grab ": 7631,
      "##intent": 7632,
      "##seriou": 7633,
      "##husband.": 7634,
      "##won't be ": 7635,
      "##guidance ": 7636,
      "##a lot of": 7637,
      "## towards ": 7638,
      "##establish": 7639,
      "Att": 7640,
      "##Hol": 7641,
      "##an to ": 7642,
      "##you get ": 7643,
      "##ed by": 7644,
      "##eless ": 7645,
      "##hist": 7646,
      "##ility ": 7647,
      "##sometim": 7648,
      "##such": 7649,
      "##guest": 7650,
      "It's okay": 7651,
      "##. I've ": 7652,
      "##having a ": 7653,
      "##bye, ": 7654,
      "##guys, ": 7655,
      "##strat": 7656,
      "##already.": 7657,
      "##free.": 7658,
      "##error ": 7659,
      "##hell.": 7660,
      "##Franc": 7661,
      "##ble?": 7662,
      "##. Thank you.": 7663,
      "##receive ": 7664,
      "##dinner.": 7665,
      "##fo": 7666,
      "##far.": 7667,
      "##In ": 7668,
      "## well": 7669,
      "##its.": 7670,
      "##ing you.": 7671,
      "## that this ": 7672,
      "##older": 7673,
      "What are ": 7674,
      "##to-": 7675,
      "##him a ": 7676,
      "##park": 7677,
      "##, we can ": 7678,
      "##girl?": 7679,
      "##money, ": 7680,
      "##keep the ": 7681,
      "##color ": 7682,
      "##one of your ": 7683,
      "##saved ": 7684,
      "##street.": 7685,
      "##consider ": 7686,
      "##scient": 7687,
      "##, though.": 7688,
      "##, he's ": 7689,
      "##unch": 7690,
      "You can": 7691,
      "##all over ": 7692,
      "##believe that ": 7693,
      "##myster": 7694,
      "##hurt.": 7695,
      "##you will be ": 7696,
      "##, we've ": 7697,
      "##s; ": 7698,
      "##R ": 7699,
      "##King": 7700,
      "##in there ": 7701,
      "##, for ": 7702,
      "## whom ": 7703,
      "##for them ": 7704,
      "##of an ": 7705,
      "##in A": 7706,
      "##es of the ": 7707,
      "##outside.": 7708,
      "##e. The ": 7709,
      "##ruin": 7710,
      "##dead, ": 7711,
      "What? ": 7712,
      "##ation is ": 7713,
      "##house, ": 7714,
      "##, two ": 7715,
      "##visit ": 7716,
      "##solv": 7717,
      "##let's go.": 7718,
      "## we'll ": 7719,
      "Here we ": 7720,
      "##floor.": 7721,
      "Br": 7722,
      "Bro": 7723,
      "Cop": 7724,
      "##too.": 7725,
      "##ork.": 7726,
      "##ing our ": 7727,
      "##er for ": 7728,
      "##us the ": 7729,
      "You'll be ": 7730,
      "##gold": 7731,
      "##roll ": 7732,
      "##imet": 7733,
      "##exic": 7734,
      "##did they ": 7735,
      "##card ": 7736,
      "##what is ": 7737,
      "##I was a ": 7738,
      "##every day.": 7739,
      "##confess": 7740,
      "##street ": 7741,
      "##nearly ": 7742,
      "##Hereaf": 7743,
      "Captain": 7744,
      "##credit ": 7745,
      "She": 7746,
      "##iness ": 7747,
      "##of this": 7748,
      "##sees ": 7749,
      "##seiz": 7750,
      "##for you?": 7751,
      "##one to ": 7752,
      "##guy, ": 7753,
      "##sight ": 7754,
      "- Well, ": 7755,
      "##before we ": 7756,
      "I don't know what ": 7757,
      "##aster": 7758,
      "##grew ": 7759,
      "##swear ": 7760,
      "##work?": 7761,
      "##odd": 7762,
      "##prison ": 7763,
      "##food.": 7764,
      "##cold.": 7765,
      "##mouth": 7766,
      "##deal with ": 7767,
      "##Princ": 7768,
      "##normal ": 7769,
      "##little w": 7770,
      "\"W": 7771,
      "Where's the ": 7772,
      "##Sou": 7773,
      "##ware ": 7774,
      "##whom": 7775,
      "##vent": 7776,
      "##ons ": 7777,
      "##refu": 7778,
      "##oop": 7779,
      "##here,": 7780,
      "##en and ": 7781,
      "##etic ": 7782,
      "##in love ": 7783,
      "##show.": 7784,
      "##all right, ": 7785,
      "##mann": 7786,
      "He didn't ": 7787,
      "##action": 7788,
      "##class ": 7789,
      "##heading ": 7790,
      "##everyone.": 7791,
      "## the tri": 7792,
      "##someone who ": 7793,
      "So, what ": 7794,
      "##interr": 7795,
      "## truly ": 7796,
      "Are you sure ": 7797,
      "##mom.": 7798,
      "##provide ": 7799,
      "##experim": 7800,
      "##music": 7801,
      "##viron": 7802,
      "Probably ": 7803,
      "Oh, my God": 7804,
      "Me": 7805,
      "Must ": 7806,
      "##dom ": 7807,
      "##Tok": 7808,
      "##stay.": 7809,
      "##ed with the ": 7810,
      "##meant to ": 7811,
      "##your hand": 7812,
      "##urb": 7813,
      "##do they ": 7814,
      "##can we ": 7815,
      "##anywhere ": 7816,
      "Well,": 7817,
      "##know what's ": 7818,
      "##ight?": 7819,
      "##mention ": 7820,
      "But, ": 7821,
      "##possibly ": 7822,
      "##lady ": 7823,
      "Here's ": 7824,
      "##curi": 7825,
      "##saw the ": 7826,
      "##hospital": 7827,
      "##money?": 7828,
      "Um, ": 7829,
      "##space ": 7830,
      "##apologiz": 7831,
      "Could you ": 7832,
      "Holy ": 7833,
      "Im": 7834,
      "##So ": 7835,
      "##s] ": 7836,
      "##rack": 7837,
      "##yri": 7838,
      "##Fl": 7839,
      "##inch": 7840,
      "##liber": 7841,
      "##I do ": 7842,
      "I do ": 7843,
      "##an I ": 7844,
      "##in B": 7845,
      "##like you.": 7846,
      "##you with": 7847,
      "##rule ": 7848,
      "##lying ": 7849,
      "My father ": 7850,
      "##believe.": 7851,
      "##climb": 7852,
      "They'll ": 7853,
      "##embarr": 7854,
      "##'em.": 7855,
      "##discuss": 7856,
      "##besides ": 7857,
      "##protocol": 7858,
      "##bre": 7859,
      "##too": 7860,
      "##?\"": 7861,
      "##iliz": 7862,
      "##xim": 7863,
      "##. Yeah, ": 7864,
      "##it! ": 7865,
      "##rich ": 7866,
      "##for me ": 7867,
      "##ex ": 7868,
      "##ndeed": 7869,
      "It was": 7870,
      "##ould've ": 7871,
      "## try and ": 7872,
      "- Hey": 7873,
      "Why do you ": 7874,
      "##device ": 7875,
      "##ax.": 7876,
      "##graph": 7877,
      "##Mrs. ": 7878,
      "##funny.": 7879,
      "##s. T": 7880,
      "##Phara": 7881,
      "##” ": 7882,
      "## the hell": 7883,
      "##is too ": 7884,
      "##eagu": 7885,
      "You could ": 7886,
      "##so I ": 7887,
      "##finding ": 7888,
      "##feat": 7889,
      "##go back to ": 7890,
      "##, but it ": 7891,
      "##back in ": 7892,
      "## truth": 7893,
      "##already": 7894,
      "##power.": 7895,
      "##e. Th": 7896,
      "##patient ": 7897,
      "##tried to ": 7898,
      "May I ": 7899,
      "##further ": 7900,
      "##e)": 7901,
      "##ege ": 7902,
      "##eat.": 7903,
      "##rab": 7904,
      "##vari": 7905,
      "##9 ": 7906,
      "## test ": 7907,
      "## thing?": 7908,
      "##liar": 7909,
      "##of us.": 7910,
      "##asshol": 7911,
      "##quer": 7912,
      "##did the ": 7913,
      "##aking ": 7914,
      "##sold ": 7915,
      "##killed": 7916,
      "##over there.": 7917,
      "##interest ": 7918,
      "##kill me.": 7919,
      "##plane ": 7920,
      "## there's no ": 7921,
      "##Lord of the ": 7922,
      "##Sim": 7923,
      "##s. H": 7924,
      "##war ": 7925,
      "##ired ": 7926,
      "##Look": 7927,
      "##for that.": 7928,
      "##box.": 7929,
      "##ill the ": 7930,
      "##people?": 7931,
      "##did it ": 7932,
      "##a tru": 7933,
      "##seek ": 7934,
      "##suspic": 7935,
      "##code ": 7936,
      "##picture ": 7937,
      "##knowledg": 7938,
      "##Japanese ": 7939,
      "##Day of Resurrect": 7940,
      "##asc": 7941,
      "## thee ": 7942,
      "##it a ": 7943,
      "##for an ": 7944,
      "##for him.": 7945,
      "##econ": 7946,
      "##out and ": 7947,
      "I'm afraid ": 7948,
      "##you won't ": 7949,
      "##so much.": 7950,
      "##, I know ": 7951,
      "##up in ": 7952,
      "##something w": 7953,
      "##disappoint": 7954,
      "##happening?": 7955,
      "##drun": 7956,
      "Why didn't ": 7957,
      "##case, ": 7958,
      "##away from the ": 7959,
      "##keeps ": 7960,
      "##race ": 7961,
      "##information.": 7962,
      "##fighting ": 7963,
      "##sun ": 7964,
      "I thought": 7965,
      "##e; ": 7966,
      "##lon": 7967,
      "##ime to ": 7968,
      "##Dep": 7969,
      "## tap": 7970,
      "##orph": 7971,
      "##station": 7972,
      "##need the ": 7973,
      "##here to": 7974,
      "##boat ": 7975,
      "What was ": 7976,
      "##feet.": 7977,
      "##off, ": 7978,
      "##names ": 7979,
      "##common ": 7980,
      "##when we ": 7981,
      "##count.": 7982,
      "## their w": 7983,
      "##rest of the ": 7984,
      "##quarter": 7985,
      "Fre": 7986,
      "My": 7987,
      "Oh.": 7988,
      "##Adam": 7989,
      "##Hel": 7990,
      "##8.": 7991,
      "##on to ": 7992,
      "##seek": 7993,
      "##die, ": 7994,
      "##ex-": 7995,
      "##manif": 7996,
      "##about it": 7997,
      "##um, ": 7998,
      "##careful.": 7999,
      "##did it.": 8000,
      "##by a ": 8001,
      "##button": 8002,
      "##engine": 8003,
      "##I've ever ": 8004,
      "##away from": 8005,
      "##letting ": 8006,
      "##extrem": 8007,
      "##character": 8008,
      "##I'm the ": 8009,
      "##one of them ": 8010,
      "##million": 8011,
      "##incredi": 8012,
      "##ederal ": 8013,
      "##Ser": 8014,
      "##nation": 8015,
      "##wake ": 8016,
      "##wish": 8017,
      "##i!": 8018,
      "##ior": 8019,
      "##var": 8020,
      "##ing] ": 8021,
      "##omen": 8022,
      "I had to ": 8023,
      "##rop ": 8024,
      "##doing, ": 8025,
      "It's my ": 8026,
      "##perhaps ": 8027,
      "##acting ": 8028,
      "##say: ": 8029,
      "##off?": 8030,
      "##firm ": 8031,
      "##love to ": 8032,
      "##a lot": 8033,
      "##, that was ": 8034,
      "##drop": 8035,
      "##process": 8036,
      "##of course ": 8037,
      "##hospital ": 8038,
      "John ": 8039,
      "##Prop": 8040,
      "## te": 8041,
      "##stick ": 8042,
      "##forbid": 8043,
      "##chann": 8044,
      "##e when": 8045,
      "##your father": 8046,
      "##see you": 8047,
      "##mean to ": 8048,
      "##how it ": 8049,
      "- This is ": 8050,
      "##other than ": 8051,
      "##, we have ": 8052,
      "##address ": 8053,
      "##Allah will ": 8054,
      "##actually.": 8055,
      "##sweet ": 8056,
      "Anyway": 8057,
      "##hearts ": 8058,
      "Beli": 8059,
      "Which is ": 8060,
      "##automat": 8061,
      "Frank": 8062,
      "##'.": 8063,
      "##eight": 8064,
      "##ct ": 8065,
      "##ertain": 8066,
      "##ish, ": 8067,
      "##er or ": 8068,
      "##assum": 8069,
      "You'd ": 8070,
      "##for me?": 8071,
      "##don ": 8072,
      "##like it.": 8073,
      "##outt": 8074,
      "##program ": 8075,
      "##fair ": 8076,
      "##has no ": 8077,
      "##cost": 8078,
      "##say \"": 8079,
      "##listen.": 8080,
      "##sort ": 8081,
      "Exact": 8082,
      "##seems to ": 8083,
      "##camp": 8084,
      "##explain ": 8085,
      "These are ": 8086,
      "##attack.": 8087,
      "##quiet": 8088,
      "##circum": 8089,
      "##selected ": 8090,
      "##a woman ": 8091,
      "##poison": 8092,
      "##victim ": 8093,
      "Hi.": 8094,
      "##fant": 8095,
      "##flight ": 8096,
      "##(O ": 8097,
      "##Mat": 8098,
      "##my brother": 8099,
      "##all I ": 8100,
      "##consul": 8101,
      "##cott": 8102,
      "##down?": 8103,
      "Oh, I ": 8104,
      "##very much.": 8105,
      "##good at ": 8106,
      "##fucking": 8107,
      "##a cop": 8108,
      "##fles": 8109,
      "##start.": 8110,
      "##way of ": 8111,
      "##Cont": 8112,
      "##thinks ": 8113,
      "##custod": 8114,
      "##idiot": 8115,
      "##cue ": 8116,
      "##ually ": 8117,
      "##wise ": 8118,
      "##Rep": 8119,
      "##14": 8120,
      "##Jew": 8121,
      "##er, and ": 8122,
      "##one. ": 8123,
      "##item": 8124,
      "I didn't": 8125,
      "##as they ": 8126,
      "##seat.": 8127,
      "##amin": 8128,
      "##raw": 8129,
      "##load ": 8130,
      "##ction.": 8131,
      "##grant": 8132,
      "##a way ": 8133,
      "## there is no ": 8134,
      "##a piec": 8135,
      "##able, ": 8136,
      "##yeah?": 8137,
      "##seem to ": 8138,
      "##. Go ": 8139,
      "## talking about ": 8140,
      "Hello.": 8141,
      "##bottom ": 8142,
      "##eautiful ": 8143,
      "Gener": 8144,
      "##Walk": 8145,
      "##(to ": 8146,
      "##Jack ": 8147,
      "##then": 8148,
      "##ay, ": 8149,
      "##en of ": 8150,
      "##I'm just ": 8151,
      "##! Come ": 8152,
      "##disput": 8153,
      "##. So": 8154,
      "You wanna ": 8155,
      "##ode ": 8156,
      "##loved ": 8157,
      "##feels ": 8158,
      "## when I ": 8159,
      "##interested in ": 8160,
      "##pain.": 8161,
      "##English.": 8162,
      "##examin": 8163,
      "##buddy.": 8164,
      "##obey ": 8165,
      "Juli": 8166,
      "Sel": 8167,
      "the ": 8168,
      "##swor": 8169,
      "##borr": 8170,
      "##ais": 8171,
      "##dream ": 8172,
      "##ip ": 8173,
      "##-w": 8174,
      "##add ": 8175,
      "##ley ": 8176,
      "##gust": 8177,
      "##angry ": 8178,
      "## this to ": 8179,
      "##delic": 8180,
      "##place, ": 8181,
      "##assass": 8182,
      "##son's ": 8183,
      "##makes me ": 8184,
      "##smart": 8185,
      "##trans": 8186,
      "Let's": 8187,
      "Trust ": 8188,
      "##video": 8189,
      "Save ": 8190,
      "Tell": 8191,
      "##ye.": 8192,
      "##dy ": 8193,
      "##Jas": 8194,
      "## thro": 8195,
      "##, man.": 8196,
      "##ing, and ": 8197,
      "##are, ": 8198,
      "##it to the ": 8199,
      "##ed an ": 8200,
      "##and he ": 8201,
      "##roy": 8202,
      "##hat?": 8203,
      "##... the ": 8204,
      "## that's the ": 8205,
      "##out that ": 8206,
      "##expos": 8207,
      "##ways ": 8208,
      "## with my ": 8209,
      "##, we are ": 8210,
      "Stand ": 8211,
      "##huge ": 8212,
      "You want": 8213,
      "##I don't know.": 8214,
      "##respond": 8215,
      "##New York ": 8216,
      "##a minute.": 8217,
      "Foll": 8218,
      "Great": 8219,
      "Hen": 8220,
      "##Sen": 8221,
      "##mos": 8222,
      "##Ham": 8223,
      "##Dar": 8224,
      "##, so": 8225,
      "##one!": 8226,
      "##it'll ": 8227,
      "##you might ": 8228,
      "##coming to ": 8229,
      "## this is the ": 8230,
      "##do you?": 8231,
      "##proof": 8232,
      "##I will": 8233,
      "##up your ": 8234,
      "##a sur": 8235,
      "##. I just ": 8236,
      "##mater": 8237,
      "##Mary ": 8238,
      "## trick": 8239,
      "##freed": 8240,
      "##ef.": 8241,
      "##who's ": 8242,
      "##moment.": 8243,
      "Here.": 8244,
      "You know, I ": 8245,
      "##hoso": 8246,
      "##fresh ": 8247,
      "##Prophe": 8248,
      "Back ": 8249,
      "Congratul": 8250,
      "##skill": 8251,
      "##bound": 8252,
      "##List": 8253,
      "##Ow": 8254,
      "##hast": 8255,
      "##remind ": 8256,
      "##ed us ": 8257,
      "##verse ": 8258,
      "##get my ": 8259,
      "##him the ": 8260,
      "##? -": 8261,
      "##month ": 8262,
      "How could ": 8263,
      "##ers of ": 8264,
      "##servic": 8265,
      "## we've ": 8266,
      "##you and your ": 8267,
      "##ndeed ": 8268,
      "##nine ": 8269,
      "##13": 8270,
      "##a B": 8271,
      "##stanc": 8272,
      "##begg": 8273,
      "##oth ": 8274,
      "##blu": 8275,
      "##cock": 8276,
      "##name, ": 8277,
      "##go and ": 8278,
      "##record ": 8279,
      "##surround": 8280,
      "##president": 8281,
      "##jok": 8282,
      "##respect ": 8283,
      "##expen": 8284,
      "##show you ": 8285,
      "##Indi": 8286,
      "##scared.": 8287,
      "##Carol": 8288,
      "There were ": 8289,
      "##hardly ": 8290,
      "What the fuck ": 8291,
      "I wasn't ": 8292,
      "##broken ": 8293,
      "##all the time.": 8294,
      "Hang ": 8295,
      "##phe": 8296,
      "##Ry": 8297,
      "##Gar": 8298,
      "##M.": 8299,
      "##is still ": 8300,
      "##at the t": 8301,
      "You and ": 8302,
      "##here for ": 8303,
      "##get back to ": 8304,
      "He doesn't ": 8305,
      "##. Take ": 8306,
      "##see your ": 8307,
      "##obb": 8308,
      "They will ": 8309,
      "##. Her": 8310,
      "##because you ": 8311,
      "##helping ": 8312,
      "##move!": 8313,
      "##play.": 8314,
      "## there's a ": 8315,
      "##away, ": 8316,
      "- Thank ": 8317,
      "##ndeed, ": 8318,
      "##spl": 8319,
      "##aid": 8320,
      "##i's ": 8321,
      "##m?": 8322,
      "##mbl": 8323,
      "##Yes": 8324,
      "##Luc": 8325,
      "##one-": 8326,
      "##also": 8327,
      "##know that.": 8328,
      "##are they": 8329,
      "##done?": 8330,
      "And it ": 8331,
      "##I'm a ": 8332,
      "What about the ": 8333,
      "##if she ": 8334,
      "##eyes": 8335,
      "##go home.": 8336,
      "##side of the ": 8337,
      "##, I'm not ": 8338,
      "##though ": 8339,
      "What happened to ": 8340,
      "##delet": 8341,
      "Try": 8342,
      "##ball ": 8343,
      "##cost ": 8344,
      "##where": 8345,
      "##fought ": 8346,
      "##,\"": 8347,
      "##Every": 8348,
      "##To": 8349,
      "##La": 8350,
      "## tal": 8351,
      "##eak ": 8352,
      "##rich": 8353,
      "##me for ": 8354,
      "##antic": 8355,
      "##if it's ": 8356,
      "But it's ": 8357,
      "##a bunch of ": 8358,
      "## tell us ": 8359,
      "##betray": 8360,
      "##actually": 8361,
      "##listen to me.": 8362,
      "##advant": 8363,
      "## toward": 8364,
      "-You ": 8365,
      "Mr ": 8366,
      "Tru": 8367,
      "##s! ": 8368,
      "##pound": 8369,
      "##wast": 8370,
      "##Nick": 8371,
      "##Dec": 8372,
      "##Detective ": 8373,
      "##Kor": 8374,
      "##ings, ": 8375,
      "##I need to ": 8376,
      "I should ": 8377,
      "## that which ": 8378,
      "##ally?": 8379,
      "You really ": 8380,
      "##e. We ": 8381,
      "##car?": 8382,
      "##coordin": 8383,
      "##heard of ": 8384,
      "Who?": 8385,
      "##evening.": 8386,
      "##install": 8387,
      "##confus": 8388,
      "##questions ": 8389,
      "##potent": 8390,
      "##Angel": 8391,
      "Bo": 8392,
      "Har": 8393,
      "##soft": 8394,
      "## - ": 8395,
      "##bes": 8396,
      "##ES": 8397,
      "##ons.": 8398,
      "##through ": 8399,
      "##of this.": 8400,
      "##me, and ": 8401,
      "##utter": 8402,
      "##like to": 8403,
      "##impossible.": 8404,
      "What you ": 8405,
      "##got?": 8406,
      "##please": 8407,
      "- She ": 8408,
      "##damag": 8409,
      "##foot ": 8410,
      "##. Please ": 8411,
      "##give me a ": 8412,
      "##empty ": 8413,
      "Thanks, ": 8414,
      "Thanks for ": 8415,
      "Try ": 8416,
      "##ible ": 8417,
      "##GH": 8418,
      "##er-": 8419,
      "## to make ": 8420,
      "##is there ": 8421,
      "##of her ": 8422,
      "##, was ": 8423,
      "##age of ": 8424,
      "##e. And ": 8425,
      "## time for ": 8426,
      "##pleasure ": 8427,
      "##please!": 8428,
      "##iew": 8429,
      "If they ": 8430,
      "##, and they ": 8431,
      "If you don't ": 8432,
      "I told you ": 8433,
      "##President": 8434,
      "Sure.": 8435,
      "Will": 8436,
      "##len": 8437,
      "##co ": 8438,
      "##Well": 8439,
      "##Ri": 8440,
      "##-year-": 8441,
      "## who's ": 8442,
      "##in M": 8443,
      "##negot": 8444,
      "##im.": 8445,
      "##get him ": 8446,
      "##, I got ": 8447,
      "##. What's ": 8448,
      "##crew": 8449,
      "##attor": 8450,
      "I don't know, ": 8451,
      "##just trying to ": 8452,
      "Yeah, well": 8453,
      "##He is the ": 8454,
      "##ies of ": 8455,
      "##lady.": 8456,
      "##bleed": 8457,
      "##evidenc": 8458,
      "##position.": 8459,
      "##guilty ": 8460,
      "##heard the ": 8461,
      "##beyond ": 8462,
      "##familiar": 8463,
      "##ma'am": 8464,
      "Another ": 8465,
      "Talk": 8466,
      "##rent": 8467,
      "##Whit": 8468,
      "##17": 8469,
      "##release ": 8470,
      "##itness ": 8471,
      "## to do ": 8472,
      "##edding ": 8473,
      "I hate ": 8474,
      "##s.\"": 8475,
      "##it from ": 8476,
      "##provis": 8477,
      "##fine, ": 8478,
      "##us and ": 8479,
      "##crew ": 8480,
      "##was that?": 8481,
      "##keep your ": 8482,
      "## turns ": 8483,
      "##music ": 8484,
      "##citiz": 8485,
      "##necessar": 8486,
      "##Muhammad ": 8487,
      "##Toky": 8488,
      "Bar": 8489,
      "##ures": 8490,
      "##wid": 8491,
      "##Park": 8492,
      "##ed for the ": 8493,
      "##ality ": 8494,
      "I feel ": 8495,
      "##ant, ": 8496,
      "##like it ": 8497,
      "##up for ": 8498,
      "##go back ": 8499,
      "##es, but ": 8500,
      "##should I ": 8501,
      "##okay? ": 8502,
      "##kill him.": 8503,
      "##difference ": 8504,
      "##subject": 8505,
      "##. No.": 8506,
      "##bird": 8507,
      "Cont": 8508,
      "##defend": 8509,
      "##ING)": 8510,
      "##laught": 8511,
      "##drug ": 8512,
      "##iously.": 8513,
      "Under": 8514,
      "##o'": 8515,
      "##Now": 8516,
      "##Pri": 8517,
      "##CK": 8518,
      "##you? ": 8519,
      "##eam ": 8520,
      "##using the ": 8521,
      "##or of ": 8522,
      "##ations": 8523,
      "##you wouldn't ": 8524,
      "We all ": 8525,
      "##, I can't ": 8526,
      "##happy to ": 8527,
      "##little.": 8528,
      "##never be ": 8529,
      "Well, it's ": 8530,
      "##a tra": 8531,
      "Shit.": 8532,
      "##behind.": 8533,
      "##taking ": 8534,
      "They've ": 8535,
      "Guess ": 8536,
      "## today?": 8537,
      "##SAW": 8538,
      "##difficult ": 8539,
      "Aw": 8540,
      "and": 8541,
      "##bar ": 8542,
      "##pig": 8543,
      "##Bur": 8544,
      "##Patri": 8545,
      "##-do": 8546,
      "##ine?": 8547,
      "##recomm": 8548,
      "##stom": 8549,
      "## this morning.": 8550,
      "##, and you ": 8551,
      "Well, the ": 8552,
      "- How": 8553,
      "##interview": 8554,
      "##I've been": 8555,
      "##good?": 8556,
      "##. But": 8557,
      "##sky ": 8558,
      "- I'm not ": 8559,
      "Accord": 8560,
      "(S": 8561,
      "Swe": 8562,
      "##Gra": 8563,
      "##Harr": 8564,
      "##, I'll ": 8565,
      "## what's ": 8566,
      "##all those ": 8567,
      "##ily, ": 8568,
      "##magn": 8569,
      "##in the morning.": 8570,
      "##spr": 8571,
      "##default ": 8572,
      "##about that?": 8573,
      "##about this.": 8574,
      "Hey ": 8575,
      "##even know ": 8576,
      "Come on ": 8577,
      "##country": 8578,
      "##effort": 8579,
      "##ike.": 8580,
      "##dropped ": 8581,
      "##iously": 8582,
      "##you'd be ": 8583,
      "## troubl": 8584,
      "## thinking about ": 8585,
      "##volunt": 8586,
      "##opportun": 8587,
      "\"The ": 8588,
      "Hav": 8589,
      "Mad": 8590,
      "Other": 8591,
      "##burn ": 8592,
      "##kick ": 8593,
      "##King ": 8594,
      "##anch": 8595,
      "##choc": 8596,
      "##secut": 8597,
      "##and t": 8598,
      "##get it": 8599,
      "##how I ": 8600,
      "##attract": 8601,
      "If it ": 8602,
      "##, two": 8603,
      "- Oh": 8604,
      "Do you have any ": 8605,
      "##anything about ": 8606,
      "##room?": 8607,
      "##son of ": 8608,
      "## they'll ": 8609,
      "##women ": 8610,
      "##speak to ": 8611,
      "##getting": 8612,
      "##heavy ": 8613,
      "##bility ": 8614,
      "##available ": 8615,
      "Remember": 8616,
      "Ret": 8617,
      "Sim": 8618,
      "##uh...": 8619,
      "##gas ": 8620,
      "##ies?": 8621,
      "##Very ": 8622,
      "##Kat": 8623,
      "##stead": 8624,
      "##is gonna ": 8625,
      "##be, ": 8626,
      "##an eye ": 8627,
      "##, while ": 8628,
      "##I'm sure ": 8629,
      "##coura": 8630,
      "##igar": 8631,
      "##come in ": 8632,
      "##. There ": 8633,
      "##he's a ": 8634,
      "##soli": 8635,
      "##mean.": 8636,
      "- And": 8637,
      "##ment, ": 8638,
      "##ures ": 8639,
      "##former ": 8640,
      "##occur": 8641,
      "##years ago": 8642,
      "##motherfuck": 8643,
      "##losing ": 8644,
      "##high-": 8645,
      "Excuse me, ": 8646,
      "##New York": 8647,
      "##House ": 8648,
      "##assume ": 8649,
      "##sand": 8650,
      "##p?": 8651,
      "##vel": 8652,
      "##Cas": 8653,
      "##has to be ": 8654,
      "## won't ": 8655,
      "##ating.": 8656,
      "##ed from the ": 8657,
      "##forth": 8658,
      "I gotta ": 8659,
      "##icide ": 8660,
      "## to?": 8661,
      "##ma.": 8662,
      "##here in ": 8663,
      "## with you.": 8664,
      "##. How": 8665,
      "##years": 8666,
      "##drown": 8667,
      "##a pain": 8668,
      "## world": 8669,
      "##rivate ": 8670,
      "##over here.": 8671,
      "##. Look": 8672,
      "##water": 8673,
      "##seconds.": 8674,
      "##animal": 8675,
      "##geni": 8676,
      "##Merciful.": 8677,
      "By the ": 8678,
      "Five ": 8679,
      "##din": 8680,
      "##!\"": 8681,
      "##Eli": 8682,
      "##Lan": 8683,
      "##en's ": 8684,
      "##environ": 8685,
      "##ometh": 8686,
      "##alone, ": 8687,
      "##hat's the ": 8688,
      "##diam": 8689,
      "Well, what ": 8690,
      "Okay?": 8691,
      "##but they ": 8692,
      "## think that ": 8693,
      "##into my ": 8694,
      "## too much ": 8695,
      "##night?": 8696,
      "##cops ": 8697,
      "##result ": 8698,
      "##Grace.": 8699,
      "##immediately.": 8700,
      "##military ": 8701,
      "##econom": 8702,
      "##extremely ": 8703,
      "Bu": 8704,
      "##Su": 8705,
      "##sad": 8706,
      "##bit.": 8707,
      "##ling.": 8708,
      "##weapon": 8709,
      "##mel": 8710,
      "##OL": 8711,
      "##one with ": 8712,
      "## the other ": 8713,
      "##a was ": 8714,
      "##you do.": 8715,
      "##for them.": 8716,
      "##of your": 8717,
      "##hether": 8718,
      "##spell": 8719,
      "##! Get ": 8720,
      "##it's just ": 8721,
      "But he ": 8722,
      "##dead?": 8723,
      "##things.": 8724,
      "##. Are you ": 8725,
      "##please. ": 8726,
      "## telling me ": 8727,
      "##prison.": 8728,
      "##ER ": 8729,
      "##setting ": 8730,
      "##weren't ": 8731,
      "##non-": 8732,
      "-T": 8733,
      "##e) ": 8734,
      "##rent ": 8735,
      "##fill ": 8736,
      "##Pl": 8737,
      "##Des": 8738,
      "##arit": 8739,
      "##remov": 8740,
      "##station ": 8741,
      "##ates": 8742,
      "- Your ": 8743,
      "I cannot ": 8744,
      "##conven": 8745,
      "##old, ": 8746,
      "##get out of here.": 8747,
      "##quit": 8748,
      "##perform": 8749,
      "##umn": 8750,
      "I wanna ": 8751,
      "## think about ": 8752,
      "##ion and ": 8753,
      "## tire": 8754,
      "##attend": 8755,
      "##serious ": 8756,
      "##course ": 8757,
      "##prior": 8758,
      "##makes you ": 8759,
      "##driver": 8760,
      "##woman": 8761,
      "##water.": 8762,
      "Of course.": 8763,
      "##folder": 8764,
      "##parents.": 8765,
      "##pretend": 8766,
      "##chocol": 8767,
      "Des": 8768,
      "I...": 8769,
[...]
