{
  "version": "1.0",
  "truncation": null,
  "padding": null,
  "added_tokens": [
    {
      "id": 0,
      "content": "[UNK]",
      "single_word": false,
      "lstrip": false,
      "rstrip": false,
      "normalized": false,
      "special": true
    },
    {
      "id": 1,
      "content": "[PAD]",
      "single_word": false,
      "lstrip": false,
      "rstrip": false,
      "normalized": false,
      "special": true
    },
    {
      "id": 2,
      "content": "[SOS]",
      "single_word": false,
      "lstrip": false,
      "rstrip": false,
      "normalized": false,
      "special": true
    },
    {
      "id": 3,
      "content": "[EOS]",
      "single_word": false,
      "lstrip": false,
      "rstrip": false,
      "normalized": false,
      "special": true
    }
  ],
  "normalizer": null,
  "pre_tokenizer": null,
  "post_processor": null,
  "decoder": null,
  "model": {
    "type": "WordPiece",
    "unk_token": "[UNK]",
    "continuing_subword_prefix": "##",
    "max_input_chars_per_word": 100,
    "vocab": {
      "[UNK]": 0,
      "[PAD]": 1,
      "[SOS]": 2,
      "[EOS]": 3,
      " ": 4,
      "!": 5,
      "\"": 6,
      "#": 7,
      "$": 8,
      "%": 9,
      "&": 10,
      "'": 11,
      "(": 12,
      ")": 13,
      "*": 14,
      "+": 15,
      ",": 16,
      "-": 17,
      ".": 18,
      "/": 19,
      "0": 20,
      "1": 21,
      "2": 22,
      "3": 23,
      "4": 24,
      "5": 25,
      "6": 26,
      "7": 27,
      "8": 28,
      "9": 29,
      ":": 30,
      ";": 31,
      "<": 32,
      "=": 33,
      ">": 34,
      "?": 35,
      "@": 36,
      "A": 37,
      "B": 38,
      "C": 39,
      "D": 40,
      "E": 41,
      "F": 42,
      "G": 43,
      "H": 44,
      "I": 45,
      "J": 46,
      "K": 47,
      "L": 48,
      "M": 49,
      "N": 50,
      "O": 51,
      "P": 52,
      "Q": 53,
      "R": 54,
      "S": 55,
      "T": 56,
      "U": 57,
      "V": 58,
      "W": 59,
      "X": 60,
      "Y": 61,
      "Z": 62,
      "[": 63,
      "\\": 64,
      "]": 65,
      "^": 66,
      "_": 67,
      "`": 68,
      "a": 69,
      "b": 70,
      "c": 71,
      "d": 72,
      "e": 73,
      "f": 74,
      "g": 75,
      "h": 76,
      "i": 77,
      "j": 78,
      "k": 79,
      "l": 80,
      "m": 81,
      "n": 82,
      "o": 83,
      "p": 84,
      "q": 85,
      "r": 86,
      "s": 87,
      "t": 88,
      "u": 89,
      "v": 90,
      "w": 91,
      "x": 92,
      "y": 93,
      "z": 94,
      "{": 95,
      "}": 96,
      "~": 97,
      "": 98,
      " ": 99,
      "¡": 100,
      "¢": 101,
      "¤": 102,
      "¥": 103,
      "¨": 104,
      "©": 105,
      "®": 106,
      "¯": 107,
      "°": 108,
      "±": 109,
      "²": 110,
      "³": 111,
      "´": 112,
      "µ": 113,
      "¶": 114,
      "·": 115,
      "¼": 116,
      "½": 117,
      "Ä": 118,
      "Å": 119,
      "È": 120,
      "É": 121,
      "Ì": 122,
      "Ï": 123,
      "Õ": 124,
      "×": 125,
      "Ú": 126,
      "Ý": 127,
      "ß": 128,
      "á": 129,
      "ã": 130,
      "ä": 131,
      "ç": 132,
      "è": 133,
      "é": 134,
      "ê": 135,
      "í": 136,
      "ï": 137,
      "ñ": 138,
      "ó": 139,
      "ô": 140,
      "õ": 141,
      "ö": 142,
      "÷": 143,
      "ü": 144,
      "Ā": 145,
      "ā": 146,
      "Ă": 147,
      "ă": 148,
      "č": 149,
      "ł": 150,
      "ň": 151,
      "Ř": 152,
      "ş": 153,
      "š": 154,
      "α": 155,
      "β": 156,
      "γ": 157,
      "θ": 158,
      "λ": 159,
      "μ": 160,
      "ν": 161,
      "ο": 162,
      "π": 163,
      "ρ": 164,
      "φ": 165,
      "ψ": 166,
      "Д": 167,
      "​": 168,
      "‐": 169,
      "–": 170,
      "—": 171,
      "―": 172,
      "‘": 173,
      "’": 174,
      "“": 175,
      "”": 176,
      "†": 177,
      "•": 178,
      "…": 179,
      "′": 180,
      "″": 181,
      "※": 182,
      "⁠": 183,
      "₂": 184,
      "₣": 185,
      "€": 186,
      "℃": 187,
      "№": 188,
      "⅔": 189,
      "Ⅱ": 190,
      "Ⅳ": 191,
      "Ⅹ": 192,
      "↑": 193,
      "→": 194,
      "↓": 195,
      "∀": 196,
      "−": 197,
      "∕": 198,
      "∞": 199,
      "∣": 200,
      "∨": 201,
      "≒": 202,
      "≪": 203,
      "≫": 204,
      "⌊": 205,
      "⌋": 206,
      "②": 207,
      "⑩": 208,
      "─": 209,
      "━": 210,
      "■": 211,
      "□": 212,
      "△": 213,
      "▼": 214,
      "◆": 215,
      "◇": 216,
      "○": 217,
      "◎": 218,
      "●": 219,
      "★": 220,
      "☆": 221,
      "☎": 222,
      "♀": 223,
      "♂": 224,
      "♪": 225,
      "♭": 226,
      "♯": 227,
      "➡": 228,
      "　": 229,
      "、": 230,
      "。": 231,
      "々": 232,
      "〆": 233,
      "〇": 234,
      "〈": 235,
      "〉": 236,
      "《": 237,
      "》": 238,
      "「": 239,
      "」": 240,
      "『": 241,
      "』": 242,
      "【": 243,
      "】": 244,
      "〒": 245,
      "〓": 246,
      "〔": 247,
      "〕": 248,
      "〜": 249,
      "〝": 250,
      "〞": 251,
      "〟": 252,
      "〻": 253,
      "ぁ": 254,
      "あ": 255,
      "ぃ": 256,
      "い": 257,
      "ぅ": 258,
      "う": 259,
      "ぇ": 260,
      "え": 261,
      "ぉ": 262,
      "お": 263,
      "か": 264,
      "が": 265,
      "き": 266,
      "ぎ": 267,
      "く": 268,
      "ぐ": 269,
      "け": 270,
      "げ": 271,
      "こ": 272,
      "ご": 273,
      "さ": 274,
      "ざ": 275,
      "し": 276,
      "じ": 277,
      "す": 278,
      "ず": 279,
      "せ": 280,
      "ぜ": 281,
      "そ": 282,
      "ぞ": 283,
      "た": 284,
      "だ": 285,
      "ち": 286,
      "ぢ": 287,
      "っ": 288,
      "つ": 289,
      "づ": 290,
      "て": 291,
      "で": 292,
      "と": 293,
      "ど": 294,
      "な": 295,
      "に": 296,
      "ぬ": 297,
      "ね": 298,
      "の": 299,
      "は": 300,
      "ば": 301,
      "ぱ": 302,
      "ひ": 303,
      "び": 304,
      "ぴ": 305,
      "ふ": 306,
      "ぶ": 307,
      "ぷ": 308,
      "へ": 309,
      "べ": 310,
      "ぺ": 311,
      "ほ": 312,
      "ぼ": 313,
      "ぽ": 314,
      "ま": 315,
      "み": 316,
      "む": 317,
      "め": 318,
      "も": 319,
      "ゃ": 320,
      "や": 321,
      "ゅ": 322,
      "ゆ": 323,
      "ょ": 324,
      "よ": 325,
      "ら": 326,
      "り": 327,
      "る": 328,
      "れ": 329,
      "ろ": 330,
      "ゎ": 331,
      "わ": 332,
      "ゐ": 333,
      "ゑ": 334,
      "を": 335,
      "ん": 336,
      "゚": 337,
      "゛": 338,
      "ゝ": 339,
      "ゞ": 340,
      "ァ": 341,
      "ア": 342,
      "ィ": 343,
      "イ": 344,
      "ゥ": 345,
      "ウ": 346,
      "ェ": 347,
      "エ": 348,
      "ォ": 349,
      "オ": 350,
      "カ": 351,
      "ガ": 352,
      "キ": 353,
      "ギ": 354,
      "ク": 355,
      "グ": 356,
      "ケ": 357,
      "ゲ": 358,
      "コ": 359,
      "ゴ": 360,
      "サ": 361,
      "ザ": 362,
      "シ": 363,
      "ジ": 364,
      "ス": 365,
      "ズ": 366,
      "セ": 367,
      "ゼ": 368,
      "ソ": 369,
      "ゾ": 370,
      "タ": 371,
      "ダ": 372,
      "チ": 373,
      "ヂ": 374,
      "ッ": 375,
      "ツ": 376,
      "ヅ": 377,
      "テ": 378,
      "デ": 379,
      "ト": 380,
      "ド": 381,
      "ナ": 382,
      "ニ": 383,
      "ヌ": 384,
      "ネ": 385,
      "ノ": 386,
      "ハ": 387,
      "バ": 388,
      "パ": 389,
      "ヒ": 390,
      "ビ": 391,
      "ピ": 392,
      "フ": 393,
      "ブ": 394,
      "プ": 395,
      "ヘ": 396,
      "ベ": 397,
      "ペ": 398,
      "ホ": 399,
      "ボ": 400,
      "ポ": 401,
      "マ": 402,
      "ミ": 403,
      "ム": 404,
      "メ": 405,
      "モ": 406,
      "ャ": 407,
      "ヤ": 408,
      "ュ": 409,
      "ユ": 410,
      "ョ": 411,
      "ヨ": 412,
      "ラ": 413,
      "リ": 414,
      "ル": 415,
      "レ": 416,
      "ロ": 417,
      "ヮ": 418,
      "ワ": 419,
      "ヱ": 420,
      "ヲ": 421,
      "ン": 422,
      "ヴ": 423,
      "ヵ": 424,
      "ヶ": 425,
      "・": 426,
      "ー": 427,
      "ヾ": 428,
      "ㄣ": 429,
      "㌘": 430,
      "㌢": 431,
      "㌦": 432,
      "㍉": 433,
      "㎎": 434,
      "㎏": 435,
      "㎝": 436,
      "㎞": 437,
      "㎡": 438,
      "一": 439,
      "丁": 440,
      "七": 441,
      "万": 442,
      "丈": 443,
      "三": 444,
      "上": 445,
      "下": 446,
      "不": 447,
      "与": 448,
      "且": 449,
      "世": 450,
      "丘": 451,
      "业": 452,
      "両": 453,
      "並": 454,
      "中": 455,
      "串": 456,
      "丶": 457,
      "丸": 458,
      "丹": 459,
      "为": 460,
      "主": 461,
      "丼": 462,
      "丿": 463,
      "乃": 464,
      "久": 465,
      "么": 466,
      "之": 467,
      "乍": 468,
      "乎": 469,
      "乏": 470,
      "乖": 471,
      "乗": 472,
      "乙": 473,
      "九": 474,
      "乞": 475,
      "也": 476,
      "习": 477,
      "乱": 478,
      "乳": 479,
      "乾": 480,
      "亀": 481,
      "了": 482,
      "予": 483,
      "争": 484,
      "事": 485,
      "二": 486,
      "于": 487,
      "云": 488,
      "互": 489,
      "五": 490,
      "井": 491,
      "亘": 492,
      "些": 493,
      "亜": 494,
      "亡": 495,
      "交": 496,
      "亥": 497,
      "享": 498,
      "京": 499,
      "亭": 500,
      "亮": 501,
      "人": 502,
      "什": 503,
      "仁": 504,
      "仄": 505,
      "仅": 506,
      "仇": 507,
      "今": 508,
      "介": 509,
      "从": 510,
      "仏": 511,
      "仔": 512,
      "仕": 513,
      "他": 514,
      "仗": 515,
      "付": 516,
      "仙": 517,
      "代": 518,
      "令": 519,
      "以": 520,
      "仮": 521,
      "仰": 522,
      "仲": 523,
      "件": 524,
      "任": 525,
      "企": 526,
      "伊": 527,
      "伍": 528,
      "伎": 529,
      "伏": 530,
      "伐": 531,
      "休": 532,
      "会": 533,
      "伝": 534,
      "伯": 535,
      "伴": 536,
      "伸": 537,
      "伺": 538,
      "似": 539,
      "伽": 540,
      "佃": 541,
      "但": 542,
      "佇": 543,
      "位": 544,
      "低": 545,
      "住": 546,
      "佐": 547,
      "佑": 548,
      "体": 549,
      "何": 550,
      "余": 551,
      "佛": 552,
      "作": 553,
      "你": 554,
      "佩": 555,
      "佳": 556,
      "併": 557,
      "使": 558,
      "來": 559,
      "例": 560,
      "侍": 561,
      "侘": 562,
      "供": 563,
      "依": 564,
      "価": 565,
      "侭": 566,
      "侮": 567,
      "侯": 568,
      "侵": 569,
      "侶": 570,
      "便": 571,
      "係": 572,
      "促": 573,
      "俄": 574,
      "俊": 575,
      "俗": 576,
      "保": 577,
      "信": 578,
      "修": 579,
      "俯": 580,
      "俳": 581,
      "俵": 582,
      "俸": 583,
      "俺": 584,
      "倉": 585,
      "個": 586,
      "倍": 587,
      "們": 588,
      "倒": 589,
      "候": 590,
      "借": 591,
      "倣": 592,
      "値": 593,
      "倦": 594,
      "倫": 595,
      "倶": 596,
      "倹": 597,
      "值": 598,
      "假": 599,
      "偉": 600,
      "偏": 601,
      "做": 602,
      "停": 603,
      "健": 604,
      "偲": 605,
      "側": 606,
      "偵": 607,
      "偶": 608,
      "偷": 609,
      "偽": 610,
      "傅": 611,
      "傍": 612,
      "傑": 613,
      "傘": 614,
      "備": 615,
      "催": 616,
      "傭": 617,
      "傲": 618,
      "傳": 619,
      "債": 620,
      "傷": 621,
      "傾": 622,
      "僅": 623,
      "働": 624,
      "像": 625,
      "僕": 626,
      "僚": 627,
      "僧": 628,
      "僭": 629,
      "僻": 630,
      "儀": 631,
      "儂": 632,
      "億": 633,
      "儘": 634,
      "儚": 635,
      "償": 636,
      "優": 637,
      "儲": 638,
      "允": 639,
      "元": 640,
      "兄": 641,
      "充": 642,
      "兆": 643,
      "兇": 644,
      "先": 645,
      "光": 646,
      "克": 647,
      "兌": 648,
      "免": 649,
      "兎": 650,
      "児": 651,
      "党": 652,
      "兜": 653,
      "入": 654,
      "內": 655,
      "全": 656,
      "八": 657,
      "公": 658,
      "六": 659,
      "共": 660,
      "兵": 661,
      "其": 662,
      "具": 663,
      "典": 664,
      "兼": 665,
      "冀": 666,
      "内": 667,
      "円": 668,
      "冊": 669,
      "再": 670,
      "冑": 671,
      "冒": 672,
      "冗": 673,
      "写": 674,
      "冠": 675,
      "冤": 676,
      "冥": 677,
      "冨": 678,
      "冬": 679,
      "冲": 680,
      "冴": 681,
      "冶": 682,
      "冷": 683,
      "凄": 684,
      "准": 685,
      "凋": 686,
      "凌": 687,
      "凍": 688,
      "凛": 689,
      "凜": 690,
      "凝": 691,
      "几": 692,
      "凡": 693,
      "処": 694,
      "凧": 695,
      "凪": 696,
      "凭": 697,
      "凱": 698,
      "凵": 699,
      "凶": 700,
      "凸": 701,
      "凹": 702,
      "出": 703,
      "函": 704,
      "刀": 705,
      "刃": 706,
      "分": 707,
      "切": 708,
      "刈": 709,
      "刊": 710,
      "刎": 711,
      "刑": 712,
      "列": 713,
      "刚": 714,
      "初": 715,
      "判": 716,
      "別": 717,
      "利": 718,
      "到": 719,
      "制": 720,
      "刷": 721,
      "券": 722,
      "刹": 723,
      "刺": 724,
      "刻": 725,
      "剃": 726,
      "則": 727,
      "削": 728,
      "剌": 729,
      "前": 730,
      "剖": 731,
      "剛": 732,
      "剣": 733,
      "剤": 734,
      "剥": 735,
      "剪": 736,
      "副": 737,
      "剰": 738,
      "割": 739,
      "創": 740,
      "劇": 741,
      "劉": 742,
      "力": 743,
      "功": 744,
      "加": 745,
      "劣": 746,
      "助": 747,
      "努": 748,
      "劫": 749,
      "励": 750,
      "労": 751,
      "効": 752,
      "劾": 753,
      "勃": 754,
      "勅": 755,
      "勇": 756,
      "勉": 757,
      "勒": 758,
      "動": 759,
      "勘": 760,
      "務": 761,
      "勝": 762,
      "募": 763,
      "勢": 764,
      "勤": 765,
      "勧": 766,
      "勲": 767,
      "勾": 768,
      "勿": 769,
      "匂": 770,
      "包": 771,
      "化": 772,
      "北": 773,
      "匙": 774,
      "匠": 775,
      "匡": 776,
      "匹": 777,
      "区": 778,
      "医": 779,
      "匿": 780,
      "十": 781,
      "千": 782,
      "午": 783,
      "半": 784,
      "卍": 785,
      "卑": 786,
      "卒": 787,
      "卓": 788,
      "協": 789,
      "南": 790,
      "単": 791,
      "博": 792,
      "卜": 793,
      "占": 794,
      "印": 795,
      "危": 796,
      "即": 797,
      "却": 798,
      "卵": 799,
      "卷": 800,
      "卸": 801,
      "卻": 802,
      "卿": 803,
      "厂": 804,
      "厄": 805,
      "厘": 806,
      "厚": 807,
      "原": 808,
      "厦": 809,
      "厨": 810,
      "厩": 811,
      "厭": 812,
      "厳": 813,
      "去": 814,
      "参": 815,
      "又": 816,
      "叉": 817,
      "及": 818,
      "友": 819,
      "双": 820,
      "反": 821,
      "収": 822,
      "叔": 823,
      "取": 824,
      "受": 825,
      "叙": 826,
      "叛": 827,
      "叡": 828,
      "口": 829,
      "古": 830,
      "句": 831,
      "叩": 832,
      "只": 833,
      "叫": 834,
      "召": 835,
      "可": 836,
      "台": 837,
      "叱": 838,
      "史": 839,
      "右": 840,
      "叶": 841,
      "号": 842,
      "司": 843,
      "吃": 844,
      "各": 845,
      "合": 846,
      "吉": 847,
      "吊": 848,
      "同": 849,
      "名": 850,
      "后": 851,
      "吏": 852,
      "吐": 853,
      "向": 854,
      "君": 855,
      "吝": 856,
      "吞": 857,
      "吟": 858,
      "吠": 859,
      "否": 860,
      "吧": 861,
      "含": 862,
      "吸": 863,
      "吹": 864,
      "吻": 865,
      "吼": 866,
      "吾": 867,
      "呂": 868,
      "呆": 869,
      "呈": 870,
      "呉": 871,
      "告": 872,
      "呎": 873,
      "呑": 874,
      "呟": 875,
      "周": 876,
      "呪": 877,
      "味": 878,
      "呵": 879,
      "呻": 880,
      "呼": 881,
      "命": 882,
      "咀": 883,
      "咄": 884,
      "咆": 885,
      "和": 886,
      "咎": 887,
      "咤": 888,
      "咥": 889,
      "咬": 890,
      "咲": 891,
      "咳": 892,
      "咸": 893,
      "咽": 894,
      "哀": 895,
      "品": 896,
      "哉": 897,
      "員": 898,
      "哨": 899,
      "哭": 900,
      "哮": 901,
      "哲": 902,
      "哺": 903,
      "唄": 904,
      "唆": 905,
      "唇": 906,
      "唐": 907,
      "唖": 908,
      "唤": 909,
      "唯": 910,
      "唱": 911,
      "唸": 912,
      "唾": 913,
      "啄": 914,
      "商": 915,
      "啊": 916,
      "問": 917,
      "啓": 918,
      "啖": 919,
      "啜": 920,
      "啼": 921,
      "啾": 922,
      "喂": 923,
      "喃": 924,
      "善": 925,
      "喉": 926,
      "喋": 927,
      "喘": 928,
      "喚": 929,
      "喜": 930,
      "喝": 931,
      "喧": 932,
      "喨": 933,
      "喩": 934,
      "喪": 935,
      "喫": 936,
      "喬": 937,
      "單": 938,
      "喰": 939,
      "営": 940,
      "嗅": 941,
      "嗇": 942,
      "嗎": 943,
      "嗜": 944,
      "嗟": 945,
      "嗣": 946,
      "嗽": 947,
      "嗾": 948,
      "嘆": 949,
      "嘉": 950,
      "嘔": 951,
      "嘘": 952,
      "嘩": 953,
      "嘱": 954,
      "嘲": 955,
      "嘴": 956,
      "噂": 957,
      "噌": 958,
      "噓": 959,
      "噛": 960,
      "噤": 961,
      "器": 962,
      "噴": 963,
      "噺": 964,
      "嚇": 965,
      "嚢": 966,
      "嚼": 967,
      "囀": 968,
      "囁": 969,
      "囓": 970,
      "囗": 971,
      "囚": 972,
      "四": 973,
      "回": 974,
      "因": 975,
      "団": 976,
      "囮": 977,
      "困": 978,
      "囲": 979,
      "図": 980,
      "固": 981,
      "国": 982,
      "國": 983,
      "圏": 984,
      "園": 985,
      "圖": 986,
      "團": 987,
      "土": 988,
      "圧": 989,
      "在": 990,
      "圭": 991,
      "地": 992,
      "坂": 993,
      "均": 994,
      "坊": 995,
      "坏": 996,
      "坐": 997,
      "坑": 998,
      "坦": 999,
      "坩": 1000,
      "坪": 1001,
      "垂": 1002,
      "型": 1003,
      "垢": 1004,
      "垣": 1005,
      "埃": 1006,
      "埋": 1007,
      "城": 1008,
      "埒": 1009,
      "埓": 1010,
      "域": 1011,
      "埠": 1012,
      "執": 1013,
      "培": 1014,
      "基": 1015,
      "埼": 1016,
      "堀": 1017,
      "堂": 1018,
      "堅": 1019,
      "堆": 1020,
      "堕": 1021,
      "堝": 1022,
      "堤": 1023,
      "堪": 1024,
      "堰": 1025,
      "報": 1026,
      "場": 1027,
      "堵": 1028,
      "塀": 1029,
      "塁": 1030,
      "塊": 1031,
      "塑": 1032,
      "塔": 1033,
      "塗": 1034,
      "塚": 1035,
      "塞": 1036,
      "塩": 1037,
      "填": 1038,
      "塵": 1039,
      "塹": 1040,
      "塾": 1041,
      "境": 1042,
      "墓": 1043,
      "増": 1044,
      "墜": 1045,
      "墟": 1046,
      "墨": 1047,
      "墮": 1048,
      "墳": 1049,
      "壁": 1050,
      "壇": 1051,
      "壊": 1052,
      "壌": 1053,
      "壕": 1054,
      "壜": 1055,
      "壞": 1056,
      "士": 1057,
      "壮": 1058,
      "壯": 1059,
      "声": 1060,
      "売": 1061,
      "壷": 1062,
      "壺": 1063,
      "変": 1064,
      "夏": 1065,
      "夕": 1066,
      "外": 1067,
      "多": 1068,
      "夜": 1069,
      "夢": 1070,
      "夥": 1071,
      "大": 1072,
      "天": 1073,
      "太": 1074,
      "夫": 1075,
      "央": 1076,
      "失": 1077,
      "夷": 1078,
      "奄": 1079,
      "奇": 1080,
      "奈": 1081,
      "奉": 1082,
      "奏": 1083,
      "契": 1084,
      "奔": 1085,
      "套": 1086,
      "奢": 1087,
      "奥": 1088,
      "奨": 1089,
      "奪": 1090,
      "奮": 1091,
      "女": 1092,
      "奴": 1093,
      "她": 1094,
      "好": 1095,
      "如": 1096,
      "妃": 1097,
      "妄": 1098,
      "妊": 1099,
      "妓": 1100,
      "妖": 1101,
      "妙": 1102,
      "妥": 1103,
      "妨": 1104,
      "妬": 1105,
      "妹": 1106,
      "妻": 1107,
      "妾": 1108,
      "姉": 1109,
      "始": 1110,
      "姐": 1111,
      "姑": 1112,
      "姓": 1113,
      "委": 1114,
      "姜": 1115,
      "姥": 1116,
      "姦": 1117,
      "姪": 1118,
      "姫": 1119,
      "姬": 1120,
      "姻": 1121,
      "姿": 1122,
      "威": 1123,
      "娑": 1124,
      "娘": 1125,
      "娠": 1126,
      "娩": 1127,
      "娯": 1128,
      "娶": 1129,
      "娼": 1130,
      "婁": 1131,
      "婆": 1132,
      "婉": 1133,
      "婚": 1134,
      "婦": 1135,
      "婬": 1136,
      "婿": 1137,
      "媒": 1138,
      "媚": 1139,
      "嫁": 1140,
      "嫉": 1141,
      "嫌": 1142,
      "嫡": 1143,
      "嬉": 1144,
      "嬌": 1145,
      "嬢": 1146,
      "嬰": 1147,
      "孃": 1148,
      "子": 1149,
      "孔": 1150,
      "孕": 1151,
      "字": 1152,
      "存": 1153,
      "孝": 1154,
      "孟": 1155,
      "季": 1156,
      "孤": 1157,
      "学": 1158,
      "孩": 1159,
      "孫": 1160,
      "孵": 1161,
      "學": 1162,
      "宅": 1163,
      "宇": 1164,
      "守": 1165,
      "安": 1166,
      "完": 1167,
      "宏": 1168,
      "宕": 1169,
      "宗": 1170,
      "官": 1171,
      "宙": 1172,
      "定": 1173,
      "宛": 1174,
      "宜": 1175,
      "宝": 1176,
      "実": 1177,
      "客": 1178,
      "宣": 1179,
      "室": 1180,
      "宥": 1181,
      "宦": 1182,
      "宮": 1183,
      "宰": 1184,
      "害": 1185,
      "宴": 1186,
      "宵": 1187,
      "家": 1188,
      "容": 1189,
      "宿": 1190,
      "寂": 1191,
      "寄": 1192,
      "寅": 1193,
      "密": 1194,
      "富": 1195,
      "寐": 1196,
      "寒": 1197,
      "寓": 1198,
      "寛": 1199,
      "寝": 1200,
      "察": 1201,
      "寡": 1202,
      "實": 1203,
      "寧": 1204,
      "寨": 1205,
      "審": 1206,
      "寮": 1207,
      "寵": 1208,
      "寶": 1209,
      "寸": 1210,
      "寺": 1211,
      "対": 1212,
      "寿": 1213,
      "封": 1214,
      "専": 1215,
      "射": 1216,
      "将": 1217,
      "將": 1218,
      "尉": 1219,
      "尊": 1220,
      "尋": 1221,
      "對": 1222,
      "導": 1223,
      "小": 1224,
      "少": 1225,
      "尖": 1226,
      "尚": 1227,
      "尤": 1228,
      "就": 1229,
      "尸": 1230,
      "尺": 1231,
      "尻": 1232,
      "尼": 1233,
      "尽": 1234,
      "尾": 1235,
      "尿": 1236,
      "局": 1237,
      "屁": 1238,
      "居": 1239,
      "屈": 1240,
      "届": 1241,
      "屋": 1242,
      "屍": 1243,
      "屎": 1244,
      "屏": 1245,
      "屑": 1246,
      "屓": 1247,
      "展": 1248,
      "属": 1249,
      "屠": 1250,
      "層": 1251,
      "履": 1252,
      "屯": 1253,
      "山": 1254,
      "岐": 1255,
      "岡": 1256,
      "岩": 1257,
      "岬": 1258,
      "岳": 1259,
      "岸": 1260,
      "峙": 1261,
      "峠": 1262,
      "峡": 1263,
      "峰": 1264,
      "島": 1265,
      "峻": 1266,
      "峽": 1267,
      "崇": 1268,
      "崎": 1269,
      "崑": 1270,
      "崖": 1271,
      "崗": 1272,
      "崩": 1273,
      "嵌": 1274,
      "嵐": 1275,
      "嶋": 1276,
      "嶺": 1277,
      "川": 1278,
      "州": 1279,
      "巡": 1280,
      "巣": 1281,
      "工": 1282,
      "左": 1283,
      "巧": 1284,
      "巨": 1285,
      "差": 1286,
      "己": 1287,
      "已": 1288,
      "巳": 1289,
      "巴": 1290,
      "巷": 1291,
      "巻": 1292,
      "巾": 1293,
      "市": 1294,
      "布": 1295,
      "帆": 1296,
      "希": 1297,
      "帝": 1298,
      "帥": 1299,
      "師": 1300,
      "席": 1301,
      "帯": 1302,
      "帰": 1303,
      "帳": 1304,
      "帶": 1305,
      "帷": 1306,
      "常": 1307,
      "帽": 1308,
      "幅": 1309,
      "幇": 1310,
      "幌": 1311,
      "幕": 1312,
      "幣": 1313,
      "干": 1314,
      "平": 1315,
      "年": 1316,
      "幸": 1317,
      "幹": 1318,
      "幻": 1319,
      "幼": 1320,
      "幽": 1321,
      "幾": 1322,
      "庁": 1323,
      "広": 1324,
      "庄": 1325,
      "庇": 1326,
      "床": 1327,
      "序": 1328,
      "底": 1329,
      "店": 1330,
      "府": 1331,
      "度": 1332,
      "座": 1333,
      "庫": 1334,
      "庭": 1335,
      "庵": 1336,
      "庶": 1337,
      "康": 1338,
      "庸": 1339,
      "廁": 1340,
      "廃": 1341,
      "廉": 1342,
      "廊": 1343,
      "廟": 1344,
      "廣": 1345,
      "延": 1346,
      "廷": 1347,
      "建": 1348,
      "廻": 1349,
      "弁": 1350,
      "弄": 1351,
      "弊": 1352,
      "弋": 1353,
      "式": 1354,
      "弓": 1355,
      "弔": 1356,
      "引": 1357,
      "弘": 1358,
      "弛": 1359,
      "弟": 1360,
      "弥": 1361,
      "弦": 1362,
      "弧": 1363,
      "弯": 1364,
      "弱": 1365,
      "張": 1366,
      "強": 1367,
      "弾": 1368,
      "彈": 1369,
      "彊": 1370,
      "当": 1371,
      "彗": 1372,
      "彙": 1373,
      "彡": 1374,
      "形": 1375,
      "彦": 1376,
      "彩": 1377,
      "彫": 1378,
      "彭": 1379,
      "彰": 1380,
      "影": 1381,
      "彷": 1382,
      "役": 1383,
      "彼": 1384,
      "往": 1385,
      "征": 1386,
      "径": 1387,
      "待": 1388,
      "很": 1389,
      "徊": 1390,
      "律": 1391,
      "後": 1392,
      "徐": 1393,
      "徒": 1394,
      "従": 1395,
      "得": 1396,
      "徘": 1397,
      "從": 1398,
      "御": 1399,
      "徨": 1400,
      "復": 1401,
      "循": 1402,
      "微": 1403,
      "徳": 1404,
      "徴": 1405,
      "徹": 1406,
      "心": 1407,
      "必": 1408,
      "忌": 1409,
      "忍": 1410,
      "志": 1411,
      "忘": 1412,
      "忙": 1413,
      "応": 1414,
      "忠": 1415,
      "快": 1416,
      "念": 1417,
      "忽": 1418,
      "怎": 1419,
      "怒": 1420,
      "怖": 1421,
      "怜": 1422,
      "思": 1423,
      "怠": 1424,
      "急": 1425,
      "性": 1426,
      "怨": 1427,
      "怪": 1428,
      "怯": 1429,
      "恆": 1430,
      "恋": 1431,
      "恍": 1432,
      "恐": 1433,
      "恒": 1434,
      "恣": 1435,
      "恥": 1436,
      "恨": 1437,
      "恩": 1438,
      "恫": 1439,
      "恭": 1440,
      "息": 1441,
      "恰": 1442,
      "恵": 1443,
      "悉": 1444,
      "悍": 1445,
      "悔": 1446,
      "悛": 1447,
      "悟": 1448,
      "悠": 1449,
      "患": 1450,
      "悦": 1451,
      "悧": 1452,
      "悩": 1453,
      "悪": 1454,
      "悲": 1455,
      "悶": 1456,
      "悸": 1457,
      "悼": 1458,
      "情": 1459,
      "惑": 1460,
      "惚": 1461,
      "惜": 1462,
      "惟": 1463,
      "惠": 1464,
      "惡": 1465,
      "惧": 1466,
      "惨": 1467,
      "惰": 1468,
      "想": 1469,
      "惹": 1470,
      "愁": 1471,
      "愉": 1472,
      "意": 1473,
      "愕": 1474,
      "愚": 1475,
      "愛": 1476,
      "感": 1477,
      "愼": 1478,
      "愿": 1479,
      "慄": 1480,
      "慇": 1481,
      "慈": 1482,
      "態": 1483,
      "慌": 1484,
      "慎": 1485,
      "慕": 1486,
      "慟": 1487,
      "慢": 1488,
      "慣": 1489,
      "慧": 1490,
      "慨": 1491,
      "慮": 1492,
      "慰": 1493,
      "慶": 1494,
      "慾": 1495,
      "憂": 1496,
      "憊": 1497,
      "憎": 1498,
      "憐": 1499,
      "憑": 1500,
      "憚": 1501,
      "憤": 1502,
      "憧": 1503,
      "憩": 1504,
      "憫": 1505,
      "憲": 1506,
      "憶": 1507,
      "憺": 1508,
      "憾": 1509,
      "懂": 1510,
      "懃": 1511,
      "懇": 1512,
      "懐": 1513,
      "懦": 1514,
      "懲": 1515,
      "懷": 1516,
      "懸": 1517,
      "懺": 1518,
      "戀": 1519,
      "戌": 1520,
      "成": 1521,
      "我": 1522,
      "戒": 1523,
      "或": 1524,
      "戚": 1525,
      "戦": 1526,
      "截": 1527,
      "戮": 1528,
      "戯": 1529,
      "戰": 1530,
      "戴": 1531,
      "戸": 1532,
      "戻": 1533,
      "房": 1534,
      "所": 1535,
      "扁": 1536,
      "扇": 1537,
      "扈": 1538,
      "扉": 1539,
      "手": 1540,
      "才": 1541,
      "打": 1542,
      "払": 1543,
      "托": 1544,
      "扮": 1545,
      "扱": 1546,
      "扶": 1547,
      "批": 1548,
      "找": 1549,
      "承": 1550,
      "技": 1551,
      "抉": 1552,
      "把": 1553,
      "抑": 1554,
      "投": 1555,
      "抗": 1556,
      "折": 1557,
      "抜": 1558,
      "択": 1559,
      "披": 1560,
      "抱": 1561,
      "抵": 1562,
      "抹": 1563,
      "押": 1564,
      "抽": 1565,
      "拂": 1566,
      "担": 1567,
      "拇": 1568,
      "拉": 1569,
      "拋": 1570,
      "拌": 1571,
      "拍": 1572,
      "拐": 1573,
      "拒": 1574,
      "拓": 1575,
      "拗": 1576,
      "拘": 1577,
      "拙": 1578,
      "招": 1579,
      "拝": 1580,
      "拠": 1581,
      "拡": 1582,
      "括": 1583,
      "拭": 1584,
      "拮": 1585,
      "拳": 1586,
      "拵": 1587,
      "拶": 1588,
      "拷": 1589,
      "拾": 1590,
      "拿": 1591,
      "持": 1592,
      "指": 1593,
      "按": 1594,
      "挑": 1595,
      "挙": 1596,
      "挟": 1597,
      "挨": 1598,
      "挫": 1599,
      "振": 1600,
      "挺": 1601,
      "挽": 1602,
      "挿": 1603,
      "捉": 1604,
      "捌": 1605,
      "捏": 1606,
      "捕": 1607,
      "捗": 1608,
      "捜": 1609,
      "捧": 1610,
      "捨": 1611,
      "捩": 1612,
      "据": 1613,
      "捲": 1614,
      "捷": 1615,
      "捺": 1616,
      "捻": 1617,
      "掃": 1618,
      "授": 1619,
      "掌": 1620,
      "排": 1621,
      "掘": 1622,
      "掛": 1623,
      "掟": 1624,
      "掠": 1625,
      "採": 1626,
      "探": 1627,
      "接": 1628,
      "控": 1629,
      "推": 1630,
      "掩": 1631,
      "措": 1632,
      "掲": 1633,
      "掴": 1634,
      "掻": 1635,
      "揃": 1636,
      "揄": 1637,
      "揆": 1638,
      "揉": 1639,
      "描": 1640,
      "提": 1641,
      "揚": 1642,
      "換": 1643,
      "握": 1644,
      "揮": 1645,
      "援": 1646,
      "揶": 1647,
      "揺": 1648,
      "損": 1649,
      "搔": 1650,
      "搜": 1651,
      "搦": 1652,
      "搬": 1653,
      "搭": 1654,
      "携": 1655,
      "搾": 1656,
      "摂": 1657,
      "摇": 1658,
      "摘": 1659,
      "摩": 1660,
      "摯": 1661,
      "摺": 1662,
      "撃": 1663,
      "撒": 1664,
      "撓": 1665,
      "撚": 1666,
      "撞": 1667,
      "撤": 1668,
      "撥": 1669,
      "撩": 1670,
      "撫": 1671,
      "播": 1672,
      "撮": 1673,
      "撰": 1674,
      "撲": 1675,
      "撹": 1676,
      "擁": 1677,
      "擂": 1678,
      "擋": 1679,
      "操": 1680,
      "擢": 1681,
      "擦": 1682,
      "擬": 1683,
      "擲": 1684,
      "攀": 1685,
      "攜": 1686,
      "攣": 1687,
      "攪": 1688,
      "攫": 1689,
      "支": 1690,
      "收": 1691,
      "改": 1692,
      "攻": 1693,
      "放": 1694,
      "政": 1695,
      "故": 1696,
      "敏": 1697,
      "救": 1698,
      "敗": 1699,
      "教": 1700,
      "敢": 1701,
      "散": 1702,
      "敦": 1703,
      "敬": 1704,
      "数": 1705,
      "敲": 1706,
      "整": 1707,
      "敵": 1708,
      "敷": 1709,
      "數": 1710,
      "斂": 1711,
      "文": 1712,
      "斉": 1713,
      "斎": 1714,
      "斐": 1715,
      "斑": 1716,
      "斗": 1717,
      "料": 1718,
      "斜": 1719,
      "斟": 1720,
      "斡": 1721,
      "斤": 1722,
      "斥": 1723,
      "斧": 1724,
      "斬": 1725,
      "断": 1726,
      "斯": 1727,
      "新": 1728,
      "斷": 1729,
      "方": 1730,
      "於": 1731,
      "施": 1732,
      "旅": 1733,
      "旋": 1734,
      "族": 1735,
      "旗": 1736,
      "无": 1737,
      "既": 1738,
      "日": 1739,
      "旦": 1740,
      "旧": 1741,
      "旨": 1742,
      "早": 1743,
      "旬": 1744,
      "旭": 1745,
      "时": 1746,
      "旺": 1747,
      "昂": 1748,
      "昆": 1749,
      "昇": 1750,
      "昌": 1751,
      "明": 1752,
      "昏": 1753,
      "易": 1754,
      "昔": 1755,
      "星": 1756,
      "映": 1757,
      "春": 1758,
      "昧": 1759,
      "昨": 1760,
      "昭": 1761,
      "是": 1762,
      "昼": 1763,
      "時": 1764,
      "晃": 1765,
      "晋": 1766,
      "晒": 1767,
      "晚": 1768,
      "晦": 1769,
      "晩": 1770,
      "普": 1771,
      "景": 1772,
      "晰": 1773,
      "晴": 1774,
      "晶": 1775,
      "智": 1776,
      "暁": 1777,
      "暇": 1778,
      "暑": 1779,
      "暖": 1780,
      "暗": 1781,
      "暢": 1782,
      "暦": 1783,
      "暫": 1784,
      "暮": 1785,
      "暴": 1786,
      "曇": 1787,
      "曖": 1788,
      "曙": 1789,
      "曜": 1790,
      "曝": 1791,
      "曰": 1792,
      "曲": 1793,
      "更": 1794,
      "書": 1795,
      "曹": 1796,
      "曼": 1797,
      "曽": 1798,
      "曾": 1799,
      "替": 1800,
      "最": 1801,
      "會": 1802,
      "月": 1803,
      "有": 1804,
      "朋": 1805,
      "服": 1806,
      "朔": 1807,
      "朕": 1808,
      "朗": 1809,
      "望": 1810,
      "朝": 1811,
      "期": 1812,
      "朦": 1813,
      "朧": 1814,
      "木": 1815,
      "未": 1816,
      "末": 1817,
      "本": 1818,
      "札": 1819,
      "朱": 1820,
      "朴": 1821,
      "机": 1822,
      "朽": 1823,
      "杆": 1824,
      "杉": 1825,
      "李": 1826,
      "杏": 1827,
      "材": 1828,
      "村": 1829,
      "杓": 1830,
      "杖": 1831,
      "杜": 1832,
      "杞": 1833,
      "束": 1834,
      "条": 1835,
      "来": 1836,
      "杪": 1837,
      "杭": 1838,
      "杯": 1839,
      "東": 1840,
      "松": 1841,
      "板": 1842,
      "析": 1843,
      "枕": 1844,
      "林": 1845,
      "枚": 1846,
      "果": 1847,
      "枝": 1848,
      "枠": 1849,
      "枡": 1850,
      "枢": 1851,
      "枦": 1852,
      "枯": 1853,
      "架": 1854,
      "枷": 1855,
      "柄": 1856,
      "柊": 1857,
      "柏": 1858,
      "某": 1859,
      "染": 1860,
      "柔": 1861,
      "柤": 1862,
      "柩": 1863,
      "柬": 1864,
      "柱": 1865,
      "柳": 1866,
      "柴": 1867,
      "柵": 1868,
      "査": 1869,
      "柿": 1870,
      "栄": 1871,
      "栓": 1872,
      "栖": 1873,
      "栗": 1874,
      "校": 1875,
      "株": 1876,
      "核": 1877,
      "根": 1878,
      "格": 1879,
      "栽": 1880,
      "桁": 1881,
      "桂": 1882,
      "桃": 1883,
      "案": 1884,
      "桑": 1885,
      "桜": 1886,
      "桝": 1887,
      "桟": 1888,
      "桶": 1889,
      "桿": 1890,
      "梁": 1891,
      "梅": 1892,
      "梗": 1893,
      "梟": 1894,
      "梢": 1895,
      "梧": 1896,
      "梨": 1897,
      "梯": 1898,
      "械": 1899,
      "梱": 1900,
      "梳": 1901,
      "梶": 1902,
      "棄": 1903,
      "棋": 1904,
      "棍": 1905,
      "棒": 1906,
      "棓": 1907,
      "棕": 1908,
      "棘": 1909,
      "棚": 1910,
      "棟": 1911,
      "森": 1912,
      "棲": 1913,
      "棺": 1914,
      "椀": 1915,
      "椅": 1916,
      "植": 1917,
      "椎": 1918,
      "椒": 1919,
      "検": 1920,
      "椿": 1921,
      "楊": 1922,
      "楓": 1923,
      "楔": 1924,
      "楕": 1925,
      "楚": 1926,
      "楢": 1927,
      "業": 1928,
      "楯": 1929,
      "極": 1930,
      "楼": 1931,
      "楽": 1932,
      "概": 1933,
      "榊": 1934,
      "榎": 1935,
      "榴": 1936,
      "槃": 1937,
      "構": 1938,
      "槌": 1939,
      "槍": 1940,
      "様": 1941,
      "槙": 1942,
      "槽": 1943,
      "標": 1944,
      "模": 1945,
      "樣": 1946,
      "権": 1947,
      "横": 1948,
      "樫": 1949,
      "樵": 1950,
      "樹": 1951,
      "樽": 1952,
      "橈": 1953,
      "橋": 1954,
      "機": 1955,
      "橿": 1956,
      "檀": 1957,
      "檎": 1958,
      "檜": 1959,
      "檻": 1960,
      "櫃": 1961,
      "櫑": 1962,
      "櫓": 1963,
      "櫚": 1964,
      "櫛": 1965,
      "欄": 1966,
      "欒": 1967,
      "欝": 1968,
      "欠": 1969,
      "次": 1970,
      "欧": 1971,
      "欲": 1972,
      "欺": 1973,
      "款": 1974,
      "歌": 1975,
      "歎": 1976,
      "歓": 1977,
      "止": 1978,
      "正": 1979,
      "此": 1980,
      "步": 1981,
      "武": 1982,
      "歩": 1983,
      "歪": 1984,
      "歯": 1985,
      "歲": 1986,
      "歳": 1987,
      "歴": 1988,
      "歸": 1989,
      "死": 1990,
      "殆": 1991,
      "殉": 1992,
      "殊": 1993,
      "残": 1994,
      "殖": 1995,
      "殲": 1996,
      "殴": 1997,
      "段": 1998,
      "殺": 1999,
      "殻": 2000,
      "殼": 2001,
      "殿": 2002,
      "毀": 2003,
      "毅": 2004,
      "母": 2005,
      "毎": 2006,
      "每": 2007,
      "毒": 2008,
      "比": 2009,
      "毘": 2010,
      "毛": 2011,
      "毯": 2012,
      "氏": 2013,
      "氐": 2014,
      "民": 2015,
      "気": 2016,
      "氣": 2017,
      "水": 2018,
      "氷": 2019,
      "永": 2020,
      "氾": 2021,
      "汀": 2022,
      "汁": 2023,
      "求": 2024,
      "汎": 2025,
      "汗": 2026,
      "汚": 2027,
      "汝": 2028,
      "江": 2029,
      "池": 2030,
      "汰": 2031,
      "汲": 2032,
      "決": 2033,
      "汽": 2034,
      "沁": 2035,
      "沃": 2036,
      "沈": 2037,
      "沌": 2038,
      "沒": 2039,
      "沖": 2040,
      "沙": 2041,
      "没": 2042,
      "沢": 2043,
      "沫": 2044,
      "河": 2045,
      "沸": 2046,
      "油": 2047,
      "治": 2048,
      "沼": 2049,
      "沿": 2050,
      "況": 2051,
      "泄": 2052,
      "泉": 2053,
      "泊": 2054,
      "泌": 2055,
      "法": 2056,
      "泙": 2057,
      "泡": 2058,
      "波": 2059,
      "泣": 2060,
      "泥": 2061,
      "注": 2062,
      "泰": 2063,
      "泳": 2064,
      "洋": 2065,
      "洒": 2066,
      "洗": 2067,
      "洞": 2068,
      "洟": 2069,
      "津": 2070,
      "洩": 2071,
      "洪": 2072,
      "洲": 2073,
      "活": 2074,
      "派": 2075,
      "流": 2076,
      "浄": 2077,
      "浅": 2078,
      "浜": 2079,
      "浦": 2080,
      "浩": 2081,
      "浪": 2082,
      "浮": 2083,
      "浴": 2084,
      "海": 2085,
      "浸": 2086,
      "涅": 2087,
      "消": 2088,
      "涌": 2089,
      "涎": 2090,
      "涙": 2091,
      "涛": 2092,
      "涜": 2093,
      "涯": 2094,
      "液": 2095,
      "涵": 2096,
      "涼": 2097,
      "淀": 2098,
      "淋": 2099,
      "淑": 2100,
      "淘": 2101,
      "淚": 2102,
      "淡": 2103,
      "淨": 2104,
      "淫": 2105,
      "深": 2106,
      "淳": 2107,
      "淵": 2108,
      "混": 2109,
      "淹": 2110,
      "添": 2111,
      "清": 2112,
      "渇": 2113,
      "済": 2114,
      "渉": 2115,
      "渋": 2116,
      "渓": 2117,
      "渚": 2118,
      "減": 2119,
      "渡": 2120,
      "渣": 2121,
      "渥": 2122,
      "渦": 2123,
      "温": 2124,
      "測": 2125,
      "港": 2126,
      "渾": 2127,
      "湖": 2128,
      "湘": 2129,
      "湛": 2130,
      "湧": 2131,
      "湯": 2132,
      "湾": 2133,
      "湿": 2134,
      "満": 2135,
      "溌": 2136,
      "源": 2137,
      "準": 2138,
      "溜": 2139,
      "溝": 2140,
      "溢": 2141,
      "溶": 2142,
      "溺": 2143,
      "滅": 2144,
      "滋": 2145,
      "滑": 2146,
      "滝": 2147,
      "滞": 2148,
      "滲": 2149,
      "滴": 2150,
      "滾": 2151,
      "漁": 2152,
      "漂": 2153,
      "漆": 2154,
      "漏": 2155,
      "漑": 2156,
      "演": 2157,
      "漕": 2158,
      "漠": 2159,
      "漢": 2160,
      "漫": 2161,
      "漬": 2162,
      "漱": 2163,
      "漲": 2164,
      "漸": 2165,
      "漿": 2166,
      "潅": 2167,
      "潔": 2168,
      "潜": 2169,
      "潟": 2170,
      "潤": 2171,
      "潮": 2172,
      "潰": 2173,
      "澄": 2174,
      "澤": 2175,
      "澪": 2176,
      "激": 2177,
      "濁": 2178,
      "濃": 2179,
      "濡": 2180,
      "濫": 2181,
      "濯": 2182,
      "濳": 2183,
      "濾": 2184,
      "瀉": 2185,
      "瀋": 2186,
      "瀕": 2187,
      "瀘": 2188,
      "瀝": 2189,
      "瀬": 2190,
      "瀾": 2191,
      "灌": 2192,
      "灘": 2193,
      "灣": 2194,
      "火": 2195,
      "灯": 2196,
      "灰": 2197,
      "灸": 2198,
      "灼": 2199,
      "災": 2200,
      "炉": 2201,
      "炊": 2202,
      "炎": 2203,
      "炒": 2204,
      "炙": 2205,
      "炭": 2206,
      "炯": 2207,
      "炸": 2208,
      "点": 2209,
      "為": 2210,
      "烈": 2211,
      "烏": 2212,
      "烙": 2213,
      "烽": 2214,
      "焉": 2215,
      "焔": 2216,
      "焙": 2217,
      "焚": 2218,
      "無": 2219,
      "焦": 2220,
      "焰": 2221,
      "然": 2222,
      "焼": 2223,
      "煉": 2224,
      "煌": 2225,
      "煎": 2226,
      "煙": 2227,
      "煤": 2228,
      "照": 2229,
      "煩": 2230,
      "煮": 2231,
      "煽": 2232,
      "熊": 2233,
      "熔": 2234,
      "熟": 2235,
      "熱": 2236,
      "熾": 2237,
      "燃": 2238,
      "燈": 2239,
      "燐": 2240,
      "燒": 2241,
      "燕": 2242,
      "燥": 2243,
      "燭": 2244,
      "燻": 2245,
      "燼": 2246,
      "爆": 2247,
      "爛": 2248,
      "爪": 2249,
      "爬": 2250,
      "爭": 2251,
      "爵": 2252,
      "父": 2253,
      "爺": 2254,
      "爽": 2255,
      "片": 2256,
      "版": 2257,
      "牌": 2258,
      "牙": 2259,
      "牛": 2260,
      "牝": 2261,
      "牡": 2262,
      "牢": 2263,
      "牧": 2264,
      "物": 2265,
      "牲": 2266,
      "特": 2267,
      "牽": 2268,
      "犀": 2269,
      "犇": 2270,
      "犠": 2271,
      "犧": 2272,
      "犬": 2273,
      "犯": 2274,
      "状": 2275,
      "狂": 2276,
      "狐": 2277,
      "狗": 2278,
      "狙": 2279,
      "狡": 2280,
      "狩": 2281,
      "独": 2282,
      "狭": 2283,
      "狸": 2284,
      "狼": 2285,
      "狽": 2286,
      "猊": 2287,
      "猛": 2288,
      "猜": 2289,
      "猟": 2290,
      "猥": 2291,
      "猩": 2292,
      "猪": 2293,
      "猫": 2294,
      "献": 2295,
      "猴": 2296,
      "猶": 2297,
      "猾": 2298,
      "猿": 2299,
      "獄": 2300,
      "獅": 2301,
      "獣": 2302,
      "獰": 2303,
      "獲": 2304,
      "玄": 2305,
      "率": 2306,
      "玉": 2307,
      "王": 2308,
      "玩": 2309,
      "玲": 2310,
      "珀": 2311,
      "珈": 2312,
      "珊": 2313,
      "珍": 2314,
      "珠": 2315,
      "班": 2316,
      "現": 2317,
      "球": 2318,
      "理": 2319,
      "琉": 2320,
      "琢": 2321,
      "琥": 2322,
      "琲": 2323,
      "琴": 2324,
      "琵": 2325,
      "琶": 2326,
      "瑁": 2327,
      "瑚": 2328,
      "瑜": 2329,
      "瑞": 2330,
      "瑠": 2331,
      "璧": 2332,
      "環": 2333,
      "瓜": 2334,
      "瓠": 2335,
      "瓢": 2336,
      "瓦": 2337,
      "瓶": 2338,
      "甘": 2339,
      "甚": 2340,
      "生": 2341,
      "産": 2342,
      "甥": 2343,
      "甦": 2344,
      "用": 2345,
      "田": 2346,
      "由": 2347,
      "甲": 2348,
      "申": 2349,
      "男": 2350,
      "町": 2351,
      "画": 2352,
      "界": 2353,
      "畏": 2354,
      "畑": 2355,
      "畔": 2356,
      "留": 2357,
      "畜": 2358,
      "畝": 2359,
      "畢": 2360,
      "略": 2361,
      "番": 2362,
      "異": 2363,
      "畳": 2364,
      "疇": 2365,
      "疎": 2366,
      "疑": 2367,
      "疔": 2368,
      "疚": 2369,
      "疣": 2370,
      "疥": 2371,
      "疫": 2372,
      "疱": 2373,
      "疲": 2374,
      "疵": 2375,
      "疸": 2376,
      "疹": 2377,
      "疼": 2378,
      "疽": 2379,
      "疾": 2380,
      "病": 2381,
      "症": 2382,
      "痒": 2383,
      "痔": 2384,
      "痕": 2385,
      "痘": 2386,
      "痙": 2387,
      "痛": 2388,
      "痢": 2389,
      "痣": 2390,
      "痩": 2391,
      "痰": 2392,
      "痲": 2393,
      "痴": 2394,
      "痺": 2395,
      "瘍": 2396,
      "瘡": 2397,
      "瘢": 2398,
      "瘤": 2399,
      "瘻": 2400,
      "療": 2401,
      "癇": 2402,
      "癌": 2403,
      "癒": 2404,
      "癖": 2405,
      "癡": 2406,
      "癩": 2407,
      "癪": 2408,
      "癬": 2409,
      "発": 2410,
      "登": 2411,
      "發": 2412,
      "白": 2413,
      "百": 2414,
      "的": 2415,
      "皆": 2416,
      "皇": 2417,
      "皮": 2418,
      "皺": 2419,
      "皿": 2420,
      "盃": 2421,
      "盆": 2422,
      "益": 2423,
      "盒": 2424,
      "盗": 2425,
      "盛": 2426,
      "盟": 2427,
      "監": 2428,
      "盤": 2429,
      "盧": 2430,
      "盪": 2431,
      "目": 2432,
      "盲": 2433,
      "直": 2434,
      "相": 2435,
      "盾": 2436,
      "省": 2437,
      "眈": 2438,
      "眉": 2439,
      "看": 2440,
      "県": 2441,
      "眞": 2442,
      "真": 2443,
      "眠": 2444,
      "眩": 2445,
      "眸": 2446,
      "眺": 2447,
      "眼": 2448,
      "眾": 2449,
      "着": 2450,
      "睡": 2451,
      "督": 2452,
      "睦": 2453,
      "睨": 2454,
      "睾": 2455,
      "瞋": 2456,
      "瞑": 2457,
      "瞞": 2458,
      "瞥": 2459,
      "瞬": 2460,
      "瞭": 2461,
      "瞳": 2462,
      "瞼": 2463,
      "矛": 2464,
      "矢": 2465,
      "知": 2466,
      "矩": 2467,
      "短": 2468,
      "矮": 2469,
      "矯": 2470,
      "石": 2471,
      "矿": 2472,
      "砂": 2473,
      "研": 2474,
      "砕": 2475,
      "砥": 2476,
      "砦": 2477,
      "砲": 2478,
      "破": 2479,
      "硝": 2480,
      "硫": 2481,
      "硬": 2482,
      "碁": 2483,
      "碇": 2484,
      "碌": 2485,
      "碍": 2486,
      "碎": 2487,
      "碑": 2488,
      "碗": 2489,
      "碧": 2490,
      "確": 2491,
      "碼": 2492,
      "碾": 2493,
      "磁": 2494,
      "磋": 2495,
      "磐": 2496,
      "磔": 2497,
      "磨": 2498,
      "磯": 2499,
      "礁": 2500,
      "礎": 2501,
      "礫": 2502,
      "示": 2503,
      "礼": 2504,
      "社": 2505,
      "祀": 2506,
      "祈": 2507,
      "祉": 2508,
      "祐": 2509,
      "祓": 2510,
      "祖": 2511,
      "祝": 2512,
      "神": 2513,
      "祟": 2514,
      "祥": 2515,
      "票": 2516,
      "祭": 2517,
      "祷": 2518,
      "禁": 2519,
      "禄": 2520,
      "禅": 2521,
      "禍": 2522,
      "禎": 2523,
      "福": 2524,
      "禮": 2525,
      "离": 2526,
      "禾": 2527,
      "禿": 2528,
      "秀": 2529,
      "私": 2530,
      "秋": 2531,
      "科": 2532,
      "秒": 2533,
      "秘": 2534,
      "租": 2535,
      "秤": 2536,
      "秦": 2537,
      "秩": 2538,
      "称": 2539,
      "移": 2540,
      "稀": 2541,
      "程": 2542,
      "税": 2543,
      "稚": 2544,
      "稜": 2545,
      "稟": 2546,
      "種": 2547,
      "稲": 2548,
      "稼": 2549,
      "稽": 2550,
      "稿": 2551,
      "穀": 2552,
      "穂": 2553,
      "積": 2554,
      "穎": 2555,
      "穏": 2556,
      "穐": 2557,
      "穢": 2558,
      "穫": 2559,
      "穰": 2560,
      "穴": 2561,
      "究": 2562,
      "穹": 2563,
      "空": 2564,
      "穿": 2565,
      "突": 2566,
      "窃": 2567,
      "窒": 2568,
      "窓": 2569,
      "窟": 2570,
      "窩": 2571,
      "窪": 2572,
      "窮": 2573,
      "窯": 2574,
      "窺": 2575,
      "竃": 2576,
      "竄": 2577,
      "竇": 2578,
      "立": 2579,
      "站": 2580,
      "竜": 2581,
      "章": 2582,
      "童": 2583,
      "竦": 2584,
      "竪": 2585,
      "端": 2586,
      "競": 2587,
      "竹": 2588,
      "竺": 2589,
      "竿": 2590,
      "笑": 2591,
      "笙": 2592,
      "笛": 2593,
      "笠": 2594,
      "笥": 2595,
      "符": 2596,
      "笨": 2597,
      "第": 2598,
      "笹": 2599,
      "筆": 2600,
      "筈": 2601,
      "等": 2602,
      "筋": 2603,
      "筏": 2604,
      "筑": 2605,
      "筒": 2606,
      "答": 2607,
      "策": 2608,
      "筧": 2609,
      "箇": 2610,
      "箋": 2611,
      "箍": 2612,
      "箒": 2613,
      "箔": 2614,
      "算": 2615,
      "箝": 2616,
      "管": 2617,
      "箪": 2618,
      "箱": 2619,
      "箸": 2620,
      "節": 2621,
      "範": 2622,
      "篆": 2623,
      "篇": 2624,
      "築": 2625,
      "篠": 2626,
      "篤": 2627,
      "篭": 2628,
      "簀": 2629,
      "簒": 2630,
      "簡": 2631,
      "簾": 2632,
      "簿": 2633,
      "籍": 2634,
      "籠": 2635,
      "籤": 2636,
      "米": 2637,
      "籾": 2638,
      "粉": 2639,
      "粋": 2640,
      "粒": 2641,
      "粕": 2642,
      "粗": 2643,
      "粘": 2644,
      "粛": 2645,
      "粟": 2646,
      "粥": 2647,
      "粧": 2648,
      "精": 2649,
      "糊": 2650,
      "糖": 2651,
      "糞": 2652,
      "糧": 2653,
      "糸": 2654,
      "糺": 2655,
      "系": 2656,
      "糾": 2657,
      "紀": 2658,
      "約": 2659,
      "紅": 2660,
      "紆": 2661,
      "紋": 2662,
      "納": 2663,
      "紐": 2664,
      "純": 2665,
      "紗": 2666,
      "紙": 2667,
      "級": 2668,
      "紛": 2669,
      "素": 2670,
      "紡": 2671,
      "索": 2672,
      "紫": 2673,
      "累": 2674,
      "細": 2675,
      "紳": 2676,
      "紹": 2677,
      "紺": 2678,
      "終": 2679,
      "絃": 2680,
      "組": 2681,
      "絆": 2682,
      "経": 2683,
      "結": 2684,
      "絞": 2685,
      "絡": 2686,
      "絢": 2687,
      "給": 2688,
      "絨": 2689,
      "統": 2690,
      "絵": 2691,
      "絶": 2692,
      "絹": 2693,
      "經": 2694,
      "継": 2695,
      "続": 2696,
      "綜": 2697,
      "綠": 2698,
      "維": 2699,
      "綱": 2700,
      "網": 2701,
      "綴": 2702,
      "綺": 2703,
      "綻": 2704,
      "綽": 2705,
      "綾": 2706,
      "綿": 2707,
      "緊": 2708,
      "緋": 2709,
      "総": 2710,
      "緑": 2711,
      "緒": 2712,
      "緖": 2713,
      "緘": 2714,
      "線": 2715,
      "締": 2716,
      "編": 2717,
      "緩": 2718,
      "緯": 2719,
      "練": 2720,
      "緻": 2721,
      "縁": 2722,
      "縄": 2723,
      "縊": 2724,
      "縋": 2725,
      "縒": 2726,
      "縛": 2727,
      "縞": 2728,
      "縣": 2729,
      "縦": 2730,
      "縫": 2731,
      "縮": 2732,
      "總": 2733,
      "績": 2734,
      "繁": 2735,
      "繊": 2736,
      "繋": 2737,
      "繍": 2738,
      "織": 2739,
      "繕": 2740,
      "繭": 2741,
      "繰": 2742,
      "繹": 2743,
      "纂": 2744,
      "纉": 2745,
      "纏": 2746,
      "纒": 2747,
      "约": 2748,
      "组": 2749,
      "缶": 2750,
      "罐": 2751,
      "罠": 2752,
      "罪": 2753,
      "置": 2754,
      "罰": 2755,
      "署": 2756,
      "罵": 2757,
      "罷": 2758,
      "罹": 2759,
      "罾": 2760,
      "羅": 2761,
      "羊": 2762,
      "美": 2763,
      "羞": 2764,
      "群": 2765,
      "羨": 2766,
      "義": 2767,
      "羽": 2768,
      "翅": 2769,
      "翌": 2770,
      "習": 2771,
      "翔": 2772,
      "翠": 2773,
      "翡": 2774,
      "翻": 2775,
      "翼": 2776,
      "耀": 2777,
      "老": 2778,
      "考": 2779,
      "耄": 2780,
      "者": 2781,
      "而": 2782,
      "耐": 2783,
      "耕": 2784,
      "耗": 2785,
      "耳": 2786,
      "耽": 2787,
      "聖": 2788,
      "聘": 2789,
      "聞": 2790,
      "聡": 2791,
      "聳": 2792,
      "聴": 2793,
      "職": 2794,
      "聽": 2795,
      "聾": 2796,
      "肉": 2797,
      "肋": 2798,
      "肌": 2799,
      "肖": 2800,
      "肘": 2801,
      "肛": 2802,
      "肝": 2803,
      "股": 2804,
      "肢": 2805,
      "肥": 2806,
      "肩": 2807,
      "肪": 2808,
      "肯": 2809,
      "育": 2810,
      "肺": 2811,
      "胃": 2812,
      "胆": 2813,
      "背": 2814,
      "胎": 2815,
      "胚": 2816,
      "胞": 2817,
      "胡": 2818,
      "胱": 2819,
      "胴": 2820,
      "胸": 2821,
      "能": 2822,
      "脂": 2823,
      "脅": 2824,
      "脆": 2825,
      "脇": 2826,
      "脈": 2827,
      "脊": 2828,
      "脋": 2829,
      "脚": 2830,
      "脛": 2831,
      "脱": 2832,
      "脳": 2833,
      "脹": 2834,
      "脾": 2835,
      "腋": 2836,
      "腎": 2837,
      "腐": 2838,
      "腑": 2839,
      "腓": 2840,
      "腔": 2841,
      "腕": 2842,
      "腟": 2843,
      "腫": 2844,
      "腰": 2845,
      "腱": 2846,
      "腸": 2847,
      "腹": 2848,
      "腺": 2849,
      "腿": 2850,
      "膀": 2851,
      "膏": 2852,
      "膚": 2853,
      "膜": 2854,
      "膝": 2855,
      "膠": 2856,
      "膣": 2857,
      "膨": 2858,
      "膳": 2859,
      "膵": 2860,
      "膿": 2861,
      "臆": 2862,
      "臍": 2863,
      "臓": 2864,
      "臣": 2865,
      "臥": 2866,
      "臨": 2867,
      "自": 2868,
      "臭": 2869,
      "至": 2870,
      "致": 2871,
      "臺": 2872,
      "臼": 2873,
      "與": 2874,
      "興": 2875,
      "舌": 2876,
      "舍": 2877,
      "舎": 2878,
      "舐": 2879,
      "舗": 2880,
      "舞": 2881,
      "舟": 2882,
      "航": 2883,
      "般": 2884,
      "舵": 2885,
      "舶": 2886,
      "舷": 2887,
      "船": 2888,
      "艀": 2889,
      "艇": 2890,
      "艘": 2891,
      "艦": 2892,
      "良": 2893,
      "艱": 2894,
      "色": 2895,
      "艶": 2896,
      "艷": 2897,
      "芋": 2898,
      "芒": 2899,
      "芝": 2900,
      "芥": 2901,
      "芭": 2902,
      "芯": 2903,
      "花": 2904,
      "芳": 2905,
      "芸": 2906,
      "芹": 2907,
      "芻": 2908,
      "芽": 2909,
      "苅": 2910,
      "苑": 2911,
      "苔": 2912,
      "苗": 2913,
      "苛": 2914,
      "若": 2915,
      "苦": 2916,
      "英": 2917,
      "苺": 2918,
      "茂": 2919,
      "茄": 2920,
      "茎": 2921,
      "茜": 2922,
      "茨": 2923,
      "茫": 2924,
      "茴": 2925,
      "茶": 2926,
      "茸": 2927,
      "茹": 2928,
      "草": 2929,
      "荊": 2930,
      "荒": 2931,
      "荘": 2932,
      "荳": 2933,
      "荷": 2934,
      "荼": 2935,
      "莉": 2936,
      "莞": 2937,
      "莢": 2938,
      "莫": 2939,
      "莱": 2940,
      "菅": 2941,
      "菊": 2942,
      "菌": 2943,
      "菓": 2944,
      "菜": 2945,
      "菩": 2946,
      "華": 2947,
      "菱": 2948,
      "菴": 2949,
      "萃": 2950,
      "萄": 2951,
      "萌": 2952,
      "萎": 2953,
      "萠": 2954,
      "萬": 2955,
      "萼": 2956,
      "落": 2957,
      "葉": 2958,
      "著": 2959,
      "葛": 2960,
      "葡": 2961,
      "董": 2962,
      "葦": 2963,
      "葬": 2964,
      "葱": 2965,
      "葵": 2966,
      "葺": 2967,
      "蒔": 2968,
      "蒙": 2969,
      "蒡": 2970,
      "蒲": 2971,
      "蒸": 2972,
      "蒼": 2973,
      "蓄": 2974,
      "蓋": 2975,
      "蓑": 2976,
      "蓬": 2977,
      "蓮": 2978,
      "蓼": 2979,
      "蔑": 2980,
      "蔓": 2981,
      "蔡": 2982,
      "蔭": 2983,
      "蔵": 2984,
      "蔽": 2985,
      "蕁": 2986,
      "蕉": 2987,
      "蕗": 2988,
      "蕩": 2989,
      "蕾": 2990,
      "薄": 2991,
      "薇": 2992,
      "薔": 2993,
      "薙": 2994,
      "薦": 2995,
      "薩": 2996,
      "薪": 2997,
      "薫": 2998,
      "薬": 2999,
      "薮": 3000,
      "薯": 3001,
      "藁": 3002,
      "藉": 3003,
      "藍": 3004,
      "藝": 3005,
      "藤": 3006,
      "藥": 3007,
      "藩": 3008,
      "藪": 3009,
      "藻": 3010,
      "蘇": 3011,
      "蘊": 3012,
      "蘭": 3013,
      "虎": 3014,
      "虐": 3015,
      "虔": 3016,
      "虚": 3017,
      "虛": 3018,
      "虜": 3019,
      "虫": 3020,
      "虱": 3021,
      "虹": 3022,
      "虻": 3023,
      "蚊": 3024,
      "蚕": 3025,
      "蚤": 3026,
      "蛆": 3027,
      "蛇": 3028,
      "蛋": 3029,
      "蛍": 3030,
      "蛙": 3031,
      "蛛": 3032,
      "蛭": 3033,
      "蛮": 3034,
      "蛸": 3035,
      "蛹": 3036,
      "蛾": 3037,
      "蜂": 3038,
      "蜃": 3039,
      "蜊": 3040,
      "蜘": 3041,
      "蜜": 3042,
      "蜥": 3043,
      "蜴": 3044,
      "蝉": 3045,
      "蝋": 3046,
      "蝕": 3047,
      "蝙": 3048,
      "蝠": 3049,
      "蝶": 3050,
      "蝸": 3051,
      "蝿": 3052,
      "螂": 3053,
      "融": 3054,
      "螺": 3055,
      "蟠": 3056,
      "蟲": 3057,
      "蟹": 3058,
      "蟻": 3059,
      "蠅": 3060,
      "蠢": 3061,
      "蠣": 3062,
      "血": 3063,
      "衆": 3064,
      "行": 3065,
      "術": 3066,
      "街": 3067,
      "衛": 3068,
      "衝": 3069,
      "衡": 3070,
      "衣": 3071,
      "表": 3072,
      "衰": 3073,
      "衿": 3074,
      "袂": 3075,
      "袈": 3076,
      "袋": 3077,
      "袖": 3078,
      "被": 3079,
      "袱": 3080,
      "袴": 3081,
      "裁": 3082,
      "裂": 3083,
      "装": 3084,
      "裏": 3085,
      "裔": 3086,
      "裕": 3087,
      "補": 3088,
      "裝": 3089,
      "裟": 3090,
      "裡": 3091,
      "裳": 3092,
      "裸": 3093,
      "製": 3094,
      "裾": 3095,
      "褄": 3096,
      "複": 3097,
      "褐": 3098,
      "褒": 3099,
      "褥": 3100,
      "褪": 3101,
      "褻": 3102,
      "襄": 3103,
      "襟": 3104,
      "襲": 3105,
      "西": 3106,
      "要": 3107,
      "覆": 3108,
      "覇": 3109,
      "見": 3110,
      "規": 3111,
      "視": 3112,
      "覗": 3113,
      "覘": 3114,
      "覚": 3115,
      "覧": 3116,
      "親": 3117,
      "観": 3118,
      "覺": 3119,
      "覿": 3120,
      "觉": 3121,
      "角": 3122,
      "解": 3123,
      "触": 3124,
      "觸": 3125,
      "言": 3126,
      "訂": 3127,
      "訃": 3128,
      "計": 3129,
      "訊": 3130,
      "討": 3131,
      "訓": 3132,
      "託": 3133,
      "記": 3134,
      "訛": 3135,
      "訝": 3136,
      "訟": 3137,
      "訣": 3138,
      "訪": 3139,
      "設": 3140,
      "許": 3141,
      "訳": 3142,
      "訴": 3143,
      "診": 3144,
      "註": 3145,
      "証": 3146,
      "詈": 3147,
      "詐": 3148,
      "詔": 3149,
      "評": 3150,
      "詞": 3151,
      "詠": 3152,
      "詣": 3153,
      "試": 3154,
      "詩": 3155,
      "詫": 3156,
      "詭": 3157,
      "詮": 3158,
      "詰": 3159,
      "話": 3160,
      "該": 3161,
      "詳": 3162,
      "誂": 3163,
      "誅": 3164,
      "誇": 3165,
      "誉": 3166,
      "誌": 3167,
      "認": 3168,
      "誑": 3169,
      "誓": 3170,
      "誕": 3171,
      "誘": 3172,
      "語": 3173,
      "誠": 3174,
      "誤": 3175,
      "誦": 3176,
      "說": 3177,
      "説": 3178,
      "読": 3179,
      "誰": 3180,
      "課": 3181,
      "誹": 3182,
      "調": 3183,
      "談": 3184,
      "請": 3185,
      "諍": 3186,
      "諒": 3187,
      "論": 3188,
      "諜": 3189,
      "諦": 3190,
      "諫": 3191,
      "諭": 3192,
      "諮": 3193,
      "諷": 3194,
      "諸": 3195,
      "諺": 3196,
      "諾": 3197,
      "謀": 3198,
      "謁": 3199,
      "謂": 3200,
      "謄": 3201,
      "謎": 3202,
      "謔": 3203,
      "謗": 3204,
      "謙": 3205,
      "講": 3206,
      "謝": 3207,
      "謡": 3208,
      "謬": 3209,
      "謳": 3210,
      "謹": 3211,
      "譁": 3212,
      "證": 3213,
      "識": 3214,
      "譚": 3215,
      "譛": 3216,
      "譜": 3217,
      "警": 3218,
      "譬": 3219,
      "議": 3220,
      "譲": 3221,
      "譴": 3222,
      "護": 3223,
      "讃": 3224,
      "變": 3225,
      "讐": 3226,
      "讓": 3227,
      "讹": 3228,
      "诂": 3229,
      "诛": 3230,
      "诵": 3231,
      "诸": 3232,
      "谷": 3233,
      "豁": 3234,
      "豆": 3235,
      "豊": 3236,
      "豚": 3237,
      "象": 3238,
      "豪": 3239,
      "豹": 3240,
      "貌": 3241,
      "貝": 3242,
      "貞": 3243,
      "負": 3244,
      "財": 3245,
      "貢": 3246,
      "貧": 3247,
      "貨": 3248,
      "販": 3249,
      "貪": 3250,
      "貫": 3251,
      "責": 3252,
      "貯": 3253,
      "貰": 3254,
      "貴": 3255,
      "貶": 3256,
      "買": 3257,
      "貸": 3258,
      "費": 3259,
      "貼": 3260,
      "貿": 3261,
      "賀": 3262,
      "賂": 3263,
      "賃": 3264,
      "賄": 3265,
      "資": 3266,
      "賊": 3267,
      "賎": 3268,
      "賑": 3269,
      "賓": 3270,
      "賛": 3271,
      "賜": 3272,
      "賞": 3273,
      "賠": 3274,
      "賢": 3275,
      "賣": 3276,
      "賤": 3277,
      "賦": 3278,
      "質": 3279,
      "賭": 3280,
      "購": 3281,
      "賽": 3282,
      "贄": 3283,
      "贅": 3284,
      "贈": 3285,
      "贋": 3286,
      "贔": 3287,
      "贖": 3288,
      "赤": 3289,
      "赦": 3290,
      "赫": 3291,
      "走": 3292,
      "赴": 3293,
      "起": 3294,
      "超": 3295,
      "越": 3296,
      "趙": 3297,
      "趣": 3298,
      "足": 3299,
      "趾": 3300,
      "跋": 3301,
      "距": 3302,
      "跟": 3303,
      "跡": 3304,
      "跨": 3305,
      "跪": 3306,
      "路": 3307,
      "跳": 3308,
      "践": 3309,
      "踉": 3310,
      "踊": 3311,
      "踏": 3312,
      "踝": 3313,
      "踪": 3314,
      "踵": 3315,
      "蹂": 3316,
      "蹄": 3317,
      "蹌": 3318,
      "蹟": 3319,
      "蹴": 3320,
      "躁": 3321,
      "躇": 3322,
      "躊": 3323,
      "躍": 3324,
      "躓": 3325,
      "躙": 3326,
      "躪": 3327,
      "身": 3328,
      "躯": 3329,
      "躾": 3330,
      "車": 3331,
      "軋": 3332,
      "軌": 3333,
      "軍": 3334,
      "軒": 3335,
      "軟": 3336,
      "転": 3337,
      "軸": 3338,
      "軽": 3339,
      "較": 3340,
      "載": 3341,
      "輌": 3342,
      "輔": 3343,
      "輝": 3344,
      "輩": 3345,
      "輪": 3346,
      "輸": 3347,
      "輻": 3348,
      "輿": 3349,
      "轄": 3350,
      "轍": 3351,
      "轟": 3352,
      "轢": 3353,
      "轴": 3354,
      "辛": 3355,
      "辜": 3356,
      "辞": 3357,
      "辟": 3358,
      "辣": 3359,
      "辰": 3360,
      "辱": 3361,
      "農": 3362,
      "辷": 3363,
      "边": 3364,
      "辺": 3365,
      "辻": 3366,
      "込": 3367,
      "辿": 3368,
      "迂": 3369,
      "迄": 3370,
      "迅": 3371,
      "迎": 3372,
      "近": 3373,
      "返": 3374,
      "这": 3375,
      "迦": 3376,
      "迫": 3377,
      "迭": 3378,
      "述": 3379,
      "迷": 3380,
      "迸": 3381,
      "追": 3382,
      "退": 3383,
      "送": 3384,
      "逃": 3385,
      "逅": 3386,
      "逆": 3387,
      "透": 3388,
      "逐": 3389,
      "途": 3390,
      "這": 3391,
      "通": 3392,
      "逝": 3393,
      "逞": 3394,
      "速": 3395,
      "造": 3396,
      "逢": 3397,
      "連": 3398,
      "逮": 3399,
      "週": 3400,
      "進": 3401,
      "逸": 3402,
      "逼": 3403,
      "遁": 3404,
      "遂": 3405,
      "遅": 3406,
      "遇": 3407,
      "遊": 3408,
      "運": 3409,
      "遍": 3410,
      "過": 3411,
      "道": 3412,
      "達": 3413,
      "違": 3414,
      "遙": 3415,
      "遜": 3416,
      "遠": 3417,
      "遡": 3418,
      "遣": 3419,
      "遥": 3420,
      "適": 3421,
      "遭": 3422,
      "遮": 3423,
      "遵": 3424,
      "遷": 3425,
      "選": 3426,
      "遺": 3427,
      "遼": 3428,
      "遽": 3429,
      "避": 3430,
      "邁": 3431,
      "邂": 3432,
      "還": 3433,
      "邇": 3434,
      "邊": 3435,
      "邏": 3436,
      "邑": 3437,
      "那": 3438,
      "邦": 3439,
      "邪": 3440,
      "邸": 3441,
      "郊": 3442,
      "郎": 3443,
      "郡": 3444,
      "部": 3445,
      "郭": 3446,
      "郵": 3447,
      "郷": 3448,
      "都": 3449,
      "鄉": 3450,
      "鄙": 3451,
      "酉": 3452,
      "酊": 3453,
      "酋": 3454,
      "酌": 3455,
      "配": 3456,
      "酒": 3457,
      "酔": 3458,
      "酢": 3459,
      "酩": 3460,
      "酪": 3461,
      "酬": 3462,
      "酵": 3463,
      "酷": 3464,
      "酸": 3465,
      "醇": 3466,
      "醍": 3467,
      "醐": 3468,
      "醒": 3469,
      "醜": 3470,
      "醤": 3471,
      "醫": 3472,
      "醸": 3473,
      "采": 3474,
      "釈": 3475,
      "里": 3476,
      "重": 3477,
      "野": 3478,
      "量": 3479,
      "金": 3480,
      "釘": 3481,
      "釜": 3482,
      "針": 3483,
      "釣": 3484,
      "鈍": 3485,
      "鈩": 3486,
      "鈴": 3487,
      "鉄": 3488,
      "鉈": 3489,
      "鉗": 3490,
      "鉛": 3491,
      "鉢": 3492,
      "鉤": 3493,
      "鉱": 3494,
      "鉾": 3495,
      "銀": 3496,
      "銃": 3497,
      "銅": 3498,
      "銘": 3499,
      "銛": 3500,
      "銭": 3501,
      "銮": 3502,
      "鋏": 3503,
      "鋒": 3504,
      "鋭": 3505,
      "鋲": 3506,
      "鋳": 3507,
      "鋸": 3508,
      "鋼": 3509,
      "錆": 3510,
      "錐": 3511,
      "錘": 3512,
      "錠": 3513,
      "錦": 3514,
      "錨": 3515,
      "錫": 3516,
      "錬": 3517,
      "錯": 3518,
      "録": 3519,
      "鍋": 3520,
      "鍔": 3521,
      "鍛": 3522,
      "鍬": 3523,
      "鍮": 3524,
      "鍵": 3525,
      "鍺": 3526,
      "鍼": 3527,
      "鎌": 3528,
      "鎖": 3529,
      "鎧": 3530,
      "鎮": 3531,
      "鏡": 3532,
      "鐘": 3533,
      "鐵": 3534,
      "鑑": 3535,
      "鑚": 3536,
      "鑢": 3537,
      "鑽": 3538,
      "铛": 3539,
      "镮": 3540,
      "長": 3541,
      "长": 3542,
      "門": 3543,
      "閂": 3544,
      "閃": 3545,
      "閉": 3546,
      "閊": 3547,
      "開": 3548,
      "閏": 3549,
      "閑": 3550,
      "間": 3551,
      "関": 3552,
      "閣": 3553,
      "閤": 3554,
      "閥": 3555,
      "閨": 3556,
      "閲": 3557,
      "閻": 3558,
      "闇": 3559,
      "闊": 3560,
      "闌": 3561,
      "闔": 3562,
      "闖": 3563,
      "闘": 3564,
      "闢": 3565,
      "间": 3566,
      "阁": 3567,
      "阜": 3568,
      "阨": 3569,
      "阪": 3570,
      "防": 3571,
      "阻": 3572,
      "阿": 3573,
      "陀": 3574,
      "附": 3575,
      "降": 3576,
      "限": 3577,
      "陛": 3578,
      "院": 3579,
      "陣": 3580,
      "除": 3581,
      "陥": 3582,
      "陪": 3583,
      "陰": 3584,
      "陳": 3585,
      "陵": 3586,
      "陶": 3587,
      "陸": 3588,
      "険": 3589,
      "陽": 3590,
      "隅": 3591,
      "隆": 3592,
      "隈": 3593,
      "隊": 3594,
      "階": 3595,
      "随": 3596,
      "隔": 3597,
      "隕": 3598,
      "隙": 3599,
      "際": 3600,
      "障": 3601,
      "隠": 3602,
      "隣": 3603,
      "險": 3604,
      "隷": 3605,
      "隻": 3606,
      "隼": 3607,
      "雀": 3608,
      "雁": 3609,
      "雄": 3610,
      "雅": 3611,
      "集": 3612,
      "雇": 3613,
      "雉": 3614,
      "雌": 3615,
      "雑": 3616,
      "雛": 3617,
      "離": 3618,
      "難": 3619,
      "雨": 3620,
      "雪": 3621,
      "雫": 3622,
      "雰": 3623,
      "雲": 3624,
      "零": 3625,
      "雷": 3626,
      "雹": 3627,
      "電": 3628,
      "需": 3629,
      "霆": 3630,
      "震": 3631,
      "霊": 3632,
      "霜": 3633,
      "霞": 3634,
      "霣": 3635,
      "霧": 3636,
      "霰": 3637,
      "露": 3638,
      "霹": 3639,
      "靂": 3640,
      "靄": 3641,
      "靈": 3642,
      "青": 3643,
      "静": 3644,
      "靜": 3645,
      "非": 3646,
      "靡": 3647,
      "面": 3648,
      "革": 3649,
      "靭": 3650,
      "靱": 3651,
      "靴": 3652,
      "鞄": 3653,
      "鞍": 3654,
      "鞘": 3655,
      "鞠": 3656,
      "鞭": 3657,
      "韓": 3658,
      "音": 3659,
      "韶": 3660,
      "韻": 3661,
      "響": 3662,
      "頁": 3663,
      "頂": 3664,
      "頃": 3665,
      "項": 3666,
      "順": 3667,
      "須": 3668,
      "預": 3669,
      "頑": 3670,
      "頒": 3671,
      "頓": 3672,
      "領": 3673,
      "頚": 3674,
      "頬": 3675,
      "頭": 3676,
      "頷": 3677,
      "頸": 3678,
      "頻": 3679,
      "頼": 3680,
      "顆": 3681,
      "題": 3682,
      "額": 3683,
      "顎": 3684,
      "顏": 3685,
      "顔": 3686,
      "顕": 3687,
      "願": 3688,
      "顛": 3689,
      "類": 3690,
      "顧": 3691,
      "预": 3692,
      "風": 3693,
      "颯": 3694,
      "飄": 3695,
      "风": 3696,
      "飛": 3697,
      "食": 3698,
      "飢": 3699,
      "飯": 3700,
      "飲": 3701,
      "飴": 3702,
      "飼": 3703,
      "飽": 3704,
      "飾": 3705,
      "餃": 3706,
      "餅": 3707,
      "餉": 3708,
      "養": 3709,
      "餌": 3710,
      "餐": 3711,
      "餓": 3712,
      "餞": 3713,
      "館": 3714,
      "餮": 3715,
      "饅": 3716,
      "饉": 3717,
      "饒": 3718,
      "饕": 3719,
      "饗": 3720,
      "首": 3721,
      "香": 3722,
      "馨": 3723,
      "馬": 3724,
      "馳": 3725,
      "馴": 3726,
      "駁": 3727,
      "駄": 3728,
      "駅": 3729,
      "駆": 3730,
      "駈": 3731,
      "駐": 3732,
      "駒": 3733,
      "駕": 3734,
      "駝": 3735,
      "駟": 3736,
      "駱": 3737,
      "駿": 3738,
      "騎": 3739,
      "騒": 3740,
      "験": 3741,
      "騙": 3742,
      "騨": 3743,
      "騰": 3744,
      "騾": 3745,
      "驕": 3746,
      "驚": 3747,
      "骨": 3748,
      "骸": 3749,
      "骼": 3750,
      "髄": 3751,
      "髏": 3752,
      "髑": 3753,
      "體": 3754,
      "高": 3755,
      "髪": 3756,
      "髭": 3757,
      "髮": 3758,
      "鬆": 3759,
      "鬚": 3760,
      "鬛": 3761,
      "鬣": 3762,
      "鬨": 3763,
      "鬱": 3764,
      "鬼": 3765,
      "魁": 3766,
      "魂": 3767,
      "魅": 3768,
      "魔": 3769,
      "魘": 3770,
      "魚": 3771,
      "魯": 3772,
      "鮎": 3773,
      "鮒": 3774,
      "鮪": 3775,
      "鮫": 3776,
      "鮭": 3777,
      "鮮": 3778,
      "鯉": 3779,
      "鯛": 3780,
      "鯨": 3781,
      "鯰": 3782,
      "鰍": 3783,
      "鰐": 3784,
      "鰯": 3785,
      "鰹": 3786,
      "鰻": 3787,
      "鱆": 3788,
      "鱈": 3789,
      "鱒": 3790,
      "鱗": 3791,
      "鱸": 3792,
      "鳥": 3793,
      "鳩": 3794,
      "鳫": 3795,
      "鳴": 3796,
      "鳶": 3797,
      "鴉": 3798,
      "鴎": 3799,
      "鴨": 3800,
      "鴬": 3801,
      "鵜": 3802,
      "鵞": 3803,
      "鵬": 3804,
      "鶏": 3805,
      "鶤": 3806,
      "鶴": 3807,
      "鷲": 3808,
      "鷹": 3809,
      "鷺": 3810,
      "鸞": 3811,
      "鸣": 3812,
      "鹸": 3813,
      "鹿": 3814,
      "麒": 3815,
      "麓": 3816,
      "麗": 3817,
      "麟": 3818,
      "麦": 3819,
      "麺": 3820,
      "麻": 3821,
      "麼": 3822,
      "麿": 3823,
      "黄": 3824,
      "黍": 3825,
      "黎": 3826,
      "黑": 3827,
      "黒": 3828,
      "黙": 3829,
      "黛": 3830,
      "點": 3831,
      "黷": 3832,
      "鼓": 3833,
      "鼠": 3834,
      "鼻": 3835,
      "齊": 3836,
      "齎": 3837,
      "齔": 3838,
      "齟": 3839,
      "齠": 3840,
      "齢": 3841,
      "齧": 3842,
      "龍": 3843,
      "간": 3844,
      "공": 3845,
      "과": 3846,
      "녕": 3847,
      "는": 3848,
      "시": 3849,
      "안": 3850,
      "우": 3851,
      "이": 3852,
      "존": 3853,
      "주": 3854,
      "지": 3855,
      "하": 3856,
      "": 3857,
      "": 3858,
      "": 3859,
      "": 3860,
      "": 3861,
      "": 3862,
      "": 3863,
      "": 3864,
      "": 3865,
      "": 3866,
      "": 3867,
      "": 3868,
      "": 3869,
      "": 3870,
      "": 3871,
      "": 3872,
      "": 3873,
      "": 3874,
      "": 3875,
      "": 3876,
      "": 3877,
      "": 3878,
      "": 3879,
      "": 3880,
      "": 3881,
      "": 3882,
      "": 3883,
      "": 3884,
      "": 3885,
      "": 3886,
      "": 3887,
      "": 3888,
      "": 3889,
      "": 3890,
      "": 3891,
      "": 3892,
      "": 3893,
      "": 3894,
      "": 3895,
      "": 3896,
      "": 3897,
      "": 3898,
      "": 3899,
      "": 3900,
      "": 3901,
      "": 3902,
      "": 3903,
      "": 3904,
      "": 3905,
      "": 3906,
      "": 3907,
      "": 3908,
      "": 3909,
      "": 3910,
      "": 3911,
      "": 3912,
      "": 3913,
      "": 3914,
      "": 3915,
      "": 3916,
      "": 3917,
      "": 3918,
      "": 3919,
      "": 3920,
      "": 3921,
      "": 3922,
      "": 3923,
      "": 3924,
      "": 3925,
      "": 3926,
      "": 3927,
      "": 3928,
      "": 3929,
      "": 3930,
      "": 3931,
      "": 3932,
      "": 3933,
      "": 3934,
      "": 3935,
      "": 3936,
      "": 3937,
      "": 3938,
      "": 3939,
      "": 3940,
      "": 3941,
      "": 3942,
      "": 3943,
      "": 3944,
      "": 3945,
      "": 3946,
      "": 3947,
      "": 3948,
      "": 3949,
      "": 3950,
      "": 3951,
      "": 3952,
      "": 3953,
      "": 3954,
      "": 3955,
      "": 3956,
      "": 3957,
      "": 3958,
      "": 3959,
      "": 3960,
      "": 3961,
      "": 3962,
      "": 3963,
      "": 3964,
      "": 3965,
      "": 3966,
      "": 3967,
      "": 3968,
      "": 3969,
      "": 3970,
      "": 3971,
      "": 3972,
      "": 3973,
      "": 3974,
      "": 3975,
      "": 3976,
      "": 3977,
      "": 3978,
      "": 3979,
      "": 3980,
      "": 3981,
      "": 3982,
      "": 3983,
      "": 3984,
      "兩": 3985,
      "禮": 3986,
      "﨑": 3987,
      "！": 3988,
      "＃": 3989,
      "＄": 3990,
      "％": 3991,
      "＆": 3992,
      "（": 3993,
      "）": 3994,
      "＊": 3995,
      "＋": 3996,
      "，": 3997,
      "－": 3998,
      "．": 3999,
      "／": 4000,
      "０": 4001,
      "１": 4002,
      "２": 4003,
      "３": 4004,
      "４": 4005,
      "５": 4006,
      "６": 4007,
      "７": 4008,
      "８": 4009,
      "９": 4010,
      "：": 4011,
      "；": 4012,
      "＜": 4013,
      "＝": 4014,
      "＞": 4015,
      "？": 4016,
      "＠": 4017,
      "Ａ": 4018,
      "Ｂ": 4019,
      "Ｃ": 4020,
      "Ｄ": 4021,
      "Ｅ": 4022,
      "Ｆ": 4023,
      "Ｇ": 4024,
      "Ｈ": 4025,
      "Ｉ": 4026,
      "Ｊ": 4027,
      "Ｋ": 4028,
      "Ｌ": 4029,
      "Ｍ": 4030,
      "Ｎ": 4031,
      "Ｏ": 4032,
      "Ｐ": 4033,
      "Ｑ": 4034,
      "Ｒ": 4035,
      "Ｓ": 4036,
      "Ｔ": 4037,
      "Ｕ": 4038,
      "Ｖ": 4039,
      "Ｗ": 4040,
      "Ｘ": 4041,
      "Ｙ": 4042,
      "Ｚ": 4043,
      "［": 4044,
      "＼": 4045,
      "］": 4046,
      "＾": 4047,
      "＿": 4048,
      "｀": 4049,
      "ａ": 4050,
      "ｂ": 4051,
      "ｃ": 4052,
      "ｄ": 4053,
      "ｅ": 4054,
      "ｆ": 4055,
      "ｇ": 4056,
      "ｈ": 4057,
      "ｉ": 4058,
      "ｊ": 4059,
      "ｋ": 4060,
      "ｌ": 4061,
      "ｍ": 4062,
      "ｎ": 4063,
      "ｏ": 4064,
      "ｐ": 4065,
      "ｑ": 4066,
      "ｒ": 4067,
      "ｓ": 4068,
      "ｔ": 4069,
      "ｕ": 4070,
      "ｖ": 4071,
      "ｗ": 4072,
      "ｘ": 4073,
      "ｙ": 4074,
      "ｚ": 4075,
      "｜": 4076,
      "～": 4077,
      "｡": 4078,
      "｢": 4079,
      "｣": 4080,
      "､": 4081,
      "･": 4082,
      "ｧ": 4083,
      "ｨ": 4084,
      "ｩ": 4085,
      "ｪ": 4086,
      "ｫ": 4087,
      "ｬ": 4088,
      "ｭ": 4089,
      "ｮ": 4090,
      "ｯ": 4091,
      "ｰ": 4092,
      "ｱ": 4093,
      "ｲ": 4094,
      "ｳ": 4095,
      "ｴ": 4096,
      "ｵ": 4097,
      "ｶ": 4098,
      "ｷ": 4099,
      "ｸ": 4100,
      "ｹ": 4101,
      "ｺ": 4102,
      "ｻ": 4103,
      "ｼ": 4104,
      "ｽ": 4105,
      "ｾ": 4106,
      "ｿ": 4107,
      "ﾀ": 4108,
      "ﾁ": 4109,
      "ﾂ": 4110,
      "ﾃ": 4111,
      "ﾄ": 4112,
      "ﾅ": 4113,
      "ﾆ": 4114,
      "ﾈ": 4115,
      "ﾉ": 4116,
      "ﾊ": 4117,
      "ﾋ": 4118,
      "ﾌ": 4119,
      "ﾍ": 4120,
      "ﾎ": 4121,
      "ﾏ": 4122,
      "ﾐ": 4123,
      "ﾑ": 4124,
      "ﾒ": 4125,
      "ﾓ": 4126,
      "ﾔ": 4127,
      "ﾕ": 4128,
      "ﾖ": 4129,
      "ﾗ": 4130,
      "ﾘ": 4131,
      "ﾙ": 4132,
      "ﾚ": 4133,
      "ﾛ": 4134,
      "ﾜ": 4135,
      "ﾝ": 4136,
      "ﾞ": 4137,
      "ﾟ": 4138,
      "�": 4139,
      "##コ": 4140,
      "##ー": 4141,
      "##ド": 4142,
      "## ": 4143,
      "##7": 4144,
      "##\"": 4145,
      "##ニ": 4146,
      "##ロ": 4147,
      "##フ": 4148,
      "##と": 4149,
      "##は": 4150,
      "##途": 4151,
      "##中": 4152,
      "##で": 4153,
      "##会": 4154,
      "##っ": 4155,
      "##た": 4156,
      "##な": 4157,
      "##生": 4158,
      "##の": 4159,
      "##話": 4160,
      "##聞": 4161,
      "##い": 4162,
      "##わ": 4163,
      "##教": 4164,
      "##師": 4165,
      "##ラ": 4166,
      "##ッ": 4167,
      "##グ": 4168,
      "##･": 4169,
      "##デ": 4170,
      "##ィ": 4171,
      "##義": 4172,
      "##弟": 4173,
      "##Ｄ": 4174,
      "##Ｅ": 4175,
      "##Ａ": 4176,
      "##す": 4177,
      "##ご": 4178,
      "##ネ": 4179,
      "##タ": 4180,
      "##じ": 4181,
      "##ゃ": 4182,
      "##全": 4183,
      "##国": 4184,
      "##紙": 4185,
      "##も": 4186,
      "##ね": 4187,
      "##て": 4188,
      "##る": 4189,
      "##怖": 4190,
      "##が": 4191,
      "##君": 4192,
      "##失": 4193,
      "##望": 4194,
      "##か": 4195,
      "##知": 4196,
      "##れ": 4197,
      "##よ": 4198,
      "##、": 4199,
      "##艦": 4200,
      "##長": 4201,
      "##加": 4202,
      "##さ": 4203,
      "##せ": 4204,
      "##く": 4205,
      "##イ": 4206,
      "##料": 4207,
      "##理": 4208,
      "##殺": 4209,
      "##時": 4210,
      "##？": 4211,
      "##に": 4212,
      "##9": 4213,
      "##0": 4214,
      "##ポ": 4215,
      "##ン": 4216,
      "##あ": 4217,
      "##ぞ": 4218,
      "##急": 4219,
      "##車": 4220,
      "##エ": 4221,
      "##ジ": 4222,
      "##を": 4223,
      "##掛": 4224,
      "##け": 4225,
      "##オ": 4226,
      "##ナ": 4227,
      "##　": 4228,
      "##久": 4229,
      "##し": 4230,
      "##ぶ": 4231,
      "##り": 4232,
      "##つ": 4233,
      "##然": 4234,
      "##返": 4235,
      "##そ": 4236,
      "##う": 4237,
      "##俺": 4238,
      "##バ": 4239,
      "##カ": 4240,
      "##ん": 4241,
      "##球": 4242,
      "##図": 4243,
      "##月": 4244,
      "##描": 4245,
      "##画": 4246,
      "##ま": 4247,
      "##力": 4248,
      "##警": 4249,
      "##察": 4250,
      "##だ": 4251,
      "##こ": 4252,
      "##正": 4253,
      "##レ": 4254,
      "##放": 4255,
      "##思": 4256,
      "##命": 4257,
      "##令": 4258,
      "##！": 4259,
      "##め": 4260,
      "##ら": 4261,
      "##吹": 4262,
      "##ケ": 4263,
      "##氏": 4264,
      "##ど": 4265,
      "##早": 4266,
      "##交": 4267,
      "##渉": 4268,
      "##き": 4269,
      "##立": 4270,
      "##場": 4271,
      "##。": 4272,
      "##済": 4273,
      "##む": 4274,
      "##死": 4275,
      "##起": 4276,
      "##責": 4277,
      "##任": 4278,
      "##私": 4279,
      "##有": 4280,
      "##言": 4281,
      "##お": 4282,
      "##べ": 4283,
      "##態": 4284,
      "##進": 4285,
      "##行": 4286,
      "##-": 4287,
      "##ス": 4288,
      "##サ": 4289,
      "##関": 4290,
      "##事": 4291,
      "##許": 4292,
      "##発": 4293,
      "##ベ": 4294,
      "##ル": 4295,
      "##）": 4296,
      "##ち": 4297,
      "##ク": 4298,
      "##ソ": 4299,
      "##喰": 4300,
      "##え": 4301,
      "##モ": 4302,
      "##プ": 4303,
      "##社": 4304,
      "##耳": 4305,
      "##武": 4306,
      "##器": 4307,
      "##綺": 4308,
      "##麗": 4309,
      "##マ": 4310,
      "##テ": 4311,
      "##ヌ": 4312,
      "##働": 4313,
      "##ば": 4314,
      "##疲": 4315,
      "##ピ": 4316,
      "##ュ": 4317,
      "##記": 4318,
      "##録": 4319,
      "##み": 4320,
      "##ろ": 4321,
      "##ボ": 4322,
      "##遠": 4323,
      "##鏡": 4324,
      "##視": 4325,
      "##野": 4326,
      "##(": 4327,
      "##F": 4328,
      "##O": 4329,
      "##V": 4330,
      "##)": 4331,
      "##角": 4332,
      "##度": 4333,
      "##計": 4334,
      "##算": 4335,
      "##示": 4336,
      "##l": 4337,
      "##i": 4338,
      "##n": 4339,
      "##e": 4340,
      "##a": 4341,
      "##r": 4342,
      "##指": 4343,
      "##定": 4344,
      "##必": 4345,
      "##要": 4346,
      "##分": 4347,
      "##編": 4348,
      "##集": 4349,
      "##表": 4350,
      "##僕": 4351,
      "##三": 4352,
      "##脚": 4353,
      "##当": 4354,
      "##.": 4355,
      "##終": 4356,
      "##捕": 4357,
      "##先": 4358,
      "##や": 4359,
      "##日": 4360,
      "##整": 4361,
      "##出": 4362,
      "##来": 4363,
      "##府": 4364,
      "##仕": 4365,
      "##開": 4366,
      "##?": 4367,
      "##腕": 4368,
      "##愛": 4369,
      "##具": 4370,
      "##革": 4371,
      "##金": 4372,
      "##ダ": 4373,
      "##気": 4374,
      "##リ": 4375,
      "##ァ": 4376,
      "##束": 4377,
      "##買": 4378,
      "##人": 4379,
      "##危": 4380,
      "##険": 4381,
      "##陥": 4382,
      "##寮": 4383,
      "##部": 4384,
      "##屋": 4385,
      "##居": 4386,
      "##無": 4387,
      "##信": 4388,
      "##鉄": 4389,
      "##塔": 4390,
      "##内": 4391,
      "##2": 4392,
      "##処": 4393,
      "##害": 4394,
      "##及": 4395,
      "##ぼ": 4396,
      "##者": 4397,
      "##ビ": 4398,
      "##輩": 4399,
      "##々": 4400,
      "##今": 4401,
      "##年": 4402,
      "##強": 4403,
      "##チ": 4404,
      "##ム": 4405,
      "##取": 4406,
      "##組": 4407,
      "##S": 4408,
      "##ョ": 4409,
      "##王": 4410,
      "##ト": 4411,
      "##ワ": 4412,
      "##負": 4413,
      "##ギ": 4414,
      "##世": 4415,
      "##界": 4416,
      "##パ": 4417,
      "##手": 4418,
      "##入": 4419,
      "##赤": 4420,
      "##♪": 4421,
      "##ミ": 4422,
      "##・": 4423,
      "##彼": 4424,
      "##下": 4425,
      "##勇": 4426,
      "##喜": 4427,
      "##乗": 4428,
      "##間": 4429,
      "##，": 4430,
      "##諸": 4431,
      "##宗": 4432,
      "##派": 4433,
      "##異": 4434,
      "##災": 4435,
      "##偉": 4436,
      "##大": 4437,
      "##審": 4438,
      "##判": 4439,
      "##荷": 4440,
      "##解": 4441,
      "##誉": 4442,
      "##向": 4443,
      "##ゴ": 4444,
      "##ェ": 4445,
      "##ズ": 4446,
      "##シ": 4447,
      "##名": 4448,
      "##男": 4449,
      "##似": 4450,
      "##配": 4451,
      "##専": 4452,
      "##門": 4453,
      "##家": 4454,
      "##ゲ": 4455,
      "##近": 4456,
      "##寄": 4457,
      "##切": 4458,
      "##貰": 4459,
      "##ザ": 4460,
      "##女": 4461,
      "##笑": 4462,
      "##一": 4463,
      "##連": 4464,
      "##件": 4465,
      "##最": 4466,
      "##麻": 4467,
      "##薬": 4468,
      "##売": 4469,
      "##自": 4470,
      "##等": 4471,
      "##奪": 4472,
      "##去": 4473,
      "##ぁ": 4474,
      "##哲": 4475,
      "##学": 4476,
      "##基": 4477,
      "##づ": 4478,
      "##対": 4479,
      "##告": 4480,
      "##訴": 4481,
      "##何": 4482,
      "##写": 4483,
      "##真": 4484,
      "##撮": 4485,
      "##直": 4486,
      "##少": 4487,
      "##晴": 4488,
      "##敗": 4489,
      "##階": 4490,
      "##丈": 4491,
      "##夫": 4492,
      "##暗": 4493,
      "##ャ": 4494,
      "##達": 4495,
      "##宇": 4496,
      "##宙": 4497,
      "##へ": 4498,
      "##戦": 4499,
      "##闘": 4500,
      "##変": 4501,
      "##願": 4502,
      "##貸": 4503,
      "##燃": 4504,
      "##削": 4505,
      "##除": 4506,
      "##権": 4507,
      "##限": 4508,
      "##確": 4509,
      "##案": 4510,
      "##d": 4511,
      "##t": 4512,
      "##!": 4513,
      "##ぇ": 4514,
      "##前": 4515,
      "##見": 4516,
      "##張": 4517,
      "##新": 4518,
      "##悪": 4519,
      "##ガ": 4520,
      "##キ": 4521,
      "##合": 4522,
      "##逆": 4523,
      "##方": 4524,
      "##良": 4525,
      "##為": 4526,
      "##眠": 4527,
      "##忘": 4528,
      "##回": 4529,
      "##袋": 4530,
      "##次": 4531,
      "##服": 4532,
      "##撃": 4533,
      "##約": 4534,
      "##6": 4535,
      "##壮": 4536,
      "##価": 4537,
      "##値": 4538,
      "##上": 4539,
      "##症": 4540,
      "##状": 4541,
      "##兆": 4542,
      "##候": 4543,
      "##―": 4544,
      "##地": 4545,
      "##熟": 4546,
      "##素": 4547,
      "##動": 4548,
      "##捜": 4549,
      "##索": 4550,
      "##救": 4551,
      "##助": 4552,
      "##遣": 4553,
      "##C": 4554,
      "##o": 4555,
      "##m": 4556,
      "##落": 4557,
      "##着": 4558,
      "##5": 4559,
      "##万": 4560,
      "##本": 4561,
      "##能": 4562,
      "##寝": 4563,
      "##ハ": 4564,
      "##珍": 4565,
      "##所": 4566,
      "##速": 4567,
      "##果": 4568,
      "##狼": 4569,
      "##狽": 4570,
      "##外": 4571,
      "##３": 4572,
      "##０": 4573,
      "##梅": 4574,
      "##林": 4575,
      "##備": 4576,
      "##室": 4577,
      "##抜": 4578,
      "##才": 4579,
      "##ぜ": 4580,
      "##ヘ": 4581,
      "##（": 4582,
      "##梶": 4583,
      "##形": 4584,
      "##作": 4585,
      "##語": 4586,
      "##識": 4587,
      "##ぐ": 4588,
      "##模": 4589,
      "##倣": 4590,
      "##犯": 4591,
      "##子": 4592,
      "##び": 4593,
      "##応": 4594,
      "##電": 4595,
      "##術": 4596,
      "##昌": 4597,
      "##代": 4598,
      "##ツ": 4599,
      "##好": 4600,
      "##3": 4601,
      "##g": 4602,
      "##;": 4603,
      "##ず": 4604,
      "##欲": 4605,
      "##怒": 4606,
      "##土": 4607,
      "##初": 4608,
      "##期": 4609,
      "##接": 4610,
      "##１": 4611,
      "##ブ": 4612,
      "##ユ": 4613,
      "##ヤ": 4614,
      "##結": 4615,
      "##婚": 4616,
      "##族": 4617,
      "##背": 4618,
      "##ア": 4619,
      "##降": 4620,
      "##書": 4621,
      "##供": 4622,
      "##引": 4623,
      "##越": 4624,
      "##借": 4625,
      "##物": 4626,
      "##頭": 4627,
      "##靴": 4628,
      "##屈": 4629,
      "##辱": 4630,
      "##求": 4631,
      "##儀": 4632,
      "##式": 4633,
      "##同": 4634,
      "##朝": 4635,
      "##病": 4636,
      "##院": 4637,
      "##椅": 4638,
      "##座": 4639,
      "##区": 4640,
      "##雇": 4641,
      "##庭": 4642,
      "##塗": 4643,
      "##原": 4644,
      "##船": 4645,
      "##我": 4646,
      "##友": 4647,
      "##占": 4648,
      "##領": 4649,
      "##設": 4650,
      "##企": 4651,
      "##業": 4652,
      "##ぱ": 4653,
      "##神": 4654,
      "##支": 4655,
      "##断": 4656,
      "##ょ": 4657,
      "##横": 4658,
      "##帰": 4659,
      "##首": 4660,
      "##相": 4661,
      "##辞": 4662,
      "##ざ": 4663,
      "##得": 4664,
      "##顔": 4665,
      "##報": 4666,
      "##惑": 4667,
      "##星": 4668,
      "##称": 4669,
      "##妬": 4670,
      "##メ": 4671,
      "##休": 4672,
      "##乱": 4673,
      "##用": 4674,
      "##震": 4675,
      "##走": 4676,
      "##検": 4677,
      "##庁": 4678,
      "##道": 4679,
      "##陣": 4680,
      "##多": 4681,
      "##数": 4682,
      "##飛": 4683,
      "##込": 4684,
      "##英": 4685,
      "##雄": 4686,
      "##ほ": 4687,
      "##空": 4688,
      "##持": 4689,
      "##v": 4690,
      "##注": 4691,
      "##釈": 4692,
      "##例": 4693,
      "##目": 4694,
      "##５": 4695,
      "##歳": 4696,
      "##二": 4697,
      "##堂": 4698,
      "##登": 4699,
      "##獣": 4700,
      "##馬": 4701,
      "##刀": 4702,
      "##槍": 4703,
      "##成": 4704,
      "##嘘": 4705,
      "##安": 4706,
      "##戻": 4707,
      "##奴": 4708,
      "##送": 4709,
      "##セ": 4710,
      "##:": 4711,
      "##%": 4712,
      "##1": 4713,
      "##P": 4714,
      "##U": 4715,
      "##使": 4716,
      "##率": 4717,
      "##4": 4718,
      "##心": 4719,
      "##ヴ": 4720,
      "##身": 4721,
      "##楽": 4722,
      "##A": 4723,
      "##級": 4724,
      "##重": 4725,
      "##罪": 4726,
      "##被": 4727,
      "##未": 4728,
      "##明": 4729,
      "##妄": 4730,
      "##u": 4731,
      "##k": 4732,
      "##満": 4733,
      "##足": 4734,
      "##口": 4735,
      "##頂": 4736,
      "##戴": 4737,
      "##ゾ": 4738,
      "##夢": 4739,
      "##以": 4740,
      "##続": 4741,
      "##通": 4742,
      "##路": 4743,
      "##L": 4744,
      "##I": 4745,
      "##他": 4746,
      "##比": 4747,
      "##違": 4748,
      "##b": 4749,
      "##s": 4750,
      "##h": 4751,
      "##w": 4752,
      "##y": 4753,
      "##付": 4754,
      "##振": 4755,
      "##撒": 4756,
      "##元": 4757,
      "##都": 4758,
      "##帆": 4759,
      "##列": 4760,
      "##述": 4761,
      "##可": 4762,
      "##受": 4763,
      "##際": 4764,
      "##置": 4765,
      "##偶": 4766,
      "##致": 4767,
      "##緒": 4768,
      "##ヒ": 4769,
      "##２": 4770,
      "##半": 4771,
      "##４": 4772,
      "##迎": 4773,
      "##主": 4774,
      "##仲": 4775,
      "##襲": 4776,
      "##古": 4777,
      "##住": 4778,
      "##繋": 4779,
      "##箱": 4780,
      "##保": 4781,
      "##証": 4782,
      "##悠": 4783,
      "##里": 4784,
      "##縫": 4785,
      "##葬": 4786,
      "##第": 4787,
      "##壕": 4788,
      "##裁": 4789,
      "##伏": 4790,
      "##条": 4791,
      "##矢": 4792,
      "##意": 4793,
      "##員": 4794,
      "##拠": 4795,
      "##迷": 4796,
      "##羊": 4797,
      "##面": 4798,
      "##8": 4799,
      "##活": 4800,
      "##番": 4801,
      "##腎": 4802,
      "##臓": 4803,
      "##旅": 4804,
      "##p": 4805,
      "##f": 4806,
      "##_": 4807,
      "##標": 4808,
      "##x": 4809,
      "##c": 4810,
      "##,": 4811,
      "##線": 4812,
      "##妻": 4813,
      "##皆": 4814,
      "##ォ": 4815,
      "##隠": 4816,
      "##破": 4817,
      "##壊": 4818,
      "##熱": 4819,
      "##父": 4820,
      "##払": 4821,
      "##苦": 4822,
      "##高": 4823,
      "##機": 4824,
      "##密": 4825,
      "##握": 4826,
      "##食": 4827,
      "##点": 4828,
      "##げ": 4829,
      "##税": 4830,
      "##歴": 4831,
      "##個": 4832,
      "##的": 4833,
      "##問": 4834,
      "##題": 4835,
      "##絡": 4836,
      "##減": 4837,
      "##冷": 4838,
      "##光": 4839,
      "##遺": 4840,
      "##伝": 4841,
      "##枡": 4842,
      "##嗾": 4843,
      "##ウ": 4844,
      "##免": 4845,
      "##疫": 4846,
      "##技": 4847,
      "##別": 4848,
      "##後": 4849,
      "##溝": 4850,
      "##犬": 4851,
      "##特": 4852,
      "##構": 4853,
      "##源": 4854,
      "##不": 4855,
      "##枚": 4856,
      "##夏": 4857,
      "##美": 4858,
      "##桜": 4859,
      "##ｱ": 4860,
      "##ﾙ": 4861,
      "##ﾏ": 4862,
      "##ﾝ": 4863,
      "##誰": 4864,
      "##曜": 4865,
      "##論": 4866,
      "##徒": 4867,
      "##共": 4868,
      "##駄": 4869,
      "##耽": 4870,
      "##験": 4871,
      "##資": 4872,
      "##格": 4873,
      "##兵": 4874,
      "##士": 4875,
      "##舞": 4876,
      "##十": 4877,
      "##貴": 4878,
      "##反": 4879,
      "##旗": 4880,
      "##翻": 4881,
      "##己": 4882,
      "##紹": 4883,
      "##介": 4884,
      "##管": 4885,
      "##穏": 4886,
      "##御": 4887,
      "##叡": 4888,
      "##智": 4889,
      "##離": 4890,
      "##与": 4891,
      "##訓": 4892,
      "##戒": 4893,
      "##避": 4894,
      "##恥": 4895,
      "##懲": 4896,
      "##罰": 4897,
      "##掟": 4898,
      "##棚": 4899,
      "##ﾊ": 4900,
      "##ﾟ": 4901,
      "##ﾆ": 4902,
      "##ｯ": 4903,
      "##ｸ": 4904,
      "##情": 4905,
      "##葉": 4906,
      "##D": 4907,
      "##B": 4908,
      "##消": 4909,
      "##ぬ": 4910,
      "##抑": 4911,
      "##文": 4912,
      "##章": 4913,
      "##嬉": 4914,
      "##体": 4915,
      "##公": 4916,
      "##輪": 4917,
      "##聖": 4918,
      "##排": 4919,
      "##黒": 4920,
      "##白": 4921,
      "##ヨ": 4922,
      "##灯": 4923,
      "##街": 4924,
      "##採": 4925,
      "##法": 4926,
      "##伍": 4927,
      "##易": 4928,
      "##懸": 4929,
      "##念": 4930,
      "##魚": 4931,
      "##雷": 4932,
      "##渡": 4933,
      "##頃": 4934,
      "##逃": 4935,
      "##類": 4936,
      "##捏": 4937,
      "##造": 4938,
      "##頼": 4939,
      "##選": 4940,
      "##択": 4941,
      "##湯": 4942,
      "##浸": 4943,
      "##説": 4944,
      "##斬": 4945,
      "##－": 4946,
      "##末": 4947,
      "##予": 4948,
      "##ひ": 4949,
      "##揺": 4950,
      "##詫": 4951,
      "##'": 4952,
      "##品": 4953,
      "##夜": 4954,
      "##遅": 4955,
      "##普": 4956,
      "##六": 4957,
      "##幾": 4958,
      "##招": 4959,
      "##待": 4960,
      "##栄": 4961,
      "##Ｋ": 4962,
      "##ゥ": 4963,
      "##謀": 4964,
      "##崎": 4965,
      "##伊": 4966,
      "##勢": 4967,
      "##島": 4968,
      "##ホ": 4969,
      "##印": 4970,
      "##預": 4971,
      "##読": 4972,
      "##導": 4973,
      "##慈": 4974,
      "##悲": 4975,
      "##啓": 4976,
      "##典": 4977,
      "##律": 4978,
      "##民": 4979,
      "##火": 4980,
      "##獄": 4981,
      "##就": 4982,
      "##疑": 4983,
      "##覚": 4984,
      "##決": 4985,
      "##猫": 4986,
      "##陽": 4987,
      "##感": 4988,
      "##倒": 4989,
      "##訊": 4990,
      "##係": 4991,
      "##幸": 4992,
      "##福": 4993,
      "##性": 4994,
      "##止": 4995,
      "##「": 4996,
      "##闇": 4997,
      "##森": 4998,
      "##」": 4999,
      "##棟": 5000,
      "##実": 5001,
      "##了": 5002,
      "##勧": 5003,
      "##官": 5004,
      "##憶": 5005,
      "##投": 5006,
      "##掻": 5007,
      "##晩": 5008,
      "##認": 5009,
      "##政": 5010,
      "##移": 5011,
      "##託": 5012,
      "##海": 5013,
      "##打": 5014,
      "##損": 5015,
      "##雪": 5016,
      "##騒": 5017,
      "##ぎ": 5018,
      "##歌": 5019,
      "##練": 5020,
      "##容": 5021,
      "##赦": 5022,
      "##延": 5023,
      "##弁": 5024,
      "##護": 5025,
      "##爆": 5026,
      "##弾": 5027,
      "##現": 5028,
      "##墓": 5029,
      "##兄": 5030,
      "##ペ": 5031,
      "##酔": 5032,
      "##七": 5033,
      "##史": 5034,
      "##剣": 5035,
      "##客": 5036,
      "##衛": 5037,
      "##団": 5038,
      "##将": 5039,
      "##務": 5040,
      "##色": 5041,
      "##ゼ": 5042,
      "##巻": 5043,
      "##固": 5044,
      "##烙": 5045,
      "##押": 5046,
      "##校": 5047,
      "##提": 5048,
      "##育": 5049,
      "##館": 5050,
      "##焼": 5051,
      "##踏": 5052,
      "##考": 5053,
      "##親": 5054,
      "##携": 5055,
      "##帯": 5056,
      "##舌": 5057,
      "##周": 5058,
      "##辺": 5059,
      "##侵": 5060,
      "##準": 5061,
      "##端": 5062,
      "##功": 5063,
      "##産": 5064,
      "##低": 5065,
      "##Z": 5066,
      "##錠": 5067,
      "##演": 5068,
      "##奏": 5069,
      "##母": 5070,
      "##青": 5071,
      "##～": 5072,
      "##遊": 5073,
      "##恵": 5074,
      "##司": 5075,
      "##暮": 5076,
      "##余": 5077,
      "##統": 5078,
      "##呼": 5079,
      "##皮": 5080,
      "##肉": 5081,
      "##市": 5082,
      "##運": 5083,
      "##昼": 5084,
      "##ノ": 5085,
      "##五": 5086,
      "##歩": 5087,
      "##守": 5088,
      "##募": 5089,
      "##復": 5090,
      "##呪": 5091,
      "##纏": 5092,
      "##恐": 5093,
      "##賜": 5094,
      "##策": 5095,
      "##壁": 5096,
      "##査": 5097,
      "##甘": 5098,
      "##香": 5099,
      "##水": 5100,
      "##叔": 5101,
      "##衣": 5102,
      "##亡": 5103,
      "##劇": 5104,
      "##敷": 5105,
      "##憑": 5106,
      "##舐": 5107,
      "##音": 5108,
      "##坊": 5109,
      "##両": 5110,
      "##抱": 5111,
      "##再": 5112,
      "##建": 5113,
      "##飲": 5114,
      "##酒": 5115,
      "##転": 5116,
      "##毒": 5117,
      "##談": 5118,
      "##謝": 5119,
      "##炊": 5120,
      "##四": 5121,
      "##祖": 5122,
      "##懐": 5123,
      "##段": 5124,
      "##化": 5125,
      "##@": 5126,
      "##K": 5127,
      "##追": 5128,
      "##H": 5129,
      "##T": 5130,
      "##M": 5131,
      "##詳": 5132,
      "##覧": 5133,
      "##跡": 5134,
      "##帽": 5135,
      "##申": 5136,
      "##訳": 5137,
      "##誕": 5138,
      "##６": 5139,
      "##該": 5140,
      "##礼": 5141,
      "##衆": 5142,
      "##西": 5143,
      "##課": 5144,
      "##試": 5145,
      "##風": 5146,
      "##盲": 5147,
      "##妨": 5148,
      "##秋": 5149,
      "##遂": 5150,
      "##嫌": 5151,
      "##宅": 5152,
      "##銃": 5153,
      "##揮": 5154,
      "##騎": 5155,
      "##制": 5156,
      "##圧": 5157,
      "##始": 5158,
      "##勝": 5159,
      "##利": 5160,
      "##｢": 5161,
      "##敬": 5162,
      "##寸": 5163,
      "##棒": 5164,
      "##石": 5165,
      "##混": 5166,
      "##位": 5167,
      "##慣": 5168,
      "##探": 5169,
      "##突": 5170,
      "##滅": 5171,
      "##山": 5172,
      "##那": 5173,
      "##旦": 5174,
      "##軍": 5175,
      "##宰": 5176,
      "##議": 5177,
      "##茶": 5178,
      "##規": 5179,
      "##則": 5180,
      "##絶": 5181,
      "##捨": 5182,
      "##仮": 5183,
      "##像": 5184,
      "##評": 5185,
      "##E": 5186,
      "##X": 5187,
      "##存": 5188,
      "##効": 5189,
      "##深": 5190,
      "##吸": 5191,
      "##宝": 5192,
      "##恋": 5193,
      "##忙": 5194,
      "##暇": 5195,
      "##花": 5196,
      "##嫁": 5197,
      "##興": 5198,
      "##味": 5199,
      "##担": 5200,
      "##店": 5201,
      "##盗": 5202,
      "##烏": 5203,
      "##修": 5204,
      "##工": 5205,
      "##独": 5206,
      "##荒": 5207,
      "##過": 5208,
      "##字": 5209,
      "##声": 5210,
      "##科": 5211,
      "##博": 5212,
      "##従": 5213,
      "##広": 5214,
      "##魅": 5215,
      "##｡": 5216,
      "##協": 5217,
      "##維": 5218,
      "##努": 5219,
      "##換": 5220,
      "##推": 5221,
      "##測": 5222,
      "##小": 5223,
      "##更": 5224,
      "##也": 5225,
      "##傷": 5226,
      "##紋": 5227,
      "##残": 5228,
      "##僚": 5229,
      "##旧": 5230,
      "##改": 5231,
      "##郎": 5232,
      "##憎": 5233,
      "##愉": 5234,
      "##快": 5235,
      "##]": 5236,
      "##腹": 5237,
      "##ぺ": 5238,
      "##調": 5239,
      "##N": 5240,
      "##雨": 5241,
      "##由": 5242,
      "##J": 5243,
      "##囲": 5244,
      "##》": 5245,
      "##難": 5246,
      "##悔": 5247,
      "##週": 5248,
      "##優": 5249,
      "##希": 5250,
      "##秘": 5251,
      "##─": 5252,
      "##R": 5253,
      "##聴": 5254,
      "##狙": 5255,
      "##千": 5256,
      "##匹": 5257,
      "##浴": 5258,
      "##沢": 5259,
      "##秒": 5260,
      "##完": 5261,
      "##璧": 5262,
      "##剖": 5263,
      "##非": 5264,
      "##常": 5265,
      "##z": 5266,
      "##班": 5267,
      "##窓": 5268,
      "##息": 5269,
      "##園": 5270,
      "##程": 5271,
      "##底": 5272,
      "##粉": 5273,
      "##砕": 5274,
      "##健": 5275,
      "##康": 5276,
      "##罠": 5277,
      "##脱": 5278,
      "##噴": 5279,
      "##射": 5280,
      "##貨": 5281,
      "##忠": 5282,
      "##役": 5283,
      "##静": 5284,
      "##流": 5285,
      "##誠": 5286,
      "##授": 5287,
      "##質": 5288,
      "##頑": 5289,
      "##巡": 5290,
      "##航": 5291,
      "##．": 5292,
      "##搭": 5293,
      "##載": 5294,
      "##穴": 5295,
      "##鹿": 5296,
      "##互": 5297,
      "##飯": 5298,
      "##京": 5299,
      "##影": 5300,
      "##響": 5301,
      "##咳": 5302,
      "##銀": 5303,
      "##片": 5304,
      "##+": 5305,
      "##=": 5306,
      "##百": 5307,
      "##９": 5308,
      "##午": 5309,
      "##号": 5310,
      "##含": 5311,
      "##逮": 5312,
      "##癌": 5313,
      "##町": 5314,
      "##否": 5315,
      "##折": 5316,
      "##詩": 5317,
      "##宣": 5318,
      "##清": 5319,
      "##潔": 5320,
      "##酷": 5321,
      "##趣": 5322,
      "##脈": 5323,
      "##拐": 5324,
      "##想": 5325,
      "##鳴": 5326,
      "##檎": 5327,
      "##故": 5328,
      "##郷": 5329,
      "##峡": 5330,
      "##谷": 5331,
      "##築": 5332,
      "##飾": 5333,
      "##掃": 5334,
      "##善": 5335,
      "##障": 5336,
      "##局": 5337,
      "##奥": 5338,
      "##様": 5339,
      "##踊": 5340,
      "##滴": 5341,
      "##経": 5342,
      "##煙": 5343,
      "##天": 5344,
      "##妊": 5345,
      "##婦": 5346,
      "##胎": 5347,
      "##児": 5348,
      "##陸": 5349,
      "##極": 5350,
      "##胸": 5351,
      "##版": 5352,
      "##州": 5353,
      "##唆": 5354,
      "##型": 5355,
      "##ヵ": 5356,
      "##費": 5357,
      "##宴": 5358,
      "##房": 5359,
      "##勘": 5360,
      "##骨": 5361,
      "##徴": 5362,
      "##勉": 5363,
      "##ゅ": 5364,
      "##答": 5365,
      "##励": 5366,
      "##展": 5367,
      "##賛": 5368,
      "##援": 5369,
      "##各": 5370,
      "##尽": 5371,
      "##７": 5372,
      "##防": 5373,
      "##埋": 5374,
      "##閉": 5375,
      "##−": 5376,
      "##散": 5377,
      "##脳": 5378,
      "##診": 5379,
      "##ヶ": 5380,
      "##皿": 5381,
      "##台": 5382,
      "##停": 5383,
      "##藁": 5384,
      "##掴": 5385,
      "##単": 5386,
      "##滑": 5387,
      "##撲": 5388,
      "##獲": 5389,
      "##賞": 5390,
      "##敵": 5391,
      "##挨": 5392,
      "##拶": 5393,
      "##医": 5394,
      "##須": 5395,
      "##睨": 5396,
      "##庫": 5397,
      "##憩": 5398,
      "##訪": 5399,
      "##廃": 5400,
      "##棄": 5401,
      "##魔": 5402,
      "##域": 5403,
      "##擁": 5404,
      "##幅": 5405,
      "##跳": 5406,
      "##G": 5407,
      "##差": 5408,
      "##因": 5409,
      "##境": 5410,
      "##争": 5411,
      "##種": 5412,
      "##幻": 5413,
      "##誘": 5414,
      "##操": 5415,
      "##昏": 5416,
      "##睡": 5417,
      "##駐": 5418,
      "##瘤": 5419,
      "##８": 5420,
      "##邪": 5421,
      "##収": 5422,
      "##監": 5423,
      "##精": 5424,
      "##療": 5425,
      "##太": 5426,
      "##崇": 5427,
      "##拝": 5428,
      "##映": 5429,
      "##唯": 5430,
      "##微": 5431,
      "##諜": 5432,
      "##肖": 5433,
      "##徳": 5434,
      "##井": 5435,
      "##抵": 5436,
      "##Y": 5437,
      "##抗": 5438,
      "##席": 5439,
      "##財": 5440,
      "##布": 5441,
      "##景": 5442,
      "##ゆ": 5443,
      "##軽": 5444,
      "##蔑": 5445,
      "##根": 5446,
      "##惧": 5447,
      "##—": 5448,
      "##適": 5449,
      "##裏": 5450,
      "##米": 5451,
      "##姿": 5452,
      "##徹": 5453,
      "##幹": 5454,
      "##ふ": 5455,
      "##細": 5456,
      "##胞": 5457,
      "##殴": 5458,
      "##屁": 5459,
      "##泳": 5460,
      "##蹴": 5461,
      "##頬": 5462,
      "##涙": 5463,
      "##到": 5464,
      "##＜": 5465,
      "##＞": 5466,
      "##亜": 5467,
      "##紀": 5468,
      "##怪": 5469,
      "##拷": 5470,
      "##狭": 5471,
      "##昨": 5472,
      "##鞭": 5473,
      "##剰": 5474,
      "##狂": 5475,
      "##濡": 5476,
      "##毎": 5477,
      "##〜": 5478,
      "##酸": 5479,
      "##乞": 5480,
      "##斜": 5481,
      "##積": 5482,
      "##乾": 5483,
      "##孝": 5484,
      "##老": 5485,
      "##齢": 5486,
      "##奇": 5487,
      "##虹": 5488,
      "##純": 5489,
      "##眩": 5490,
      "##又": 5491,
      "##株": 5492,
      "##曲": 5493,
      "##洗": 5494,
      "##瞭": 5495,
      "##飽": 5496,
      "##棺": 5497,
      "##隷": 5498,
      "##労": 5499,
      "##坂": 5500,
      "##批": 5501,
      "##鮮": 5502,
      "##凶": 5503,
      "##縦": 5504,
      "##欺": 5505,
      "##項": 5506,
      "##繰": 5507,
      "##届": 5508,
      "##厄": 5509,
      "##況": 5510,
      "##咆": 5511,
      "##哮": 5512,
      "##浮": 5513,
      "##装": 5514,
      "##総": 5515,
      "##署": 5516,
      "##驚": 5517,
      "##尚": 5518,
      "##拾": 5519,
      "##誤": 5520,
      "##喩": 5521,
      "##江": 5522,
      "##➡": 5523,
      "##姉": 5524,
      "##脅": 5525,
      "##摩": 5526,
      "##擦": 5527,
      "##血": 5528,
      "##％": 5529,
      "##平": 5530,
      "##僧": 5531,
      "##侶": 5532,
      "##永": 5533,
      "##盪": 5534,
      "##虜": 5535,
      "##随": 5536,
      "##請": 5537,
      "##留": 5538,
      "##欠": 5539,
      "##枷": 5540,
      "##叩": 5541,
      "##継": 5542,
      "##涯": 5543,
      "##伴": 5544,
      "##尊": 5545,
      "##洋": 5546,
      "##若": 5547,
      "##汚": 5548,
      "##崩": 5549,
      "##蛮": 5550,
      "##娘": 5551,
      "##触": 5552,
      "##如": 5553,
      "##乳": 5554,
      "##城": 5555,
      "##杯": 5556,
      "##木": 5557,
      "##枝": 5558,
      "##玉": 5559,
      "##腐": 5560,
      "##牢": 5561,
      "##捉": 5562,
      "##没": 5563,
      "##販": 5564,
      "##履": 5565,
      "##挙": 5566,
      "##來": 5567,
      "##皇": 5568,
      "##臆": 5569,
      "##挑": 5570,
      "##染": 5571,
      "##軸": 5572,
      "##廷": 5573,
      "##芝": 5574,
      "##便": 5575,
      "##贈": 5576,
      "##刑": 5577,
      "##嘆": 5578,
      "##娠": 5579,
      "##著": 5580,
      "##『": 5581,
      "##』": 5582,
      "##研": 5583,
      "##究": 5584,
      "##寂": 5585,
      "##環": 5586,
      "##嬢": 5587,
      "##誇": 5588,
      "##刷": 5589,
      "##餃": 5590,
      "##帳": 5591,
      "##縮": 5592,
      "##倫": 5593,
      "##舗": 5594,
      "##］": 5595,
      "##［": 5596,
      "##短": 5597,
      "##烈": 5598,
      "##季": 5599,
      "##節": 5600,
      "##看": 5601,
      "##北": 5602,
      "##癖": 5603,
      "##只": 5604,
      "##還": 5605,
      "##尋": 5606,
      "##胆": 5607,
      "##在": 5608,
      "##縄": 5609,
      "##攻": 5610,
      "##塩": 5611,
      "##俳": 5612,
      "##承": 5613,
      "##偽": 5614,
      "##依": 5615,
      "##Ｐ": 5616,
      "##Ｓ": 5617,
      "##〉": 5618,
      "##左": 5619,
      "##側": 5620,
      "##夕": 5621,
      "##扱": 5622,
      "##＆": 5623,
      "##網": 5624,
      "##波": 5625,
      "##巣": 5626,
      "##枠": 5627,
      "##垣": 5628,
      "##眉": 5629,
      "##毛": 5630,
      "##弄": 5631,
      "##虫": 5632,
      "##殿": 5633,
      "##械": 5634,
      "##慰": 5635,
      "##控": 5636,
      "##臭": 5637,
      "##参": 5638,
      "##照": 5639,
      "##漏": 5640,
      "##洩": 5641,
      "##刻": 5642,
      "##融": 5643,
      "##糞": 5644,
      "##弱": 5645,
      "##怠": 5646,
      "##属": 5647,
      "##瞬": 5648,
      "##躍": 5649,
      "##黄": 5650,
      "##祝": 5651,
      "##/": 5652,
      "##W": 5653,
      "##筋": 5654,
      "##潜": 5655,
      "##副": 5656,
      "##蔵": 5657,
      "##春": 5658,
      "##織": 5659,
      "##瀬": 5660,
      "##川": 5661,
      "##絞": 5662,
      "##樹": 5663,
      "##愚": 5664,
      "##黙": 5665,
      "##拡": 5666,
      "##恩": 5667,
      "##右": 5668,
      "##誌": 5669,
      "##迫": 5670,
      "##厳": 5671,
      "##痛": 5672,
      "##南": 5673,
      "##核": 5674,
      "##補": 5675,
      "##佐": 5676,
      "##ｗ": 5677,
      "##鷹": 5678,
      "##罵": 5679,
      "##腸": 5680,
      "##炎": 5681,
      "##稲": 5682,
      "##隊": 5683,
      "##熊": 5684,
      "##象": 5685,
      "##誦": 5686,
      "##給": 5687,
      "##油": 5688,
      "##喋": 5689,
      "##儲": 5690,
      "##省": 5691,
      "##蔽": 5692,
      "##寒": 5693,
      "##虚": 5694,
      "##穫": 5695,
      "##忍": 5696,
      "##営": 5697,
      "##漢": 5698,
      "##困": 5699,
      "##鳥": 5700,
      "##観": 5701,
      "##暴": 5702,
      "##締": 5703,
      "##戚": 5704,
      "##簡": 5705,
      "##妙": 5706,
      "##誓": 5707,
      "##尾": 5708,
      "##量": 5709,
      "##戮": 5710,
      "##噂": 5711,
      "##Q": 5712,
      "##昇": 5713,
      "##沈": 5714,
      "##松": 5715,
      "##郡": 5716,
      "##漂": 5717,
      "##朗": 5718,
      "##賢": 5719,
      "##捧": 5720,
      "##包": 5721,
      "##退": 5722,
      "##却": 5723,
      "##ぴ": 5724,
      "##仰": 5725,
      "##和": 5726,
      "##硫": 5727,
      "##怨": 5728,
      "##凄": 5729,
      "##肝": 5730,
      "##晒": 5731,
      "##邦": 5732,
      "##膚": 5733,
      "##替": 5734,
      "##猪": 5735,
      "##潮": 5736,
      "##昔": 5737,
      "##村": 5738,
      "##砲": 5739,
      "##肘": 5740,
      "##拘": 5741,
      "##渋": 5742,
      "##滞": 5743,
      "##敢": 5744,
      "##尉": 5745,
      "##召": 5746,
      "##泉": 5747,
      "##秀": 5748,
      "##婆": 5749,
      "##焦": 5750,
      "##割": 5751,
      "##洒": 5752,
      "##略": 5753,
      "##輝": 5754,
      "##至": 5755,
      "##系": 5756,
      "##眺": 5757,
      "##暦": 5758,
      "##Ｏ": 5759,
      "##順": 5760,
      "##抽": 5761,
      "##額": 5762,
      "##講": 5763,
      "##腰": 5764,
      "##港": 5765,
      "##岸": 5766,
      "##詰": 5767,
      "##陰": 5768,
      "##帥": 5769,
      "##既": 5770,
      "##閣": 5771,
      "##績": 5772,
      "##幕": 5773,
      "##粗": 5774,
      "##賄": 5775,
      "##囚": 5776,
      "##辛": 5777,
      "##温": 5778,
      "##刺": 5779,
      "##激": 5780,
      "##菌": 5781,
      "##岡": 5782,
      "##県": 5783,
      "##督": 5784,
      "##騙": 5785,
      "##曹": 5786,
      "##些": 5787,
      "##禁": 5788,
      "##ヾ": 5789,
      "##句": 5790,
      "##怯": 5791,
      "##飢": 5792,
      "##稼": 5793,
      "##菓": 5794,
      "##筈": 5795,
      "##遭": 5796,
      "##遇": 5797,
      "##沙": 5798,
      "##汰": 5799,
      "##慎": 5800,
      "##曖": 5801,
      "##昧": 5802,
      "##巧": 5803,
      "##穂": 5804,
      "##群": 5805,
      "##盆": 5806,
      "##紐": 5807,
      "##榴": 5808,
      "##催": 5809,
      "##冊": 5810,
      "##$": 5811,
      "##[": 5812,
      "##~": 5813,
      "##紛": 5814,
      "##羽": 5815,
      "##塊": 5816,
      "##般": 5817,
      "##剤": 5818,
      "##傘": 5819,
      "##ぽ": 5820,
      "##痕": 5821,
      "##威": 5822,
      "##豆": 5823,
      "##鈍": 5824,
      "##複": 5825,
      "##祭": 5826,
      "##剥": 5827,
      "##茂": 5828,
      "##}": 5829,
      "##冗": 5830,
      "##宮": 5831,
      "##治": 5832,
      "##顕": 5833,
      "##繁": 5834,
      "##惰": 5835,
      "##養": 5836,
      "##浄": 5837,
      "##即": 5838,
      "##隣": 5839,
      "##植": 5840,
      "##寛": 5841,
      "##欧": 5842,
      "##陪": 5843,
      "##匠": 5844,
      "##唇": 5845,
      "##紅": 5846,
      "##髪": 5847,
      "##鴉": 5848,
      "##堕": 5849,
      "##凡": 5850,
      "##緯": 5851,
      "##狩": 5852,
      "##超": 5853,
      "##拒": 5854,
      "##溺": 5855,
      "##嵐": 5856,
      "##歓": 5857,
      "##：": 5858,
      "##喧": 5859,
      "##嘩": 5860,
      "##醒": 5861,
      "##姪": 5862,
      "##瓶": 5863,
      "##牧": 5864,
      "##壷": 5865,
      "##…": 5866,
      "##盛": 5867,
      "##冒": 5868,
      "##漬": 5869,
      "##硬": 5870,
      "##稟": 5871,
      "##緊": 5872,
      "##泡": 5873,
      "##雑": 5874,
      "##貢": 5875,
      "##献": 5876,
      "##臣": 5877,
      "##賂": 5878,
      "##竜": 5879,
      "##距": 5880,
      "##稿": 5881,
      "##韻": 5882,
      "##益": 5883,
      "##孤": 5884,
      "##委": 5885,
      "##祈": 5886,
      "##納": 5887,
      "##頓": 5888,
      "##農": 5889,
      "##蛇": 5890,
      "##商": 5891,
      "##伸": 5892,
      "##倉": 5893,
      "##彩": 5894,
      "##駆": 5895,
      "##湖": 5896,
      "##ぷ": 5897,
      "##砂": 5898,
      "##糖": 5899,
      "##肢": 5900,
      "##沿": 5901,
      "##缶": 5902,
      "##覆": 5903,
      "##札": 5904,
      "##猿": 5905,
      "##田": 5906,
      "##叫": 5907,
      "##竹": 5908,
      "##帝": 5909,
      "##盾": 5910,
      "##q": 5911,
      "##宿": 5912,
      "##耐": 5913,
      "##浩": 5914,
      "##歪": 5915,
      "##泊": 5916,
      "##柄": 5917,
      "##虐": 5918,
      "##肺": 5919,
      "##敏": 5920,
      "##捷": 5921,
      "##擬": 5922,
      "##妖": 5923,
      "##嗅": 5924,
      "##芸": 5925,
      "##液": 5926,
      "##並": 5927,
      "##氷": 5928,
      "##宜": 5929,
      "##競": 5930,
      "##習": 5931,
      "##窃": 5932,
      "##童": 5933,
      "##縛": 5934,
      "##悟": 5935,
      "##志": 5936,
      "##創": 5937,
      "##惜": 5938,
      "##鍵": 5939,
      "##俗": 5940,
      "##奉": 5941,
      "##煉": 5942,
      "##瓦": 5943,
      "##Ｔ": 5944,
      "##燐": 5945,
      "##床": 5946,
      "##飼": 5947,
      "##盤": 5948,
      "##鉱": 5949,
      "##魂": 5950,
      "##億": 5951,
      "##j": 5952,
      "##均": 5953,
      "##草": 5954,
      "##填": 5955,
      "##殊": 5956,
      "###": 5957,
      "##凍": 5958,
      "##且": 5959,
      "##享": 5960,
      "##殆": 5961,
      "##寺": 5962,
      "##炭": 5963,
      "##疽": 5964,
      "##東": 5965,
      "##塚": 5966,
      "##詞": 5967,
      "##≪": 5968,
      "##勤": 5969,
      "##悩": 5970,
      "##ﾃ": 5971,
      "##ﾚ": 5972,
      "##ﾋ": 5973,
      "##ﾞ": 5974,
      "##曽": 5975,
      "##臨": 5976,
      "##妃": 5977,
      "##製": 5978,
      "##傾": 5979,
      "##範": 5980,
      "##促": 5981,
      "##焉": 5982,
      "##賊": 5983,
      "##垢": 5984,
      "##薄": 5985,
      "##叱": 5986,
      "##Ｒ": 5987,
      "##慮": 5988,
      "##尻": 5989,
      "##蓋": 5990,
      "##冠": 5991,
      "##河": 5992,
      "##吐": 5993,
      "##孃": 5994,
      "##舎": 5995,
      "##濯": 5996,
      "##討": 5997,
      "##湾": 5998,
      "##倍": 5999,
      "##奨": 6000,
      "##扉": 6001,
      "##債": 6002,
      "##充": 6003,
      "##炉": 6004,
      "##Ｍ": 6005,
      "##施": 6006,
      "##陛": 6007,
      "##憂": 6008,
      "##賭": 6009,
      "##綿": 6010,
      "##閥": 6011,
      "##慢": 6012,
      "##呂": 6013,
      "##醜": 6014,
      "##壺": 6015,
      "##Ｆ": 6016,
      "##Ｂ": 6017,
      "##Ｉ": 6018,
      "##糧": 6019,
      "##畜": 6020,
      "##偵": 6021,
      "##旨": 6022,
      "##浜": 6023,
      "##材": 6024,
      "##筒": 6025,
      "##隔": 6026,
      "##遮": 6027,
      "##剃": 6028,
      "##爪": 6029,
      "##妹": 6030,
      "##据": 6031,
      "##往": 6032,
      "##梨": 6033,
      "##墜": 6034,
      "##職": 6035,
      "##㌢": 6036,
      "##澪": 6037,
      "##丁": 6038,
      "##粛": 6039,
      "##貧": 6040,
      "##貪": 6041,
      "##詐": 6042,
      "##鼻": 6043,
      "##併": 6044,
      "##償": 6045,
      "##嫉": 6046,
      "##患": 6047,
      "##洞": 6048,
      "##円": 6049,
      "##諦": 6050,
      "##雰": 6051,
      "##揃": 6052,
      "##Ｖ": 6053,
      "##囁": 6054,
      "##凜": 6055,
      "##ｼ": 6056,
      "##ｭ": 6057,
      "##ﾌ": 6058,
      "##ｧ": 6059,
      "##旋": 6060,
      "##ぅ": 6061,
      "##柱": 6062,
      "##霊": 6063,
      "##絵": 6064,
      "##暫": 6065,
      "##禄": 6066,
      "##​": 6067,
      "##｣": 6068,
      "##塞": 6069,
      "##鎖": 6070,
      "##浪": 6071,
      "##緑": 6072,
      "##朱": 6073,
      "##紫": 6074,
      "##咲": 6075,
      "##悼": 6076,
      "##幌": 6077,
      "##枕": 6078,
      "##奢": 6079,
      "##賃": 6080,
      "##碑": 6081,
      "##板": 6082,
      "##銘": 6083,
      "##央": 6084,
      "##云": 6085,
      "##堅": 6086,
      "##裂": 6087,
      "##恨": 6088,
      "##迄": 6089,
      "##癒": 6090,
      "##軟": 6091,
      "##膏": 6092,
      "##眼": 6093,
      "##傭": 6094,
      "##拭": 6095,
      "##析": 6096,
      "##是": 6097,
      "##歸": 6098,
      "##鄉": 6099,
      "##憲": 6100,
      "##卒": 6101,
      "##丸": 6102,
      "##ｺ": 6103,
      "##＿": 6104,
      "##拳": 6105,
      "##巨": 6106,
      "##犠": 6107,
      "##牲": 6108,
      "##豊": 6109,
      "##憧": 6110,
      "##ｍ": 6111,
      "##暖": 6112,
      "##衝": 6113,
      "##捗": 6114,
      "##謎": 6115,
      "##慌": 6116,
      "##冬": 6117,
      "##噛": 6118,
      "##透": 6119,
      "##胃": 6120,
      "##溜": 6121,
      "##釣": 6122,
      "##八": 6123,
      "##九": 6124,
      "##券": 6125,
      "##琥": 6126,
      "##珀": 6127,
      "##銭": 6128,
      "##讐": 6129,
      "##槽": 6130,
      "##肩": 6131,
      "##粘": 6132,
      "##Ｃ": 6133,
      "##尖": 6134,
      "##購": 6135,
      "##楼": 6136,
      "##猟": 6137,
      "##惨": 6138,
      "##双": 6139,
      "##吉": 6140,
      "##藪": 6141,
      "##柔": 6142,
      "##径": 6143,
      "##渦": 6144,
      "##僅": 6145,
      "##踪": 6146,
      "##卑": 6147,
      "##票": 6148,
      "##粧": 6149,
      "##蔓": 6150,
      "##漠": 6151,
      "##竪": 6152,
      "##琴": 6153,
      "##戸": 6154,
      "##氾": 6155,
      "##濫": 6156,
      "##層": 6157,
      "##渣": 6158,
      "##廊": 6159,
      "##勿": 6160,
      "##架": 6161,
      "##侮": 6162,
      "##雲": 6163,
      "##啖": 6164,
      "##呵": 6165,
      "##顏": 6166,
      "##檻": 6167,
      "##劣": 6168,
      "##坩": 6169,
      "##堝": 6170,
      "##讃": 6171,
      "##机": 6172,
      "##；": 6173,
      "##克": 6174,
      "##挫": 6175,
      "##艘": 6176,
      "##※": 6177,
      "##淘": 6178,
      "##阻": 6179,
      "##序": 6180,
      "##伽": 6181,
      "##顧": 6182,
      "##封": 6183,
      "##掘": 6184,
      "##窟": 6185,
      "##干": 6186,
      "##喉": 6187,
      "##惚": 6188,
      "##〈": 6189,
      "##丶": 6190,
      "##瞑": 6191,
      "##粒": 6192,
      "##駿": 6193,
      "##ﾖ": 6194,
      "##ﾄ": 6195,
      "##鬼": 6196,
      "##添": 6197,
      "##━": 6198,
      "##桃": 6199,
      "##侯": 6200,
      "##爵": 6201,
      "##鉤": 6202,
      "##括": 6203,
      "##謙": 6204,
      "##ぉ": 6205,
      "##陶": 6206,
      "##桂": 6207,
      "##卓": 6208,
      "##戯": 6209,
      "##‐": 6210,
      "##藤": 6211,
      "##撤": 6212,
      "##綻": 6213,
      "##契": 6214,
      "##賑": 6215,
      "##浅": 6216,
      "##泣": 6217,
      "##佑": 6218,
      "##吊": 6219,
      "##扮": 6220,
      "##〕": 6221,
      "##宦": 6222,
      "##·": 6223,
      "##駅": 6224,
      "##豪": 6225,
      "##華": 6226,
      "##ﾐ": 6227,
      "##ﾅ": 6228,
      "##ﾀ": 6229,
      "##ﾑ": 6230,
      "##ｰ": 6231,
      "##《": 6232,
      "##橋": 6233,
      "##隙": 6234,
      "##涼": 6235,
      "##泥": 6236,
      "##盟": 6237,
      "##": 6238,
      "##": 6239,
      "##": 6240,
      "##": 6241,
      "##": 6242,
      "##": 6243,
      "##": 6244,
      "##": 6245,
      "##": 6246,
      "##": 6247,
      "##": 6248,
      "##": 6249,
      "##": 6250,
      "##": 6251,
      "##": 6252,
      "##": 6253,
      "##": 6254,
      "##": 6255,
      "##": 6256,
      "##": 6257,
      "##": 6258,
      "##": 6259,
      "##": 6260,
      "##": 6261,
      "##": 6262,
      "##": 6263,
      "##": 6264,
      "##": 6265,
      "##": 6266,
      "##": 6267,
      "##舷": 6268,
      "##壌": 6269,
      "##弧": 6270,
      "##蜂": 6271,
      "##崖": 6272,
      "##亀": 6273,
      "##痙": 6274,
      "##攣": 6275,
      "##ﾒ": 6276,
      "##ﾘ": 6277,
      "##ｶ": 6278,
      "##翼": 6279,
      "##托": 6280,
      "##乙": 6281,
      "##按": 6282,
      "##霧": 6283,
      "##匂": 6284,
      "##贄": 6285,
      "##圏": 6286,
      "##◆": 6287,
      "##灰": 6288,
      "##賓": 6289,
      "##卵": 6290,
      "##繭": 6291,
      "##汗": 6292,
      "##輸": 6293,
      "##富": 6294,
      "##裸": 6295,
      "##亘": 6296,
      "##拉": 6297,
      "##貫": 6298,
      "##幽": 6299,
      "##岩": 6300,
      "##迅": 6301,
      "##邸": 6302,
      "##毯": 6303,
      "##潰": 6304,
      "##*": 6305,
      "##{": 6306,
      "##→": 6307,
      "##堀": 6308,
      "##樫": 6309,
      "##露": 6310,
      "##&": 6311,
      "##貼": 6312,
      "##秩": 6313,
      "##唱": 6314,
      "##党": 6315,
      "##牛": 6316,
      "##虎": 6317,
      "##蚊": 6318,
      "##肌": 6319,
      "##稀": 6320,
      "##餓": 6321,
      "##茎": 6322,
      "##緩": 6323,
      "##訟": 6324,
      "##肋": 6325,
      "##厭": 6326,
      "##祷": 6327,
      "##^": 6328,
      "##玄": 6329,
      "##紳": 6330,
      "##逝": 6331,
      "##顎": 6332,
      "##辻": 6333,
      "##褄": 6334,
      "##針": 6335,
      "##垂": 6336,
      "##裕": 6337,
      "##齎": 6338,
      "##箒": 6339,
      "##尿": 6340,
      "##仇": 6341,
      "##嵌": 6342,
      "##鞄": 6343,
      "##紗": 6344,
      "##麦": 6345,
      "##Ｎ": 6346,
      "##畑": 6347,
      "##沌": 6348,
      "##歯": 6349,
      "##謗": 6350,
      "##挟": 6351,
      "##征": 6352,
      "##鎮": 6353,
      "##増": 6354,
      "##伯": 6355,
      "##簿": 6356,
      "##渇": 6357,
      "##髭": 6358,
      "##譬": 6359,
      "##哀": 6360,
      "##竇": 6361,
      "##š": 6362,
      "##ň": 6363,
      "##á": 6364,
      "##軌": 6365,
      "##辿": 6366,
      "##概": 6367,
      "##揚": 6368,
      "##郵": 6369,
      "##符": 6370,
      "##／": 6371,
      "##叛": 6372,
      "##鐘": 6373,
      "##椒": 6374,
      "##掲": 6375,
      "##遡": 6376,
      "##硝": 6377,
      "##允": 6378,
      "##宛": 6379,
      "##需": 6380,
      "##錬": 6381,
      "##": 6382,
      "##": 6383,
      "##": 6384,
      "##": 6385,
      "##": 6386,
      "##": 6387,
      "##": 6388,
      "##": 6389,
      "##": 6390,
      "##": 6391,
      "##": 6392,
      "##": 6393,
      "##": 6394,
      "##": 6395,
      "##汲": 6396,
      "##溶": 6397,
      "##埠": 6398,
      "##掌": 6399,
      "##“": 6400,
      "##”": 6401,
      "##艇": 6402,
      "##徘": 6403,
      "##徊": 6404,
      "##鍛": 6405,
      "##遥": 6406,
      "##凌": 6407,
      "##衡": 6408,
      "##廉": 6409,
      "##嚇": 6410,
      "##吟": 6411,
      "##Ｑ": 6412,
      "##磨": 6413,
      "##這": 6414,
      "##池": 6415,
      "##綴": 6416,
      "##脂": 6417,
      "##肪": 6418,
      "##卿": 6419,
      "##穀": 6420,
      "##芽": 6421,
      "##抹": 6422,
      "##宵": 6423,
      "##磁": 6424,
      "##杖": 6425,
      "##執": 6426,
      "##或": 6427,
      "##揉": 6428,
      "##猶": 6429,
      "##詮": 6430,
      "##渓": 6431,
      "##暁": 6432,
      "##叶": 6433,
      "##冶": 6434,
      "##豚": 6435,
      "##跪": 6436,
      "##漕": 6437,
      "##膜": 6438,
      "##彫": 6439,
      "##輿": 6440,
      "##浦": 6441,
      "##阪": 6442,
      "##屑": 6443,
      "##濃": 6444,
      "##紺": 6445,
      "##舟": 6446,
      "##哨": 6447,
      "##奮": 6448,
      "##ｔ": 6449,
      "##餌": 6450,
      "##斯": 6451,
      "##惹": 6452,
      "##": 6453,
      "##": 6454,
      "##": 6455,
      "##": 6456,
      "##玩": 6457,
      "##牙": 6458,
      "##佳": 6459,
      "##奈": 6460,
      "##縁": 6461,
      "##斧": 6462,
      "##丿": 6463,
      "##雌": 6464,
      "##譲": 6465,
      "##娼": 6466,
      "##麺": 6467,
      "##貞": 6468,
      "##隻": 6469,
      "##〞": 6470,
      "##〝": 6471,
      "##貌": 6472,
      "##淵": 6473,
      "##柏": 6474,
      "##蒲": 6475,
      "##坏": 6476,
      "##稽": 6477,
      "##此": 6478,
      "##壇": 6479,
      "##孫": 6480,
      "##幼": 6481,
      "##伺": 6482,
      "##汁": 6483,
      "##刃": 6484,
      "##痴": 6485,
      "##膨": 6486,
      "##娩": 6487,
      "##龍": 6488,
      "##沼": 6489,
      "##勅": 6490,
      "##毅": 6491,
      "##賠": 6492,
      "##畳": 6493,
      "##髏": 6494,
      "##摯": 6495,
      "##酬": 6496,
      "##湿": 6497,
      "##爽": 6498,
      "##亥": 6499,
      "##杏": 6500,
      "##銅": 6501,
      "##蝕": 6502,
      "##Ｌ": 6503,
      "##喪": 6504,
      "##呑": 6505,
      "##拍": 6506,
      "##漆": 6507,
      "##褒": 6508,
      "##": 6509,
      "##": 6510,
      "##": 6511,
      "##": 6512,
      "##": 6513,
      "##": 6514,
      "##": 6515,
      "##": 6516,
      "##涜": 6517,
      "##譛": 6518,
      "##禅": 6519,
      "##雛": 6520,
      "##嘲": 6521,
      "##鋼": 6522,
      "##咎": 6523,
      "##遵": 6524,
      "##桟": 6525,
      "##矯": 6526,
      "##槌": 6527,
      "##鎧": 6528,
      "##耗": 6529,
      "##轄": 6530,
      "##祉": 6531,
      "##郭": 6532,
      "##箋": 6533,
      "##鋭": 6534,
      "##矛": 6535,
      "##〟": 6536,
      "##嚢": 6537,
      "##飴": 6538,
      "##庇": 6539,
      "##墨": 6540,
      "##鷲": 6541,
      "##鉛": 6542,
      "##筆": 6543,
      "##劉": 6544,
      "##乏": 6545,
      "##繊": 6546,
      "##聾": 6547,
      "##唖": 6548,
      "##郊": 6549,
      "##賀": 6550,
      "##閲": 6551,
      "##枯": 6552,
      "##骸": 6553,
      "##傍": 6554,
      "##穢": 6555,
      "##窒": 6556,
      "##彙": 6557,
      "##漫": 6558,
      "##瞳": 6559,
      "##糸": 6560,
      "##峻": 6561,
      "##畏": 6562,
      "##Ｇ": 6563,
      "##Ｊ": 6564,
      "##仁": 6565,
      "##姫": 6566,
      "##薦": 6567,
      "##＝": 6568,
      "##焚": 6569,
      "##蘭": 6570,
      "##丘": 6571,
      "##廻": 6572,
      "##澄": 6573,
      "##冤": 6574,
      "##": 6575,
      "##": 6576,
      "##": 6577,
      "##": 6578,
      "##": 6579,
      "##": 6580,
      "##": 6581,
      "##之": 6582,
      "##馴": 6583,
      "##賦": 6584,
      "##礁": 6585,
      "##厚": 6586,
      "##恰": 6587,
      "##猛": 6588,
      "##": 6589,
      "##": 6590,
      "##扶": 6591,
      "##樽": 6592,
      "##瀕": 6593,
      "##腫": 6594,
      "##鑑": 6595,
      "##\\": 6596,
      "##痔": 6597,
      "##覗": 6598,
      "##､": 6599,
      "##暑": 6600,
      "##綱": 6601,
      "##灘": 6602,
      "##寵": 6603,
      "##膝": 6604,
      "##貯": 6605,
      "##裳": 6606,
      "##＋": 6607,
      "##喚": 6608,
      "##": 6609,
      "##": 6610,
      "##": 6611,
      "##": 6612,
      "##翌": 6613,
      "##俯": 6614,
      "##諾": 6615,
      "##菜": 6616,
      "##孕": 6617,
      "##蔡": 6618,
      "##宏": 6619,
      "##圭": 6620,
      "##袖": 6621,
      "##忌": 6622,
      "##憚": 6623,
      "##喝": 6624,
      "##摘": 6625,
      "##聡": 6626,
      "##徐": 6627,
      "##粋": 6628,
      "##笛": 6629,
      "##弦": 6630,
      "##駒": 6631,
      "##鍼": 6632,
      "##絢": 6633,
      "##訛": 6634,
      "##頁": 6635,
      "##姦": 6636,
      "##瑞": 6637,
      "##牽": 6638,
      "##屠": 6639,
      "##蘇": 6640,
      "##腿": 6641,
      "##爺": 6642,
      "##梁": 6643,
      "##攪": 6644,
      "##蜜": 6645,
      "##蝋": 6646,
      "##愁": 6647,
      "##ﾈ": 6648,
      "##Ｈ": 6649,
      "##礫": 6650,
      "##釘": 6651,
      "##萎": 6652,
      "##頻": 6653,
      "##ö": 6654,
      "##¶": 6655,
      "##餐": 6656,
      "##絆": 6657,
      "##蒸": 6658,
      "##蛙": 6659,
      "##斉": 6660,
      "##珠": 6661,
      "##拓": 6662,
      "##蟻": 6663,
      "##躙": 6664,
      "##霆": 6665,
      "##截": 6666,
      "##霞": 6667,
      "##訂": 6668,
      "##": 6669,
      "##慕": 6670,
      "##阿": 6671,
      "##呆": 6672,
      "##棘": 6673,
      "##ｲ": 6674,
      "##娯": 6675,
      "##疾": 6676,
      "##懇": 6677,
      "##籠": 6678,
      "##奔": 6679,
      "##偏": 6680,
      "##脊": 6681,
      "##把": 6682,
      "##煽": 6683,
      "##燈": 6684,
      "##沸": 6685,
      "##": 6686,
      "##箇": 6687,
      "##彷": 6688,
      "##徨": 6689,
      "##峙": 6690,
      "##措": 6691,
      "##〔": 6692,
      "##曼": 6693,
      "##荼": 6694,
      "##羅": 6695,
      "##梗": 6696,
      "##灼": 6697,
      "##濁": 6698,
      "##軒": 6699,
      "##覘": 6700,
      "##衰": 6701,
      "##Ｘ": 6702,
      "##Ｙ": 6703,
      "##Ｚ": 6704,
      "##挿": 6705,
      "##縞": 6706,
      "##燥": 6707,
      "##匿": 6708,
      "##憐": 6709,
      "##芳": 6710,
      "##ｪ": 6711,
      "##遷": 6712,
      "##歲": 6713,
      "##嗎": 6714,
      "##埒": 6715,
      "##莫": 6716,
      "##沃": 6717,
      "##吻": 6718,
      "##皺": 6719,
      "##虔": 6720,
      "##枢": 6721,
      "##泌": 6722,
      "##腺": 6723,
      "##堪": 6724,
      "##沖": 6725,
      "##恒": 6726,
      "##暢": 6727,
      "##錯": 6728,
      "##唸": 6729,
      "##ｅ": 6730,
      "##ａ": 6731,
      "##ｙ": 6732,
      "##脆": 6733,
      "##披": 6734,
      "##吠": 6735,
      "##乖": 6736,
      "##藻": 6737,
      "##椎": 6738,
      "##酵": 6739,
      "##汝": 6740,
      "##": 6741,
      "##Ｗ": 6742,
      "##狐": 6743,
      "##兎": 6744,
      "##后": 6745,
      "##–": 6746,
      "##墟": 6747,
      "##甦": 6748,
      "##莢": 6749,
      "##餅": 6750,
      "##貿": 6751,
      "##晦": 6752,
      "##ｋ": 6753,
      "##ｇ": 6754,
      "##胴": 6755,
      "##搬": 6756,
      "##鱒": 6757,
      "##塵": 6758,
      "##迂": 6759,
      "##＼": 6760,
      "##磯": 6761,
      "##棓": 6762,
      "##姓": 6763,
      "##痺": 6764,
      "##鬱": 6765,
      "##殻": 6766,
      "##洪": 6767,
      "##婿": 6768,
      "##匙": 6769,
      "##>": 6770,
      "##": 6771,
      "##凵": 6772,
      "##辟": 6773,
      "##燻": 6774,
      "##惟": 6775,
      "##馳": 6776,
      "##甲": 6777,
      "##淋": 6778,
      "##朽": 6779,
      "##脇": 6780,
      "##践": 6781,
      "##雅": 6782,
      "##獰": 6783,
      "##稚": 6784,
      "##漁": 6785,
      "##": 6786,
      "##": 6787,
      "##畔": 6788,
      "##冥": 6789,
      "##喫": 6790,
      "##嗟": 6791,
      "##喨": 6792,
      "##镮": 6793,
      "##憤": 6794,
      "##慨": 6795,
      "##楯": 6796,
      "##剛": 6797,
      "##董": 6798,
      "##閻": 6799,
      "##股": 6800,
      "##躇": 6801,
      "##雀": 6802,
      "##詠": 6803,
      "##炸": 6804,
      "##寿": 6805,
      "##袈": 6806,
      "##裟": 6807,
      "##唐": 6808,
      "##酌": 6809,
      "##勃": 6810,
      "##弥": 6811,
      "##肯": 6812,
      "##蒔": 6813,
      "##錆": 6814,
      "##蛍": 6815,
      "##曇": 6816,
      "##睦": 6817,
      "##鞠": 6818,
      "##ｳ": 6819,
      "##苛": 6820,
      "##弓": 6821,
      "##蝶": 6822,
      "##": 6823,
      "##芒": 6824,
      "##＄": 6825,
      "##哉": 6826,
      "##楕": 6827,
      "##岬": 6828,
      "##摂": 6829,
      "##ぃ": 6830,
      "##岐": 6831,
      "##較": 6832,
      "##刹": 6833,
      "##逸": 6834,
      "##仏": 6835,
      "##鋳": 6836,
      "##赴": 6837,
      "##疎": 6838,
      "##髄": 6839,
      "##碧": 6840,
      "##鶏": 6841,
      "##扇": 6842,
      "##瘍": 6843,
      "##纒": 6844,
      "##】": 6845,
      "##甥": 6846,
      "##胚": 6847,
      "##會": 6848,
      "##你": 6849,
      "##裡": 6850,
      "##鯨": 6851,
      "##仙": 6852,
      "##辣": 6853,
      "##昭": 6854,
      "##刊": 6855,
      "##寧": 6856,
      "##傳": 6857,
      "##梯": 6858,
      "##冴": 6859,
      "##♭": 6860,
      "##煩": 6861,
      "##痩": 6862,
      "##蒙": 6863,
      "##騰": 6864,
      "##殲": 6865,
      "##•": 6866,
      "##蓄": 6867,
      "##淫": 6868,
      "##樣": 6869,
      "##懦": 6870,
      "##ｽ": 6871,
      "##ﾗ": 6872,
      "##ｴ": 6873,
      "##脛": 6874,
      "##醸": 6875,
      "##薔": 6876,
      "##薇": 6877,
      "##烽": 6878,
      "##刈": 6879,
      "##肥": 6880,
      "##痣": 6881,
      "##鍋": 6882,
      "##弘": 6883,
      "##悦": 6884,
      "##棲": 6885,
      "##獅": 6886,
      "##兼": 6887,
      "##趙": 6888,
      "##采": 6889,
      "##絨": 6890,
      "##盃": 6891,
      "##函": 6892,
      "##炙": 6893,
      "##傲": 6894,
      "##覇": 6895,
      "##其": 6896,
      "##巷": 6897,
      "##茜": 6898,
      "##羨": 6899,
      "##萌": 6900,
      "##累": 6901,
      "##旺": 6902,
      "##某": 6903,
      "##翔": 6904,
      "##礎": 6905,
      "##塀": 6906,
      "##詈": 6907,
      "##綾": 6908,
      "##卍": 6909,
      "##贋": 6910,
      "##津": 6911,
      "##霹": 6912,
      "##靂": 6913,
      "##嘔": 6914,
      "##伎": 6915,
      "##闔": 6916,
      "##酢": 6917,
      "##做": 6918,
      "##栓": 6919,
      "##＊": 6920,
      "##沁": 6921,
      "##鞍": 6922,
      "##貝": 6923,
      "##孔": 6924,
      "##耕": 6925,
      "##釜": 6926,
      "##撫": 6927,
      "##踝": 6928,
      "##廁": 6929,
      "##č": 6930,
      "##Ř": 6931,
      "##í": 6932,
      "##儚": 6933,
      "##訣": 6934,
      "##鬨": 6935,
      "##藩": 6936,
      "##鸞": 6937,
      "##ゎ": 6938,
      "##砦": 6939,
      "##隈": 6940,
      "##蜘": 6941,
      "##蛛": 6942,
      "##坑": 6943,
      "##已": 6944,
      "##从": 6945,
      "##殉": 6946,
      "##荘": 6947,
      "##ゞ": 6948,
      "##閑": 6949,
      "##挽": 6950,
      "##弔": 6951,
      "##遜": 6952,
      "##頚": 6953,
      "##长": 6954,
      "##蛾": 6955,
      "##頷": 6956,
      "##秤": 6957,
      "##爬": 6958,
      "##唾": 6959,
      "##吃": 6960,
      "##裔": 6961,
      "##傑": 6962,
      "##薫": 6963,
      "##綜": 6964,
      "##姻": 6965,
      "##躊": 6966,
      "##ﾓ": 6967,
      "##ｾ": 6968,
      "##窮": 6969,
      "##懺": 6970,
      "##膳": 6971,
      "##": 6972,
      "##溢": 6973,
      "##牝": 6974,
      "##呈": 6975,
      "##鼓": 6976,
      "##葱": 6977,
      "##悸": 6978,
      "##祥": 6979,
      "##藍": 6980,
      "##堵": 6981,
      "##曰": 6982,
      "##妥": 6983,
      "##ｬ": 6984,
      "##ｷ": 6985,
      "##": 6986,
      "##": 6987,
      "##": 6988,
      "##Ｕ": 6989,
      "##詣": 6990,
      "##註": 6991,
      "##煮": 6992,
      "##祐": 6993,
      "##ｻ": 6994,
      "##弊": 6995,
      "##糾": 6996,
      "##★": 6997,
      "##µ": 6998,
      "##摺": 6999,
      "##淑": 7000,
      "##蝿": 7001,
      "##ｚ": 7002,
      "##勾": 7003,
      "##洲": 7004,
      "##陀": 7005,
      "##嫡": 7006,
      "##搾": 7007,
      "##勲": 7008,
      "##繍": 7009,
      "##逢": 7010,
      "##粟": 7011,
      "##菊": 7012,
      "##兜": 7013,
      "##潤": 7014,
      "##贅": 7015,
      "##卜": 7016,
      "##吾": 7017,
      "##蛸": 7018,
      "##循": 7019,
      "##喘": 7020,
      "##仄": 7021,
      "##椿": 7022,
      "##弛": 7023,
      "##é": 7024,
      "##ヲ": 7025,
      "##繕": 7026,
      "##迦": 7027,
      "##謡": 7028,
      "##欄": 7029,
      "##殖": 7030,
      "##晶": 7031,
      "##瑜": 7032,
      "##旬": 7033,
      "##": 7034,
      "##杭": 7035,
      "##籍": 7036,
      "##≫": 7037,
      "##韓": 7038,
      "##黛": 7039,
      "##緻": 7040,
      "##憾": 7041,
      "##纉": 7042,
      "##癇": 7043,
      "##癪": 7044,
      "##鬚": 7045,
      "##斎": 7046,
      "##攫": 7047,
      "##闊": 7048,
      "##苗": 7049,
      "##莱": 7050,
      "##胡": 7051,
      "##瓜": 7052,
      "##彰": 7053,
      "##": 7054,
      "##¥": 7055,
      "##芋": 7056,
      "##℃": 7057,
      "##於": 7058,
      "##霜": 7059,
      "##峠": 7060,
      "##杉": 7061,
      "##ヅ": 7062,
      "##鈴": 7063,
      "##曝": 7064,
      "##禿": 7065,
      "##牌": 7066,
      "##轢": 7067,
      "##堤": 7068,
      "##畢": 7069,
      "##們": 7070,
      "##卻": 7071,
      "##戰": 7072,
      "##倹": 7073,
      "##篭": 7074,
      "##桁": 7075,
      "##薪": 7076,
      "##鹸": 7077,
      "##汽": 7078,
      "##宥": 7079,
      "##臼": 7080,
      "##劾": 7081,
      "##寶": 7082,
      "##拮": 7083,
      "##葛": 7084,
      "##厦": 7085,
      "##酪": 7086,
      "##薙": 7087,
      "##凪": 7088,
      "##彦": 7089,
      "##躓": 7090,
      "##熾": 7091,
      "##": 7092,
      "##葦": 7093,
      "##謁": 7094,
      "##幣": 7095,
      "##抉": 7096,
      "##π": 7097,
      "##岳": 7098,
      "##呉": 7099,
      "##埃": 7100,
      "##悶": 7101,
      "##捌": 7102,
      "##庶": 7103,
      "##猜": 7104,
      "##轍": 7105,
      "##醇": 7106,
      "##鳩": 7107,
      "##瑠": 7108,
      "##": 7109,
      "##": 7110,
      "##": 7111,
      "##": 7112,
      "##": 7113,
      "##": 7114,
      "##": 7115,
      "##侍": 7116,
      "##憫": 7117,
      "##侘": 7118,
      "##舵": 7119,
      "##聳": 7120,
      "##仔": 7121,
      "##鉢": 7122,
      "##逐": 7123,
      "##慶": 7124,
      "##琉": 7125,
      "##靭": 7126,
      "##姜": 7127,
      "##套": 7128,
      "##恭": 7129,
      "##囀": 7130,
      "##腟": 7131,
      "##膀": 7132,
      "##胱": 7133,
      "##ｵ": 7134,
      "##ﾁ": 7135,
      "##麓": 7136,
      "##遍": 7137,
      "##氣": 7138,
      "##ゐ": 7139,
      "##ó": 7140,
      "##揆": 7141,
      "##貶": 7142,
      "##泰": 7143,
      "##巾": 7144,
      "##癩": 7145,
      "##²": 7146,
      "##ｏ": 7147,
      "##ｎ": 7148,
      "##×": 7149,
      "##幇": 7150,
      "##猥": 7151,
      "##甚": 7152,
      "##猾": 7153,
      "##": 7154,
      "##痢": 7155,
      "##隅": 7156,
      "##舶": 7157,
      "##箍": 7158,
      "##囮": 7159,
      "##淳": 7160,
      "##瀾": 7161,
      "##嗜": 7162,
      "##膠": 7163,
      "##遼": 7164,
      "##諍": 7165,
      "##媚": 7166,
      "##紡": 7167,
      "##撚": 7168,
      "##褻": 7169,
      "##涌": 7170,
      "##″": 7171,
      "##棋": 7172,
      "##蛭": 7173,
      "##孵": 7174,
      "##矮": 7175,
      "##亭": 7176,
      "##什": 7177,
      "##襟": 7178,
      "##昆": 7179,
      "##夷": 7180,
      "##魯": 7181,
      "##凹": 7182,
      "##萃": 7183,
      "##滝": 7184,
      "##炒": 7185,
      "##吼": 7186,
      "##糊": 7187,
      "##凝": 7188,
      "##堰": 7189,
      "##迸": 7190,
      "##竿": 7191,
      "##播": 7192,
      "##籾": 7193,
      "##膿": 7194,
      "##疼": 7195,
      "##刎": 7196,
      "##饕": 7197,
      "##餮": 7198,
      "##縋": 7199,
      "##閃": 7200,
      "##腱": 7201,
      "##咥": 7202,
      "##迭": 7203,
      "##肛": 7204,
      "##臍": 7205,
      "##萼": 7206,
      "##": 7207,
      "##彗": 7208,
      "##憺": 7209,
      "##謳": 7210,
      "##珊": 7211,
      "##瑚": 7212,
      "##篠": 7213,
      "##ﾍ": 7214,
      "##蔭": 7215,
      "##慄": 7216,
      "##晰": 7217,
      "##蠣": 7218,
      "##罹": 7219,
      "##艱": 7220,
      "##實": 7221,
      "##齟": 7222,
      "##ｨ": 7223,
      "##牡": 7224,
      "##畝": 7225,
      "##撹": 7226,
      "##拌": 7227,
      "##艶": 7228,
      "##茄": 7229,
      "##藥": 7230,
      "##斡": 7231,
      "##": 7232,
      "##鎌": 7233,
      "##譜": 7234,
      "##蓑": 7235,
      "##准": 7236,
      "##姥": 7237,
      "##隆": 7238,
      "##咬": 7239,
      "##叙": 7240,
      "##Ⅹ": 7241,
      "##頸": 7242,
      "##囓": 7243,
      "##吏": 7244,
      "##乃": 7245,
      "##凧": 7246,
      "##栽": 7247,
      "##培": 7248,
      "##鍮": 7249,
      "##錫": 7250,
      "##鮒": 7251,
      "##逞": 7252,
      "##媒": 7253,
      "##魘": 7254,
      "##囗": 7255,
      "##痘": 7256,
      "##亮": 7257,
      "##搔": 7258,
      "##♀": 7259,
      "##♂": 7260,
      "##謹": 7261,
      "##臥": 7262,
      "##鶴": 7263,
      "##柳": 7264,
      "##哺": 7265,
      "##÷": 7266,
      "##膵": 7267,
      "##﨑": 7268,
      "##挺": 7269,
      "##莉": 7270,
      "##鍔": 7271,
      "##踵": 7272,
      "##恍": 7273,
      "##柩": 7274,
      "##轟": 7275,
      "##悉": 7276,
      "##諭": 7277,
      "##": 7278,
      "##輔": 7279,
      "##窩": 7280,
      "##鍺": 7281,
      "##俵": 7282,
      "##隼": 7283,
      "##淚": 7284,
      "##總": 7285,
      "##寓": 7286,
      "##腔": 7287,
      "##燭": 7288,
      "##絹": 7289,
      "##ﾎ": 7290,
      "##倶": 7291,
      "##噌": 7292,
      "##悍": 7293,
      "##<": 7294,
      "##忽": 7295,
      "##捻": 7296,
      "##讹": 7297,
      "##葡": 7298,
      "##萄": 7299,
      "##茹": 7300,
      "##睾": 7301,
      "##蹄": 7302,
      "##譚": 7303,
      "##朦": 7304,
      "##朧": 7305,
      "##ｓ": 7306,
      "##饉": 7307,
      "##祓": 7308,
      "##贔": 7309,
      "##屓": 7310,
      "##ヂ": 7311,
      "##錐": 7312,
      "##罷": 7313,
      "##拿": 7314,
      "##莞": 7315,
      "##陵": 7316,
      "##杜": 7317,
      "##撰": 7318,
      "##煎": 7319,
      "##叉": 7320,
      "##鉾": 7321,
      "##黎": 7322,
      "##厩": 7323,
      "##鵜": 7324,
      "##逼": 7325,
      "##陳": 7326,
      "##ο": 7327,
      "##而": 7328,
      "##纂": 7329,
      "##袂": 7330,
      "##遙": 7331,
      "##ｫ": 7332,
      "##斐": 7333,
      "##涅": 7334,
      "##槃": 7335,
      "##竄": 7336,
      "##諮": 7337,
      "##拙": 7338,
      "##鈩": 7339,
      "##³": 7340,
      "##偲": 7341,
      "##": 7342,
      "##聘": 7343,
      "##桿": 7344,
      "##ā": 7345,
      "##斥": 7346,
      "##跨": 7347,
      "##俸": 7348,
      "##傅": 7349,
      "##柵": 7350,
      "##帶": 7351,
      "##麼": 7352,
      "##跟": 7353,
      "##聽": 7354,
      "##覺": 7355,
      "##隕": 7356,
      "##湧": 7357,
      "##【": 7358,
      "##○": 7359,
      "##尼": 7360,
      "##鼠": 7361,
      "##滲": 7362,
      "##碇": 7363,
      "##團": 7364,
      "##餞": 7365,
      "##玲": 7366,
      "##塁": 7367,
      "##è": 7368,
      "##翠": 7369,
      "##蠅": 7370,
      "##〻": 7371,
      "##經": 7372,
      "##沒": 7373,
      "##": 7374,
      "##淹": 7375,
      "##蕩": 7376,
      "##焔": 7377,
      "##漱": 7378,
      "##ｒ": 7379,
      "##": 7380,
      "##縣": 7381,
      "##": 7382,
      "##柴": 7383,
      "##銛": 7384,
      "##筏": 7385,
      "##": 7386,
      "##慧": 7387,
      "##₂": 7388,
      "##茨": 7389,
      "##卸": 7390,
      "##鉈": 7391,
      "##誹": 7392,
      "##斑": 7393,
      "##妓": 7394,
      "##諺": 7395,
      "##柿": 7396,
      "##桶": 7397,
      "##疹": 7398,
      "##梱": 7399,
      "##很": 7400,
      "##鰍": 7401,
      "##咽": 7402,
      "##醤": 7403,
      "##狡": 7404,
      "##灸": 7405,
      "##曾": 7406,
      "##尸": 7407,
      "##屍": 7408,
      "##ｩ": 7409,
      "##翡": 7410,
      "##訝": 7411,
      "##零": 7412,
      "##约": 7413,
      "##內": 7414,
      "##娶": 7415,
      "##竃": 7416,
      "##ｕ": 7417,
      "##ｈ": 7418,
      "##ｖ": 7419,
      "##ｄ": 7420,
      "##坐": 7421,
      "##坪": 7422,
      "##≒": 7423,
      "##芯": 7424,
      "##疸": 7425,
      "##溌": 7426,
      "##剌": 7427,
      "##栗": 7428,
      "##庸": 7429,
      "##㎞": 7430,
      "##虱": 7431,
      "##鍬": 7432,
      "##唄": 7433,
      "##ｃ": 7434,
      "##撞": 7435,
      "##ｉ": 7436,
      "##ｌ": 7437,
      "##蚤": 7438,
      "##": 7439,
      "##θ": 7440,
      "##蹂": 7441,
      "##鄙": 7442,
      "##駕": 7443,
      "##蓮": 7444,
      "##嘉": 7445,
      "##凱": 7446,
      "##串": 7447,
      "##阜": 7448,
      "##淡": 7449,
      "##贖": 7450,
      "##倦": 7451,
      "##蟹": 7452,
      "##噓": 7453,
      "##褐": 7454,
      "##靱": 7455,
      "##屏": 7456,
      "##瞼": 7457,
      "##α": 7458,
      "##伐": 7459,
      "##佇": 7460,
      "##篤": 7461,
      "## ": 7462,
      "##站": 7463,
      "##瞞": 7464,
      "##呎": 7465,
      "##": 7466,
      "##紆": 7467,
      "##鑽": 7468,
      "##顛": 7469,
      "##臺": 7470,
      "##灣": 7471,
      "##與": 7472,
      "##楓": 7473,
      "##酉": 7474,
      "##窯": 7475,
      "##雹": 7476,
      "##珈": 7477,
      "##琲": 7478,
      "##茫": 7479,
      "##腑": 7480,
      "##榊": 7481,
      "##歎": 7482,
      "##楊": 7483,
      "##冑": 7484,
      "##啊": 7485,
      "##鞘": 7486,
      "##屯": 7487,
      "##姐": 7488,
      "##鰐": 7489,
      "##錘": 7490,
      "##儘": 7491,
      "##數": 7492,
      "##几": 7493,
      "##⁠": 7494,
      "##⑩": 7495,
      "##ç": 7496,
      "##嶋": 7497,
      "##": 7498,
      "##櫑": 7499,
      "##粥": 7500,
      "##劫": 7501,
      "##桑": 7502,
      "##昂": 7503,
      "##时": 7504,
      "##间": 7505,
      "##乎": 7506,
      "##爛": 7507,
      "##堆": 7508,
      "##喬": 7509,
      "##坦": 7510,
      "##汎": 7511,
      "##灌": 7512,
      "##痒": 7513,
      "##ぢ": 7514,
      "##ゑ": 7515,
      "##葺": 7516,
      "##噤": 7517,
      "##嘱": 7518,
      "##ﾜ": 7519,
      "##櫃": 7520,
      "##萠": 7521,
      "##안": 7522,
      "##녕": 7523,
      "##†": 7524,
      "##凋": 7525,
      "##ﾛ": 7526,
      "##©": 7527,
      "##ν": 7528,
      "##蕾": 7529,
      "##謄": 7530,
      "##曙": 7531,
      "##": 7532,
      "##梳": 7533,
      "##慾": 7534,
      "##錦": 7535,
      "##潟": 7536,
      "##塹": 7537,
      "##辜": 7538,
      "##诂": 7539,
      "##搜": 7540,
      "##〇": 7541,
      "##薯": 7542,
      "##巳": 7543,
      "##": 7544,
      "##冲": 7545,
      "##这": 7546,
      "##无": 7547,
      "##边": 7548,
      "##黑": 7549,
      "##ｿ": 7550,
      "##俊": 7551,
      "##捲": 7552,
      "##拋": 7553,
      "##燼": 7554,
      "##邑": 7555,
      "##☎": 7556,
      "##°": 7557,
      "##": 7558,
      "##鮫": 7559,
      "##弯": 7560,
      "##塑": 7561,
      "##ü": 7562,
      "##酋": 7563,
      "##狸": 7564,
      "##滾": 7565,
      "##拂": 7566,
      "##變": 7567,
      "##豁": 7568,
      "##櫛": 7569,
      "##碗": 7570,
      "##仅": 7571,
      "##习": 7572,
      "##于": 7573,
      "##业": 7574,
      "##簀": 7575,
      "##ｹ": 7576,
      "##菅": 7577,
      "##泙": 7578,
      "##朴": 7579,
      "##犀": 7580,
      "##厨": 7581,
      "##啼": 7582,
      "##ｮ": 7583,
      "##峰": 7584,
      "##": 7585,
      "##": 7586,
      "##∨": 7587,
      "##橈": 7588,
      "##尺": 7589,
      "##竦": 7590,
      "##惡": 7591,
      "##躾": 7592,
      "##棍": 7593,
      "##辷": 7594,
      "##∀": 7595,
      "##剪": 7596,
      "##鰻": 7597,
      "##崗": 7598,
      "##繹": 7599,
      "##誑": 7600,
      "##呟": 7601,
      "##簒": 7602,
      "##¤": 7603,
      "##磔": 7604,
      "##朋": 7605,
      "##ｐ": 7606,
      "##◎": 7607,
      "##△": 7608,
      "##▼": 7609,
      "##☆": 7610,
      "##●": 7611,
      "##碁": 7612,
      "##β": 7613,
      "##吧": 7614,
      "##Ä": 7615,
      "##蒼": 7616,
      "##琶": 7617,
      "##箸": 7618,
      "##芻": 7619,
      "##庄": 7620,
      "##丼": 7621,
      "##": 7622,
      "##潅": 7623,
      "##穿": 7624,
      "##¯": 7625,
      "##＾": 7626,
      "##ł": 7627,
      "##侭": 7628,
      "##ﾕ": 7629,
      "##ﾔ": 7630,
      "##蹟": 7631,
      "##癡": 7632,
      "##煌": 7633,
      "##雫": 7634,
      "##": 7635,
      "##眈": 7636,
      "##佃": 7637,
      "##篆": 7638,
      "##款": 7639,
      "##箪": 7640,
      "##笥": 7641,
      "##斤": 7642,
      "##盒": 7643,
      "##杞": 7644,
      "##澤": 7645,
      "##恣": 7646,
      "##閂": 7647,
      "##匡": 7648,
      "##鋸": 7649,
      "##驕": 7650,
      "##墮": 7651,
      "##賽": 7652,
      "##盧": 7653,
      "##猊": 7654,
      "##憊": 7655,
      "##欒": 7656,
      "##秦": 7657,
      "##漿": 7658,
      "##斗": 7659,
      "##±": 7660,
      "##矩": 7661,
      "##綽": 7662,
      "##鯉": 7663,
      "##萬": 7664,
      "##`": 7665,
      "##竺": 7666,
      "##漸": 7667,
      "##戀": 7668,
      "##晚": 7669,
      "##茸": 7670,
      "##窺": 7671,
      "##殼": 7672,
      "##㎡": 7673,
      "##禎": 7674,
      "##矿": 7675,
      "##厂": 7676,
      "##發": 7677,
      "##攜": 7678,
      "##虛": 7679,
      "##脾": 7680,
      "##铛": 7681,
      "##": 7682,
      "##噺": 7683,
      "##㍉": 7684,
      "##ﾉ": 7685,
      "##拇": 7686,
      "##冀": 7687,
      "##疇": 7688,
      "##ã": 7689,
      "##將": 7690,
      "##ｊ": 7691,
      "##": 7692,
      "##欝": 7693,
      "##雁": 7694,
      "##风": 7695,
      "##离": 7696,
      "##痲": 7697,
      "##鴨": 7698,
      "##樵": 7699,
      "##禾": 7700,
      "##拗": 7701,
      "##μ": 7702,
      "##擲": 7703,
      "##Å": 7704,
      "##羞": 7705,
      "##輻": 7706,
      "##吝": 7707,
      "##嗇": 7708,
      "##藝": 7709,
      "##粕": 7710,
      "##訃": 7711,
      "##趾": 7712,
      "##夥": 7713,
      "##燕": 7714,
      "##遁": 7715,
      "##蕉": 7716,
      "##彈": 7717,
      "##禮": 7718,
      "##姬": 7719,
      "##饗": 7720,
      "##愿": 7721,
      "##譁": 7722,
      "##蠢": 7723,
      "##瀉": 7724,
      "##瞥": 7725,
      "##菱": 7726,
      "##壜": 7727,
      "##眾": 7728,
      "##喃": 7729,
      "##犧": 7730,
      "##但": 7731,
      "##颯": 7732,
      "##檜": 7733,
      "##笙": 7734,
      "##附": 7735,
      "##魁": 7736,
      "##脋": 7737,
      "##鱈": 7738,
      "##姑": 7739,
      "##爭": 7740,
      "##租": 7741,
      "##沫": 7742,
      "##謂": 7743,
      "##栖": 7744,
      "##嚼": 7745,
      "##宕": 7746,
      "##鵞": 7747,
      "##耄": 7748,
      "##碌": 7749,
      "##舍": 7750,
      "##桝": 7751,
      "##漑": 7752,
      "##觉": 7753,
      "##瀝": 7754,
      "##柤": 7755,
      "##說": 7756,
      "##懂": 7757,
      "##碍": 7758,
      "##轴": 7759,
      "##毘": 7760,
      "##鬣": 7761,
      "##鶤": 7762,
      "##蓼": 7763,
      "##懷": 7764,
      "##艷": 7765,
      "##彡": 7766,
      "##诸": 7767,
      "##组": 7768,
      "##眸": 7769,
      "##騾": 7770,
      "##籤": 7771,
      "##ß": 7772,
      "##躁": 7773,
      "##緖": 7774,
      "##墳": 7775,
      "##闌": 7776,
      "##λ": 7777,
      "##齔": 7778,
      "##鱗": 7779,
      "##韶": 7780,
      "##祟": 7781,
      "##國": 7782,
      "##荳": 7783,
      "##蹌": 7784,
      "##踉": 7785,
      "##慇": 7786,
      "##懃": 7787,
      "##兇": 7788,
      "##讓": 7789,
      "##躯": 7790,
      "##毀": 7791,
      "##Ⅱ": 7792,
      "##閏": 7793,
      "##ñ": 7794,
      "##靈": 7795,
      "##眞": 7796,
      "##娑": 7797,
      "##ゝ": 7798,
      "##燒": 7799,
      "##淨": 7800,
      "##煤": 7801,
      "##撥": 7802,
      "##偷": 7803,
      "##渾": 7804,
      "##詭": 7805,
      "##苔": 7806,
      "##鬆": 7807,
      "##簾": 7808,
      "##齊": 7809,
      "##猴": 7810,
      "##蛋": 7811,
      "##李": 7812,
      "##蕁": 7813,
      "##摇": 7814,
      "##誂": 7815,
      "##對": 7816,
      "##她": 7817,
      "##湘": 7818,
      "##兩": 7819,
      "##婬": 7820,
      "##詔": 7821,
      "##呻": 7822,
      "##褪": 7823,
      "##洟": 7824,
      "##賤": 7825,
      "##鰹": 7826,
      "##筧": 7827,
      "##險": 7828,
      "##寨": 7829,
      "##蕗": 7830,
      "##撩": 7831,
      "##磋": 7832,
      "##琢": 7833,
      "##γ": 7834,
      "##檀": 7835,
      "##祀": 7836,
      "##砥": 7837,
      "##吞": 7838,
      "##嬰": 7839,
      "##馨": 7840,
      "##柬": 7841,
      "##輌": 7842,
      "##帷": 7843,
      "##杆": 7844,
      "##蛹": 7845,
      "##豹": 7846,
      "##熔": 7847,
      "##愼": 7848,
      "##凸": 7849,
      "##僻": 7850,
      "##’": 7851,
      "##芭": 7852,
      "##彭": 7853,
      "##〒": 7854,
      "##鑢": 7855,
      "##′": 7856,
      "##鐵": 7857,
      "##揶": 7858,
      "##揄": 7859,
      "##Ú": 7860,
      "##蝙": 7861,
      "##蝠": 7862,
      "##■": 7863,
      "##寐": 7864,
      "##麟": 7865,
      "##疱": 7866,
      "##丹": 7867,
      "##仗": 7868,
      "##｀": 7869,
      "##Д": 7870,
      "##´": 7871,
      "##邏": 7872,
      "##鑚": 7873,
      "##＠": 7874,
      "##禮": 7875,
      "##瞋": 7876,
      "##゚": 7877,
      "##碾": 7878,
      "##袱": 7879,
      "##鮪": 7880,
      "##寡": 7881,
      "##∞": 7882,
      "##顆": 7883,
      "##翅": 7884,
      "##疔": 7885,
      "##體": 7886,
      "##瘻": 7887,
      "##嶺": 7888,
      "##耀": 7889,
      "##®": 7890,
      "##梢": 7891,
      "##醍": 7892,
      "##醐": 7893,
      "##↑": 7894,
      "##罾": 7895,
      "##椀": 7896,
      "##鴎": 7897,
      "##ヮ": 7898,
      "##峽": 7899,
      "##涎": 7900,
      "##": 7901,
      "##ｘ": 7902,
      "##俄": 7903,
      "##厘": 7904,
      "##軋": 7905,
      "##磐": 7906,
      "##泄": 7907,
      "##從": 7908,
      "##滋": 7909,
      "##榎": 7910,
      "##諫": 7911,
      "##覿": 7912,
      "##ρ": 7913,
      "##閨": 7914,
      "##怎": 7915,
      "##么": 7916,
      "##薩": 7917,
      "##疚": 7918,
      "##": 7919,
      "##": 7920,
      "##愕": 7921,
      "##寅": 7922,
      "##橿": 7923,
      "##骼": 7924,
      "##駝": 7925,
      "##學": 7926,
      "##凛": 7927,
      "##銮": 7928,
      "##擢": 7929,
      "##柊": 7930,
      "##瘡": 7931,
      "##㎏": 7932,
      "##篇": 7933,
      "##": 7934,
      "##": 7935,
      "##裾": 7936,
      "##賣": 7937,
      "##�": 7938,
      "##拵": 7939,
      "##攀": 7940,
      "##齧": 7941,
      "##杪": 7942,
      "##廟": 7943,
      "##啄": 7944,
      "##褥": 7945,
      "##斂": 7946,
      "##冨": 7947,
      "##阁": 7948,
      "##穰": 7949,
      "##邂": 7950,
      "##逅": 7951,
      "##狗": 7952,
      "##螺": 7953,
      "##嬌": 7954,
      "##虻": 7955,
      "##慟": 7956,
      "##哭": 7957,
      "##ﾂ": 7958,
      "##弋": 7959,
      "##菩": 7960,
      "##儂": 7961,
      "##渥": 7962,
      "##瑁": 7963,
      "##薮": 7964,
      "##ㄣ": 7965,
      "##餉": 7966,
      "##謬": 7967,
      "##靡": 7968,
      "##◇": 7969,
      "##黷": 7970,
      "##謔": 7971,
      "##焙": 7972,
      "##譴": 7973,
      "##脹": 7974,
      "##湛": 7975,
      "##゛": 7976,
      "##枦": 7977,
      "##": 7978,
      "##稜": 7979,
      "##饅": 7980,
      "##唤": 7981,
      "##为": 7982,
      "##鸣": 7983,
      "##筑": 7984,
      "##№": 7985,
      "##焰": 7986,
      "##髮": 7987,
      "##주": 7988,
      "##시": 7989,
      "##공": 7990,
      "##간": 7991,
      "##과": 7992,
      "##이": 7993,
      "##존": 7994,
      "##하": 7995,
      "##는": 7996,
      "##우": 7997,
      "##지": 7998,
      "##遽": 7999,
      "##扁": 8000,
      "##啾": 8001,
      "##霣": 8002,
      "##∕": 8003,
      "##刚": 8004,
      "##鬛": 8005,
      "##蓬": 8006,
      "##楚": 8007,
      "##悛": 8008,
      "##痰": 8009,
      "##擂": 8010,
      "##禍": 8011,
      "##阨": 8012,
      "##蚕": 8013,
      "##茴": 8014,
      "##旭": 8015,
      "##廣": 8016,
      "##躪": 8017,
      "##收": 8018,
      "##衿": 8019,
      "##ヱ": 8020,
      "##楔": 8021,
      "##蛆": 8022,
      "##渚": 8023,
      "##麿": 8024,
      "##ä": 8025,
      "##闖": 8026,
      "##敦": 8027,
      "##奄": 8028,
      "##": 8029,
      "##ô": 8030,
      "##杓": 8031,
      "##壯": 8032,
      "##蒡": 8033,
      "##": 8034,
      "##錨": 8035,
      "##苺": 8036,
      "##碎": 8037,
      "##藉": 8038,
      "##證": 8039,
      "##荊": 8040,
      "##壞": 8041,
      "##菴": 8042,
      "##捺": 8043,
      "##駁": 8044,
      "##佩": 8045,
      "##緘": 8046,
      "##€": 8047,
      "##": 8048,
      "##瀋": 8049,
      "##鮭": 8050,
      "##辰": 8051,
      "##ｂ": 8052,
      "##妾": 8053,
      "##喂": 8054,
      "##腋": 8055,
      "##值": 8056,
      "##靄": 8057,
      "##賎": 8058,
      "##誅": 8059,
      "##箔": 8060,
      "##疥": 8061,
      "##癬": 8062,
      "##怜": 8063,
      "##悧": 8064,
      "##捩": 8065,
      "##鋒": 8066,
      "##飄": 8067,
      "##穹": 8068,
      "##汀": 8069,
      "##芥": 8070,
      "##膣": 8071,
      "##疣": 8072,
      "##婉": 8073,
      "##鵬": 8074,
      "##邊": 8075,
      "##撓": 8076,
      "##鋲": 8077,
      "##縊": 8078,
      "##Ⅳ": 8079,
      "##跋": 8080,
      "##扈": 8081,
      "##庵": 8082,
      "##騨": 8083,
      "##駱": 8084,
      "##槙": 8085,
      "##孩": 8086,
      "##〆": 8087,
      "##鴬": 8088,
      "##↓": 8089,
      "##斟": 8090,
      "##疵": 8091,
      "##埼": 8092,
      "##腓": 8093,
      "##㎎": 8094,
      "##兌": 8095,
      "##": 8096,
      "##閤": 8097,
      "##猩": 8098,
      "##涛": 8099,
      "##步": 8100,
      "##艀": 8101,
      "##鷺": 8102,
      "##恫": 8103,
      "##闢": 8104,
      "##掠": 8105,
      "##㎝": 8106,
      "##蜴": 8107,
      "##｜": 8108,
      "##勒": 8109,
      "##諒": 8110,
      "##鳶": 8111,
      "##饒": 8112,
      "##啜": 8113,
      "##假": 8114,
      "##裝": 8115,
      "##鳫": 8116,
      "##咤": 8117,
      "##塾": 8118,
      "##梟": 8119,
      "##炯": 8120,
      "##鯰": 8121,
      "##苅": 8122,
      "##嗽": 8123,
      "##葵": 8124,
      "##蜃": 8125,
      "##擋": 8126,
      "##朕": 8127,
      "##": 8128,
      "##": 8129,
      "##恆": 8130,
      "##找": 8131,
      "##½": 8132,
      "##邁": 8133,
      "##搦": 8134,
      "##箝": 8135,
      "##瘢": 8136,
      "##點": 8137,
      "##埓": 8138,
      "##穐": 8139,
      "##ψ": 8140,
      "##蘊": 8141,
      "##縒": 8142,
      "##楢": 8143,
      "##㌦": 8144,
      "##嗣": 8145,
      "##觸": 8146,
      "##碼": 8147,
      "##霰": 8148,
      "##ｆ": 8149,
      "##凭": 8150,
      "##蝉": 8151,
      "##彊": 8152,
      "##笠": 8153,
      "##敲": 8154,
      "##卷": 8155,
      "##õ": 8156,
      "##鱸": 8157,
      "##淀": 8158,
      "##圖": 8159,
      "##斷": 8160,
      "##邇": 8161,
      "##⌊": 8162,
      "##⌋": 8163,
      "##蟲": 8164,
      "##靜": 8165,
      "##晃": 8166,
      "##袴": 8167,
      "##糺": 8168,
      "##φ": 8169,
      "##醫": 8170,
      "##螂": 8171,
      "##婁": 8172,
      "##尤": 8173,
      "##棕": 8174,
      "##櫚": 8175,
      "##戌": 8176,
      "##閊": 8177,
      "##濳": 8178,
      "##": 8179,
      "##酩": 8180,
      "##酊": 8181,
      "##〓": 8182,
      "##苑": 8183,
      "##絃": 8184,
      "##涵": 8185,
      "##芹": 8186,
      "##蜊": 8187,
      "##鯛": 8188,
      "##蟠": 8189,
      "##＃": 8190,
      "##": 8191,
      "##㌘": 8192,
      "##頒": 8193,
      "##巴": 8194,
      "##駈": 8195,
      "##犇": 8196,
      "##乍": 8197,
      "##诵": 8198,
      "##梧": 8199,
      "##笨": 8200,
      "##單": 8201,
      "##ない": 8202,
      "##って": 8203,
      "##った": 8204,
      "##して": 8205,
      "##..": 8206,
      "##した": 8207,
      "- ": 8208,
      "##から": 8209,
      "##なた": 8210,
      "##んだ": 8211,
      "##する": 8212,
      "##です": 8213,
      "##こと": 8214,
      "##...": 8215,
      "##ます": 8216,
      "##は ": 8217,
      "##いる": 8218,
      "##ある": 8219,
      "##か？": 8220,
      "##あなた": 8221,
      "##かった": 8222,
      "##よう": 8223,
      "##れる": 8224,
      "##に ": 8225,
      "##いた": 8226,
      "##れた": 8227,
      "##れは": 8228,
      "##いて": 8229,
      "##を ": 8230,
      "##じゃ": 8231,
      "##が ": 8232,
      "##んな": 8233,
      "##ってる": 8234,
      "##しい": 8235,
      "##れて": 8236,
      "##いい": 8237,
      "##なら": 8238,
      "##には": 8239,
      "##かれ": 8240,
      "##そう": 8241,
      "##さい": 8242,
      "##それ": 8243,
      "##どう": 8244,
      "あなた": 8245,
      "##でも": 8246,
      "##の ": 8247,
      "##その": 8248,
      "##ろう": 8249,
      "##たち": 8250,
      "##にな": 8251,
      "##で ": 8252,
      "##の？": 8253,
      "##ラー": 8254,
      "##ック": 8255,
      "##ませ": 8256,
      "##・・": 8257,
      "##っと": 8258,
      "##なかった": 8259,
      "##だけ": 8260,
      "それ": 8261,
      "##だった": 8262,
      "##でき": 8263,
      "##さん": 8264,
      "##ません": 8265,
      "##ました": 8266,
      "##は　": 8267,
      "##あなたが": 8268,
      "##じゃない": 8269,
      "##この": 8270,
      "##もの": 8271,
      "##くれ": 8272,
      "##しょ": 8273,
      "##あり": 8274,
      "##リー": 8275,
      "##えて": 8276,
      "##ます。": 8277,
      "##を見": 8278,
      "##ため": 8279,
      "##れば": 8280,
      "##かれら": 8281,
      "##がある": 8282,
      "##んで": 8283,
      "##... ": 8284,
      "##たい": 8285,
      "##は，": 8286,
      "##である": 8287,
      "##こに": 8288,
      "##と ": 8289,
      "##してる": 8290,
      "##ール": 8291,
      "##では": 8292,
      "##ない。": 8293,
      "##あなたがた": 8294,
      "##ッラー": 8295,
      "この": 8296,
      "##e ": 8297,
      "##ター": 8298,
      "私は": 8299,
      "##と思": 8300,
      "彼女": 8301,
      "##だ ": 8302,
      "##のか": 8303,
      "##なく": 8304,
      "##える": 8305,
      "##ット": 8306,
      "そう": 8307,
      "##アッラー": 8308,
      "その": 8309,
      "彼は": 8310,
      "どう": 8311,
      "##つけ": 8312,
      "##は？": 8313,
      "##は、": 8314,
      "##よ ": 8315,
      "##っている": 8316,
      "##も ": 8317,
      "##ート": 8318,
      "##また": 8319,
      "##である。": 8320,
      "##彼女": 8321,
      "##いう": 8322,
      "##まで": 8323,
      "##スト": 8324,
      "##いつ": 8325,
      "##るの": 8326,
      "##された": 8327,
      "##必要": 8328,
      "##当に": 8329,
      "##れない": 8330,
      "##めて": 8331,
      "##これ": 8332,
      "##させ": 8333,
      "##でしょ": 8334,
      "##言った": 8335,
      "いい": 8336,
      "##in": 8337,
      "##けて": 8338,
      "##であ": 8339,
      "##ことを": 8340,
      "##言う": 8341,
      "##けど": 8342,
      "##ード": 8343,
      "##さい。": 8344,
      "##られる": 8345,
      "##って ": 8346,
      "##ティ": 8347,
      "##らない": 8348,
      "##、 ": 8349,
      "##だろう": 8350,
      "##している": 8351,
      "お前": 8352,
      "##もう": 8353,
      "##ディ": 8354,
      "##しない": 8355,
      "これ": 8356,
      "##います": 8357,
      "##行く": 8358,
      "##なん": 8359,
      "## -": 8360,
      "##イン": 8361,
      "##ラン": 8362,
      "##です。": 8363,
      "##のか？": 8364,
      "##から ": 8365,
      "##わた": 8366,
      "##お前": 8367,
      "##のため": 8368,
      "##ように": 8369,
      "##だろ": 8370,
      "##自分": 8371,
      "##かな": 8372,
      "##ーン": 8373,
      "##だよ": 8374,
      "##か ": 8375,
      "##もし": 8376,
      "##時間": 8377,
      "##の中": 8378,
      "##らは": 8379,
      "##・・・": 8380,
      "##だ？": 8381,
      "##ント": 8382,
      "##出来": 8383,
      "##より": 8384,
      "##きた": 8385,
      "##だ。": 8386,
      "##t ": 8387,
      "##なの": 8388,
      "##ちゃ": 8389,
      "##ってた": 8390,
      "もう": 8391,
      "##にも": 8392,
      "##ける": 8393,
      "##ら ": 8394,
      "##on": 8395,
      "##s ": 8396,
      "##丈夫": 8397,
      "##かり": 8398,
      "##er": 8399,
      "##ョン": 8400,
      "##なんだ": 8401,
      "##があ": 8402,
      "##て ": 8403,
      "##イル": 8404,
      "##される": 8405,
      "##ーム": 8406,
      "##になる": 8407,
      "##えた": 8408,
      "##ース": 8409,
      "##ここ": 8410,
      "##した。": 8411,
      "##のは": 8412,
      "##私の": 8413,
      "##来た": 8414,
      "##かる": 8415,
      "##か。": 8416,
      "##として": 8417,
      "##かし": 8418,
      "##私は": 8419,
      "##てる": 8420,
      "それは": 8421,
      "##人の": 8422,
      "##本当に": 8423,
      "##ファ": 8424,
      "##th": 8425,
      "##いない": 8426,
      "##ょっと": 8427,
      "##に入": 8428,
      "でも": 8429,
      "##った。": 8430,
      "##されて": 8431,
      "##します": 8432,
      "##やる": 8433,
      "##？ ": 8434,
      "##くだ": 8435,
      "##られた": 8436,
      "##, ": 8437,
      "##ライ": 8438,
      "##だな": 8439,
      "ここ": 8440,
      "##あなたの": 8441,
      "##ージ": 8442,
      "##ンド": 8443,
      "彼女は": 8444,
      "##事を": 8445,
      "##だが": 8446,
      "##ことは": 8447,
      "##こう": 8448,
      "##を持": 8449,
      "##だと": 8450,
      "##みたい": 8451,
      "##ても": 8452,
      "##っち": 8453,
      "##くな": 8454,
      "##何か": 8455,
      "##ことが": 8456,
      "##とう": 8457,
      "##のよ": 8458,
      "##できる": 8459,
      "##ついて": 8460,
      "ああ": 8461,
      "##んです": 8462,
      "##べて": 8463,
      "##やって": 8464,
      "##しま": 8465,
      "##信じ": 8466,
      "##。「": 8467,
      "##ければ": 8468,
      "##リン": 8469,
      "##と思う": 8470,
      "##無い": 8471,
      "##べき": 8472,
      "## - ": 8473,
      "##ッド": 8474,
      "##を殺": 8475,
      "私の": 8476,
      "##かない": 8477,
      "##める": 8478,
      "##フィ": 8479,
      "##どこ": 8480,
      "##an": 8481,
      "いや": 8482,
      "##ここに": 8483,
      "##ュー": 8484,
      "##一緒": 8485,
      "##して ": 8486,
      "##00": 8487,
      "##つも": 8488,
      "##の人": 8489,
      "##好き": 8490,
      "##でしょう": 8491,
      "##され": 8492,
      "##バー": 8493,
      "##くない": 8494,
      "##します。": 8495,
      "##en": 8496,
      "##だから": 8497,
      "##同じ": 8498,
      "##らせ": 8499,
      "##な ": 8500,
      "##であろう": 8501,
      "##まだ": 8502,
      "##ーク": 8503,
      "##かに": 8504,
      "##電話": 8505,
      "##！ ": 8506,
      "##とは": 8507,
      "あの": 8508,
      "##けた": 8509,
      "##なら ": 8510,
      "##しろ": 8511,
      "##言って": 8512,
      "あなたは": 8513,
      "##まり": 8514,
      "##という": 8515,
      "##ップ": 8516,
      "##んた": 8517,
      "##らの": 8518,
      "##に行": 8519,
      "##ない ": 8520,
      "##し ": 8521,
      "##d ": 8522,
      "##前に": 8523,
      "##それは": 8524,
      "##場所": 8525,
      "##リア": 8526,
      "これは": 8527,
      "##ね ": 8528,
      "##い ": 8529,
      "##or": 8530,
      "##がいい": 8531,
      "##それを": 8532,
      "##何を": 8533,
      "##とも": 8534,
      "##ou": 8535,
      "##我々": 8536,
      "##んだ？": 8537,
      "##のために": 8538,
      "##とこ": 8539,
      "##y ": 8540,
      "##なさい。": 8541,
      "##すぐ": 8542,
      "##がとう": 8543,
      "##だ！": 8544,
      "##仕事": 8545,
      "##ャン": 8546,
      "##わたし": 8547,
      "##知ってる": 8548,
      "##よ。": 8549,
      "##めた": 8550,
      "##ません。": 8551,
      "##取り": 8552,
      "##彼は": 8553,
      "##しょう": 8554,
      "##大丈夫": 8555,
      "##ないわ": 8556,
      "##なる": 8557,
      "##はず": 8558,
      "それで": 8559,
      "##問題": 8560,
      "##\" ": 8561,
      "##良い": 8562,
      "##のこと": 8563,
      "##何も": 8564,
      "##られ": 8565,
      "##来る": 8566,
      "##ですか？": 8567,
      "あなたが": 8568,
      "##には ": 8569,
      "##したい": 8570,
      "##なければ": 8571,
      "##通り": 8572,
      "なぜ": 8573,
      "##にして": 8574,
      "##によ": 8575,
      "私が": 8576,
      "##ニー": 8577,
      "##たちは": 8578,
      "##しよう": 8579,
      "##，かれら": 8580,
      "##しく": 8581,
      "##について": 8582,
      "また": 8583,
      "##そんな": 8584,
      "##. ": 8585,
      "##っていた": 8586,
      "##であろう。": 8587,
      "##，また": 8588,
      "我々": 8589,
      "##ング": 8590,
      "##終わ": 8591,
      "##そして": 8592,
      "##彼の": 8593,
      "##ジェ": 8594,
      "##つもり": 8595,
      "##しました": 8596,
      "##シー": 8597,
      "##生き": 8598,
      "##サー": 8599,
      "##カー": 8600,
      "##リス": 8601,
      "##られる。": 8602,
      "##の事": 8603,
      "##かも": 8604,
      "##したち": 8605,
      "##はない": 8606,
      "##ような": 8607,
      "##私が": 8608,
      "##これは": 8609,
      "##あなたは": 8610,
      "##am": 8611,
      "##せて": 8612,
      "##ロー": 8613,
      "そして": 8614,
      "##名前": 8615,
      "##くれる": 8616,
      "だが": 8617,
      "あなたの": 8618,
      "##ar": 8619,
      "君は": 8620,
      "##なさい": 8621,
      "##聞いて": 8622,
      "##われ": 8623,
      "##ti": 8624,
      "##してた": 8625,
      "俺は": 8626,
      "##のに": 8627,
      "##ね？": 8628,
      "##せる": 8629,
      "##があった": 8630,
      "##願い": 8631,
      "かれ": 8632,
      "そんな": 8633,
      "##えない": 8634,
      "##違う": 8635,
      "##ソン": 8636,
      "##スター": 8637,
      "##の子": 8638,
      "##わたしたち": 8639,
      "##に対": 8640,
      "##つけた": 8641,
      "##ション": 8642,
      "##。 ": 8643,
      "##欲しい": 8644,
      "##ックス": 8645,
      "##わない": 8646,
      "##re": 8647,
      "##なんて": 8648,
      "もし": 8649,
      "##ところ": 8650,
      "##のは ": 8651,
      "##があり": 8652,
      "##感じ": 8653,
      "##かれは": 8654,
      "##だって": 8655,
      "##o ": 8656,
      "##いや": 8657,
      "##者の": 8658,
      "##君の": 8659,
      "##んだ ": 8660,
      "ええ": 8661,
      "##) ": 8662,
      "##を使": 8663,
      "##だ　": 8664,
      "##起こ": 8665,
      "##ャー": 8666,
      "##はどう": 8667,
      "##います。": 8668,
      "何か": 8669,
      "##かってる": 8670,
      "##わ ": 8671,
      "##パー": 8672,
      "##話を": 8673,
      "##われは": 8674,
      "##いで": 8675,
      "##が必要": 8676,
      "##，あなたがた": 8677,
      "##からない": 8678,
      "##られない": 8679,
      "##そこ": 8680,
      "##来て": 8681,
      "だから": 8682,
      "##マン": 8683,
      "##フォ": 8684,
      "##です ": 8685,
      "##自分の": 8686,
      "##一緒に": 8687,
      "##くれた": 8688,
      "##い？": 8689,
      "##る ": 8690,
      "##al": 8691,
      "##人間": 8692,
      "彼の": 8693,
      "##ください": 8694,
      "ちょっと": 8695,
      "##よく": 8696,
      "##いる。": 8697,
      "##らしい": 8698,
      "##関係": 8699,
      "##人が": 8700,
      "##こそ": 8701,
      "##キー": 8702,
      "##ではない": 8703,
      "##全て": 8704,
      "##人は": 8705,
      "##してくれ": 8706,
      "##的な": 8707,
      "##にする": 8708,
      "##はい": 8709,
      "##ろ！": 8710,
      "♪ ": 8711,
      "##ほど": 8712,
      "##ちょっと": 8713,
      "君の": 8714,
      "本当に": 8715,
      "##少し": 8716,
      "##ファイル": 8717,
      "##アッラーの": 8718,
      "##引き": 8719,
      "##レイ": 8720,
      "##悪い": 8721,
      "##世界": 8722,
      "##出て": 8723,
      "じゃ": 8724,
      "##あの": 8725,
      "##者を": 8726,
      "##していた": 8727,
      "自分": 8728,
      "##やった": 8729,
      "##意味": 8730,
      "##になった": 8731,
      "##かって": 8732,
      "##よ　": 8733,
      "##場合": 8734,
      "##it": 8735,
      "##ステ": 8736,
      "##くら": 8737,
      "##に戻": 8738,
      "##ンの": 8739,
      "##への": 8740,
      "##に会": 8741,
      "##がない": 8742,
      "##可能": 8743,
      "##― ": 8744,
      "##考え": 8745,
      "##でした": 8746,
      "##を知": 8747,
      "##連れて": 8748,
      "##st": 8749,
      "##すべて": 8750,
      "##にお": 8751,
      "##ちゃん": 8752,
      "##けない": 8753,
      "##くる": 8754,
      "##は何": 8755,
      "##情報": 8756,
      "##ありがとう": 8757,
      "##くの": 8758,
      "##いに": 8759,
      "##が，": 8760,
      "##それで": 8761,
      "##にいる": 8762,
      "##けど ": 8763,
      "##か?": 8764,
      "##イス": 8765,
      "##を受": 8766,
      "##レン": 8767,
      "##見て": 8768,
      "大丈夫": 8769,
      "##とき": 8770,
      "##できない": 8771,
      "##あ ": 8772,
      "## (": 8773,
      "##とか": 8774,
      "##子供": 8775,
      "##あ　": 8776,
      "##なくて": 8777,
      "##にか": 8778,
      "-　": 8779,
      "##持ち": 8780,
      "##りたい": 8781,
      "##思い": 8782,
      "##きゃ": 8783,
      "##アン": 8784,
      "##the ": 8785,
      "##すれば": 8786,
      "##なぜ": 8787,
      "##が、": 8788,
      "##のか。": 8789,
      "##ちら": 8790,
      "##もら": 8791,
      "##逃げ": 8792,
      "まだ": 8793,
      "##かもし": 8794,
      "##以上": 8795,
      "##者は": 8796,
      "##at": 8797,
      "##ありません": 8798,
      "##なの？": 8799,
      "##よ！": 8800,
      "##られて": 8801,
      "##ー ": 8802,
      "##上げ": 8803,
      "##ならない。": 8804,
      "##たちの": 8805,
      "##家族": 8806,
      "##あった": 8807,
      "##誰か": 8808,
      "##つの": 8809,
      "おい": 8810,
      "##死んだ": 8811,
      "##だろ？": 8812,
      "##間違": 8813,
      "##聞いた": 8814,
      "##るんだ": 8815,
      "##イト": 8816,
      "##考えて": 8817,
      "##した ": 8818,
      "##アッラーは": 8819,
      "##ドル": 8820,
      "##ウィ": 8821,
      "##落ち": 8822,
      "##達は": 8823,
      "##助け": 8824,
      "##ました。": 8825,
      "##シュ": 8826,
      "##捜査": 8827,
      "彼が": 8828,
      "##まえ": 8829,
      "##約束": 8830,
      "##みんな": 8831,
      "##」と": 8832,
      "あんた": 8833,
      "##ために": 8834,
      "##だわ": 8835,
      "##食べ": 8836,
      "##言わ": 8837,
      "##ータ": 8838,
      "##私を": 8839,
      "##すぎ": 8840,
      "##見た": 8841,
      "##言葉": 8842,
      "##を見て": 8843,
      "##なかった。": 8844,
      "##るわ": 8845,
      "##a ": 8846,
      "##いの": 8847,
      "##あなたに": 8848,
      "##私に": 8849,
      "##コン": 8850,
      "##が　": 8851,
      "##理由": 8852,
      "##したの": 8853,
      "彼らは": 8854,
      "##手を": 8855,
      "##こんな": 8856,
      "##ダメ": 8857,
      "##出す": 8858,
      "##の一": 8859,
      "##ルー": 8860,
      "##ing": 8861,
      "##ただ": 8862,
      "##ならない": 8863,
      "##ください。": 8864,
      "##方法": 8865,
      "##り ": 8866,
      "##息子": 8867,
      "##スタ": 8868,
      "##にある": 8869,
      "##ショ": 8870,
      "ジェ": 8871,
      "##ましょう": 8872,
      "##俺の": 8873,
      "##ッチ": 8874,
      "##知らない": 8875,
      "あり": 8876,
      "##プロ": 8877,
      "何を": 8878,
      "##スの": 8879,
      "##君は": 8880,
      "##部屋": 8881,
      "##: ": 8882,
      "##者に": 8883,
      "##を開": 8884,
      "##どんな": 8885,
      "## お": 8886,
      "##どこに": 8887,
      "##者たち": 8888,
      "##かれらは": 8889,
      "##た。": 8890,
      "##大き": 8891,
      "##とても": 8892,
      "##過ぎ": 8893,
      "##彼を": 8894,
      "##in ": 8895,
      "##人を": 8896,
      "##を与": 8897,
      "##教えて": 8898,
      "##日の": 8899,
      "##もっと": 8900,
      "##le": 8901,
      "##連絡": 8902,
      "##リスト": 8903,
      "##させる": 8904,
      "##俺は": 8905,
      "##言った。「": 8906,
      "##に？": 8907,
      "##なり": 8908,
      "##らが": 8909,
      "##で、": 8910,
      "##そこに": 8911,
      "##事は": 8912,
      "##思う": 8913,
      "##リカ": 8914,
      "##ならば": 8915,
      "##を作": 8916,
      "##ダー": 8917,
      "##ったの": 8918,
      "##さない": 8919,
      "##待って": 8920,
      "##仲間": 8921,
      "##ナー": 8922,
      "##準備": 8923,
      "##わね": 8924,
      "みんな": 8925,
      "##が見": 8926,
      "##きて": 8927,
      "##りに": 8928,
      "##なきゃ": 8929,
      "##かの": 8930,
      "##シャ": 8931,
      "##選択": 8932,
      "##したら": 8933,
      "##レス": 8934,
      "##最後": 8935,
      "##．．": 8936,
      "##がいる": 8937,
      "それが": 8938,
      "##変わ": 8939,
      "##om": 8940,
      "##設定": 8941,
      "##いたい": 8942,
      "##ジャ": 8943,
      "##いく": 8944,
      "##ルト": 8945,
      "##ると": 8946,
      "##死ぬ": 8947,
      "##えば": 8948,
      "いいえ": 8949,
      "##そうだ": 8950,
      "##かれらの": 8951,
      "##ビー": 8952,
      "##マー": 8953,
      "ああ　": 8954,
      "##し，": 8955,
      "##ブル": 8956,
      "##った ": 8957,
      "##彼女は": 8958,
      "##確認": 8959,
      "##心配": 8960,
      "##誰も": 8961,
      "##計画": 8962,
      "どこ": 8963,
      "##女性": 8964,
      "##を見つけ": 8965,
      "しかし": 8966,
      "##いを": 8967,
      "##） ": 8968,
      "##ティー": 8969,
      "##あげ": 8970,
      "君が": 8971,
      "##ちろ": 8972,
      "お前は": 8973,
      "##に行く": 8974,
      "##安全": 8975,
      "##危険": 8976,
      "##を見た": 8977,
      "##ーター": 8978,
      "##する ": 8979,
      "##本当": 8980,
      "##のもの": 8981,
      "##ン・": 8982,
      "##る。": 8983,
      "##分かる": 8984,
      "##だけだ": 8985,
      "##でも ": 8986,
      "よし": 8987,
      "##しか": 8988,
      "##se": 8989,
      "##彼が": 8990,
      "##を探": 8991,
      "##キャ": 8992,
      "##っても": 8993,
      "##を守": 8994,
      "##下さい": 8995,
      "##ん ": 8996,
      "##tion": 8997,
      "##んじゃない": 8998,
      "##まま": 8999,
      "##だぞ": 9000,
      "##信仰": 9001,
      "俺の": 9002,
      "##凡て": 9003,
      "##と同じ": 9004,
      "##に　": 9005,
      "##いつも": 9006,
      "##に出": 9007,
      "##わよ": 9008,
      "##それが": 9009,
      "##ame": 9010,
      "##全部": 9011,
      "##あんた": 9012,
      "ここに": 9013,
      "こんな": 9014,
      "##なし": 9015,
      "##ラス": 9016,
      "##早く": 9017,
      "##との": 9018,
      "##いた。": 9019,
      "##ジョ": 9020,
      "##アー": 9021,
      "##れば ": 9022,
      "誰か": 9023,
      "そこ": 9024,
      "##l ": 9025,
      "##理解": 9026,
      "##行き": 9027,
      "##の上": 9028,
      "##なが": 9029,
      "##ねえ": 9030,
      "##方が": 9031,
      "##行け": 9032,
      "##下さい。": 9033,
      "##HP": 9034,
      "##な？": 9035,
      "##%1": 9036,
      "##だけど": 9037,
      "##行った": 9038,
      "##スク": 9039,
      "##チェ": 9040,
      "##いだ": 9041,
      "##するの": 9042,
      "##ってくれ": 9043,
      "##んでる": 9044,
      "##おう": 9045,
      "##っている。": 9046,
      "##のように": 9047,
      "##あなたを": 9048,
      "##･･": 9049,
      "##んだよ": 9050,
      "##わけ": 9051,
      "##よ，": 9052,
      "##タイ": 9053,
      "##した？": 9054,
      "##ウン": 9055,
      "##いました": 9056,
      "##を取": 9057,
      "##ウェ": 9058,
      "##ブラ": 9059,
      "##警察": 9060,
      "##楽し": 9061,
      "##日は": 9062,
      "##する。": 9063,
      "##かもしれない": 9064,
      "##の話": 9065,
      "##結婚": 9066,
      "##に，": 9067,
      "##ですか。": 9068,
      "##新しい": 9069,
      "##必ず": 9070,
      "##他の": 9071,
      "分かった": 9072,
      "##を出": 9073,
      "##になり": 9074,
      "##一人": 9075,
      "##出来る": 9076,
      "##らく": 9077,
      "##やり": 9078,
      "##父さん": 9079,
      "##ここで": 9080,
      "##わかる": 9081,
      "##リック": 9082,
      "##わかった": 9083,
      "##ね。": 9084,
      "##はどこ": 9085,
      "##のお": 9086,
      "##をつけ": 9087,
      "##一度": 9088,
      "##エル": 9089,
      "##懲罰": 9090,
      "##的に": 9091,
      "俺が": 9092,
      "##話す": 9093,
      "##ジョン": 9094,
      "##させて": 9095,
      "##を持って": 9096,
      "##あなたがたの": 9097,
      "##イク": 9098,
      "##まった": 9099,
      "##レー": 9100,
      "##ラム": 9101,
      "##PHP": 9102,
      "パパ": 9103,
      "##にと": 9104,
      "##感謝": 9105,
      "##ベル": 9106,
      "##言ってる": 9107,
      "##めろ": 9108,
      "##- ": 9109,
      "##家に": 9110,
      "##使徒": 9111,
      "##君が": 9112,
      "##ないと": 9113,
      "ママ": 9114,
      "##時に": 9115,
      "##達の": 9116,
      "##調べ": 9117,
      "##事件": 9118,
      "##何が": 9119,
      "##あ、": 9120,
      "##を信じ": 9121,
      "##ミー": 9122,
      "##正しい": 9123,
      "##とした": 9124,
      "##コー": 9125,
      "##かな？": 9126,
      "##で　": 9127,
      "##に見": 9128,
      "##ジュ": 9129,
      "##自身": 9130,
      "##金を": 9131,
      "##ら？": 9132,
      "ごめ": 9133,
      "##っぱ": 9134,
      "##はならない。": 9135,
      "##つか": 9136,
      "##表示": 9137,
      "##者が": 9138,
      "僕は": 9139,
      "##ずっと": 9140,
      "##からの": 9141,
      "##ってお": 9142,
      "##ンス": 9143,
      "##がある。": 9144,
      "##10": 9145,
      "##ンを": 9146,
      "##you": 9147,
      "##彼女の": 9148,
      "##メリカ": 9149,
      "どうして": 9150,
      "##には，": 9151,
      "##って？": 9152,
      "## この": 9153,
      "##ことも": 9154,
      "##者は，": 9155,
      "違う": 9156,
      "##() ": 9157,
      "##es": 9158,
      "##りを": 9159,
      "##を追": 9160,
      "##に、": 9161,
      "##たく": 9162,
      "##ac": 9163,
      "##er ": 9164,
      "##に乗": 9165,
      "##知ら": 9166,
      "##わせ": 9167,
      "##最初": 9168,
      "##ow": 9169,
      "##kg": 9170,
      "我々は": 9171,
      "##十分": 9172,
      "##んだ。": 9173,
      "##パパ": 9174,
      "##に関": 9175,
      "##によって": 9176,
      "##まる": 9177,
      "##ってきた": 9178,
      "##てた": 9179,
      "##慈悲": 9180,
      "##物を": 9181,
      "ただ": 9182,
      "##の）": 9183,
      "##まで ": 9184,
      "どんな": 9185,
      "##聞き": 9186,
      "##チャ": 9187,
      "##っき": 9188,
      "##聞こ": 9189,
      "子供": 9190,
      "##ょう": 9191,
      "##ってない": 9192,
      "##to ": 9193,
      "何も": 9194,
      "##ポート": 9195,
      "##無理": 9196,
      "##に従": 9197,
      "##か　": 9198,
      "##い。": 9199,
      "##私たち": 9200,
      "##しかった": 9201,
      "##彼ら": 9202,
      "##アイ": 9203,
      "何が": 9204,
      "##りの": 9205,
      "彼女の": 9206,
      "##覚えて": 9207,
      "##生活": 9208,
      "##いません": 9209,
      "##最も": 9210,
      "##ママ": 9211,
      "##以外": 9212,
      "##ぞ ": 9213,
      "##フェ": 9214,
      "##であられる。": 9215,
      "##オー": 9216,
      "##だと思": 9217,
      "##el": 9218,
      "##中に": 9219,
      "##れてる": 9220,
      "##ing ": 9221,
      "##ったら": 9222,
      "- あ": 9223,
      "##かれの": 9224,
      "##であり": 9225,
      "##ぶん": 9226,
      "##.kg": 9227,
      "##.kgm": 9228,
      "##あなたがたは": 9229,
      "すぐ": 9230,
      "##ウォ": 9231,
      "##ますか？": 9232,
      "##週間": 9233,
      "##ものを": 9234,
      "なん": 9235,
      "##と言った": 9236,
      "##ている": 9237,
      "##している。": 9238,
      "##してない": 9239,
      "##スを": 9240,
      "##サイ": 9241,
      "いや　": 9242,
      "##クト": 9243,
      "##で，": 9244,
      "##ッセ": 9245,
      "##il": 9246,
      "##分かった": 9247,
      "##ように ": 9248,
      "##お前の": 9249,
      "##命令": 9250,
      "##では ": 9251,
      "##ic": 9252,
      "##など": 9253,
      "##止め": 9254,
      "ありがとう": 9255,
      "##殺人": 9256,
      "##不信": 9257,
      "お前の": 9258,
      "##時 ": 9259,
      "##ケー": 9260,
      "##最高": 9261,
      "##ルの": 9262,
      "##f ": 9263,
      "##れ！": 9264,
      "##ッグ": 9265,
      "##真実": 9266,
      "##お願い": 9267,
      "##事が": 9268,
      "##と、": 9269,
      "##これを": 9270,
      "##説明": 9271,
      "##まく": 9272,
      "##質問": 9273,
      "##友達": 9274,
      "##常に": 9275,
      "##ロック": 9276,
      "##ことに": 9277,
      "##is ": 9278,
      "##の日": 9279,
      "ジョ": 9280,
      "##野郎": 9281,
      "こっち": 9282,
      "##気が": 9283,
      "##言い": 9284,
      "##っく": 9285,
      "##まない": 9286,
      "##トラ": 9287,
      "##ヴァ": 9288,
      "##先生": 9289,
      "##晴らしい": 9290,
      "##アル": 9291,
      "よく": 9292,
      "ファ": 9293,
      "##さえ": 9294,
      "##ン ": 9295,
      "##務所": 9296,
      "##博士": 9297,
      "##になって": 9298,
      "##の主": 9299,
      "- 何": 9300,
      "##ほう": 9301,
      "誰も": 9302,
      "##仕事を": 9303,
      "##できた": 9304,
      "##ぞ！": 9305,
      "##ござ": 9306,
      "##ちろん": 9307,
      "##だね": 9308,
      "##統領": 9309,
      "##こっち": 9310,
      "##ヴィ": 9311,
      "##ステム": 9312,
      "##さ ": 9313,
      "##関数": 9314,
      "もっと": 9315,
      "- そう": 9316,
      "##どうして": 9317,
      "##に向": 9318,
      "##バカ": 9319,
      "##チャン": 9320,
      "##が好き": 9321,
      "##ばかり": 9322,
      "##Name": 9323,
      "##重要": 9324,
      "##れている": 9325,
      "##ですよ": 9326,
      "ここで": 9327,
      "##うち": 9328,
      "##ンは": 9329,
      "##・・・ ": 9330,
      "##を）": 9331,
      "##も，": 9332,
      "##びと": 9333,
      "##すべき": 9334,
      "##く ": 9335,
      "##切り": 9336,
      "##したんだ": 9337,
      "##大な": 9338,
      "##をする": 9339,
      "##ンク": 9340,
      "##のである。": 9341,
      "##写真": 9342,
      "##したの？": 9343,
      "##パイ": 9344,
      "##文字": 9345,
      "##る？": 9346,
      "##手伝": 9347,
      "##一番": 9348,
      "##攻撃": 9349,
      "##と？": 9350,
      "##いて ": 9351,
      "##は...": 9352,
      "##俺が": 9353,
      "##は、 ": 9354,
      "##っかり": 9355,
      "##ろ ": 9356,
      "##を？": 9357,
      "##を殺す": 9358,
      "##さん ": 9359,
      "トム": 9360,
      "##メラ": 9361,
      "##をか": 9362,
      "##でしょ？": 9363,
      "##全員": 9364,
      "##るな": 9365,
      "##記録": 9366,
      "## 4": 9367,
      "##出来ない": 9368,
      "##いか": 9369,
      "##自由": 9370,
      "##結果": 9371,
      "##行って": 9372,
      "##為に": 9373,
      "##りだ": 9374,
      "##が？": 9375,
      "##BI": 9376,
      "##ネル": 9377,
      "- お": 9378,
      "##やるがいい": 9379,
      "##失敗": 9380,
      "##かい？": 9381,
      "##を救": 9382,
      "##はある": 9383,
      "##すご": 9384,
      "## の": 9385,
      "##サン": 9386,
      "##会社": 9387,
      "##クソ": 9388,
      "##される。": 9389,
      "私たちは": 9390,
      "##証拠": 9391,
      "##よ、": 9392,
      "##ピー": 9393,
      "##立ち": 9394,
      "##前に ": 9395,
      "##un": 9396,
      "##起き": 9397,
      "##なった": 9398,
      "いつ": 9399,
      "かれらは": 9400,
      "##んど": 9401,
      "##人生": 9402,
      "##っちゃ": 9403,
      "##が...": 9404,
      "##を見つけた": 9405,
      "##まれた": 9406,
      "##力を": 9407,
      "##りゃ": 9408,
      "##ルド": 9409,
      "##決して": 9410,
      "警察": 9411,
      "##んなさい": 9412,
      "##\" \"": 9413,
      "あなたがた": 9414,
      "##間に": 9415,
      "##せい": 9416,
      "##どれ": 9417,
      "##us": 9418,
      "##われた": 9419,
      "##よかった": 9420,
      "##する者": 9421,
      "##ランド": 9422,
      "##すぐに": 9423,
      "##存在": 9424,
      "##ッシュ": 9425,
      "##頼む": 9426,
      "##やめて": 9427,
      "これが": 9428,
      "##付き": 9429,
      "##を殺した": 9430,
      "## 何": 9431,
      "##人に": 9432,
      "##状態": 9433,
      "##あなたがたが": 9434,
      "##と言う": 9435,
      "##知らせ": 9436,
      "##ンチ": 9437,
      "##チーム": 9438,
      "##話した": 9439,
      "##を取り": 9440,
      "##手に入": 9441,
      "##話して": 9442,
      "##の中に": 9443,
      "お願い": 9444,
      "##ッセージ": 9445,
      "##のことを": 9446,
      "##かい": 9447,
      "##就いて": 9448,
      "##ri": 9449,
      "##ます ": 9450,
      "##助けて": 9451,
      "##よりも": 9452,
      "##って　": 9453,
      "##上が": 9454,
      "##op": 9455,
      "##逮捕": 9456,
      "##持って": 9457,
      "##やるがいい。「": 9458,
      "##くれて": 9459,
      "##捜査官": 9460,
      "本当": 9461,
      "##しかし": 9462,
      "##には　": 9463,
      "キャ": 9464,
      "##ドア": 9465,
      "##言ってた": 9466,
      "##かれらに": 9467,
      "##（の": 9468,
      "##後に": 9469,
      "##るよ": 9470,
      "##どうか": 9471,
      "##ロン": 9472,
      "##呼び": 9473,
      "##たちが": 9474,
      "##ること": 9475,
      "##を失": 9476,
      "##を，": 9477,
      "##ol": 9478,
      "どこに": 9479,
      "##母さん": 9480,
      "##アッラーは，": 9481,
      "##状況": 9482,
      "## その": 9483,
      "##と一緒に": 9484,
      "##知り": 9485,
      "彼女が": 9486,
      "##彼に": 9487,
      "##ならば，": 9488,
      "##を変": 9489,
      "##かせ": 9490,
      "##主の": 9491,
      "##たし": 9492,
      "##犯罪": 9493,
      "##されている": 9494,
      "##くらい": 9495,
      "##僕の": 9496,
      "##エン": 9497,
      "##え　": 9498,
      "##学校": 9499,
      "ええ　": 9500,
      "##たら": 9501,
      "##のか ": 9502,
      "##フラン": 9503,
      "でも　": 9504,
      "##手に": 9505,
      "##前の": 9506,
      "##た ": 9507,
      "##僕は": 9508,
      "##のを": 9509,
      "##ようと": 9510,
      "##うん": 9511,
      "##ことができ": 9512,
      "##望み": 9513,
      "##知っている": 9514,
      "##来い": 9515,
      "##しています": 9516,
      "##しないで": 9517,
      "##るのは": 9518,
      "##ーサー": 9519,
      "##に来た": 9520,
      "##分からない": 9521,
      "##番号": 9522,
      "##ネット": 9523,
      "##え ": 9524,
      "##多くの": 9525,
      "##ス・": 9526,
      "##付け": 9527,
      "ああ、": 9528,
      "##いは": 9529,
      "##しなさい。": 9530,
      "##だ、": 9531,
      "##。」": 9532,
      "##ごめ": 9533,
      "##イツ": 9534,
      "##誰が": 9535,
      "##秘密": 9536,
      "- どう": 9537,
      "##ent": 9538,
      "わかった": 9539,
      "##かわ": 9540,
      "##だった。": 9541,
      "##なこと": 9542,
      "##しゃ": 9543,
      "##だと思う": 9544,
      "##目を": 9545,
      "##お前は": 9546,
      "ああ ": 9547,
      "ダメ": 9548,
      "##ですね": 9549,
      "##ープ": 9550,
      "##システム": 9551,
      "##見つけ": 9552,
      "一緒": 9553,
      "##クラ": 9554,
      "##ひと": 9555,
      "##を受け": 9556,
      "##とお": 9557,
      "##メン": 9558,
      "##いてる": 9559,
      "##ハン": 9560,
      "##もない": 9561,
      "##に）": 9562,
      "##ったんだ": 9563,
      "##データ": 9564,
      "##入れ": 9565,
      "##受け": 9566,
      "##っくり": 9567,
      "あいつ": 9568,
      "##あれ": 9569,
      "##行こう": 9570,
      "つまり": 9571,
      "##de": 9572,
      "##いな": 9573,
      "##ル・": 9574,
      "##のね": 9575,
      "##を送": 9576,
      "少し": 9577,
      "##死んで": 9578,
      "##報告": 9579,
      "##ーツ": 9580,
      "##くて": 9581,
      "##バイ": 9582,
      "##今日": 9583,
      "##彼らは": 9584,
      "信じ": 9585,
      "##行う": 9586,
      "##人で": 9587,
      "##申し": 9588,
      "## \"": 9589,
      "##良かった": 9590,
      "##ではない。": 9591,
      "##込み": 9592,
      "##父親": 9593,
      "すべて": 9594,
      "時間": 9595,
      "##指定": 9596,
      "##ながら": 9597,
      "##ケット": 9598,
      "##すること": 9599,
      "##待て": 9600,
      "##われる": 9601,
      "##か、": 9602,
      "##ゲーム": 9603,
      "私も": 9604,
      "##ch": 9605,
      "## それ": 9606,
      "##ity ": 9607,
      "##ダイ": 9608,
      "##シア": 9609,
      "##でもない": 9610,
      "ジャ": 9611,
      "##責任": 9612,
      "##ヶ月": 9613,
      "新しい": 9614,
      "良い": 9615,
      "われは": 9616,
      "##オレ": 9617,
      "##可能性": 9618,
      "##はずだ": 9619,
      "フィ": 9620,
      "アッラー": 9621,
      "##とな": 9622,
      "##いろ": 9623,
      "##行動": 9624,
      "##に対して": 9625,
      "##し、": 9626,
      "##1 ": 9627,
      "##には、": 9628,
      "##ので": 9629,
      "##スは": 9630,
      "##の手": 9631,
      "##友人": 9632,
      "##ヒー": 9633,
      "##なんて ": 9634,
      "##っ ": 9635,
      "##やす": 9636,
      "##移動": 9637,
      "今は": 9638,
      "##成功": 9639,
      "##ha": 9640,
      "##ニア": 9641,
      "##らに": 9642,
      "##テル": 9643,
      "##やが": 9644,
      "##兄弟": 9645,
      "##を得": 9646,
      "##多く": 9647,
      "##or ": 9648,
      "##しまう": 9649,
      "ジョン": 9650,
      "##降り": 9651,
      "##注意": 9652,
      "##の方": 9653,
      "##みません": 9654,
      "どうやって": 9655,
      "##la": 9656,
      "##使用": 9657,
      "##わたしは": 9658,
      "##　お": 9659,
      "##アメリカ": 9660,
      "##てくれ": 9661,
      "##，（": 9662,
      "- いい": 9663,
      "##させた": 9664,
      "##落ち着": 9665,
      "早く": 9666,
      "##）。": 9667,
      "##li": 9668,
      "##I ": 9669,
      "##我々は": 9670,
      "##警告": 9671,
      "誰が": 9672,
      "##ほしい": 9673,
      "##いった": 9674,
      "##００": 9675,
      "##すると": 9676,
      "##ようだ": 9677,
      "##もある": 9678,
      "##してお": 9679,
      "それを": 9680,
      "##らを": 9681,
      "##クター": 9682,
      "##ルア": 9683,
      "##モン": 9684,
      "##やってる": 9685,
      "##置いて": 9686,
      "##か？ ": 9687,
      "##とんど": 9688,
      "##目の": 9689,
      "##に帰": 9690,
      "##発見": 9691,
      "##et": 9692,
      "##において": 9693,
      "##イブ": 9694,
      "##つき": 9695,
      "##あなたがたに": 9696,
      "##彼女を": 9697,
      "##ワー": 9698,
      "##ないで": 9699,
      "##ーマ": 9700,
      "##んだろ": 9701,
      "##話し": 9702,
      "##を下": 9703,
      "##だろう。": 9704,
      "##解決": 9705,
      "##ールド": 9706,
      "##の?": 9707,
      "##簡単": 9708,
      "##イド": 9709,
      "##答え": 9710,
      "##れ ": 9711,
      "##いい？": 9712,
      "かれは": 9713,
      "今日": 9714,
      "##どの": 9715,
      "##アク": 9716,
      "##かれらが": 9717,
      "##大きな": 9718,
      "##ーザ": 9719,
      "##ス ": 9720,
      "##戦争": 9721,
      "お前が": 9722,
      "##り，": 9723,
      "##だよ ": 9724,
      "##のです": 9725,
      "##だと ": 9726,
      "##サム": 9727,
      "##，かれらは": 9728,
      "オー": 9729,
      "##しなければ": 9730,
      "オレ": 9731,
      "##んだ！": 9732,
      "##きっと": 9733,
      "##初めて": 9734,
      "##よね": 9735,
      "##にち": 9736,
      "##居る": 9737,
      "##を読": 9738,
      "##ります": 9739,
      "##彼女が": 9740,
      "##ed ": 9741,
      "はい": 9742,
      "## 私": 9743,
      "それから": 9744,
      "##捕ま": 9745,
      "##ur": 9746,
      "##わからない": 9747,
      "##君を": 9748,
      "##達が": 9749,
      "##．．．": 9750,
      "## あ": 9751,
      "ウィ": 9752,
      "##ニュ": 9753,
      "##かしい": 9754,
      "##メール": 9755,
      "##リー・": 9756,
      "##と思った": 9757,
      "##の間": 9758,
      "##出した": 9759,
      "##方がいい": 9760,
      "##聞く": 9761,
      "##をも": 9762,
      "##ちょう": 9763,
      "##かけ": 9764,
      "##メッセージ": 9765,
      "##にとって": 9766,
      "##気に": 9767,
      "##しても": 9768,
      "##捨て": 9769,
      "##on ": 9770,
      "##信頼": 9771,
      "##研究": 9772,
      "落ち": 9773,
      "##なんか": 9774,
      "##スコ": 9775,
      "##素晴らしい": 9776,
      "##深い": 9777,
      "##啓典": 9778,
      "##監視": 9779,
      "##リング": 9780,
      "##を畏": 9781,
      "##殺し": 9782,
      "##of ": 9783,
      "##ve ": 9784,
      "他の": 9785,
      "##ね　": 9786,
      "##にいた": 9787,
      "##戻って": 9788,
      "##から出": 9789,
      "##する？": 9790,
      "##たり": 9791,
      "##事に": 9792,
      "##なく ": 9793,
      "##なんだ？": 9794,
      "##よう。": 9795,
      "##かれに": 9796,
      "##じゃない ": 9797,
      "さあ": 9798,
      "##せない": 9799,
      "やめて": 9800,
      "##オン": 9801,
      "##分かってる": 9802,
      "##大変": 9803,
      "##だめ": 9804,
      "##見つ": 9805,
      "##実行": 9806,
      "##からだ": 9807,
      "##lo": 9808,
      "##ec": 9809,
      "##母親": 9810,
      "ここは": 9811,
      "##護士": 9812,
      "##悪魔": 9813,
      "##物の": 9814,
      "##んですか？": 9815,
      "##you ": 9816,
      "心配": 9817,
      "##り返": 9818,
      "##だった ": 9819,
      "##ここにいる": 9820,
      "##があります": 9821,
      "アン": 9822,
      "最初": 9823,
      "##まず": 9824,
      "##天使": 9825,
      "自分の": 9826,
      "##ニュー": 9827,
      "##や ": 9828,
      "##しまった": 9829,
      "##不信心": 9830,
      "助けて": 9831,
      "##無し": 9832,
      "##破壊": 9833,
      "##に立": 9834,
      "##カメラ": 9835,
      "##ら、": 9836,
      "##ために ": 9837,
      "今夜": 9838,
      "## 3": 9839,
      "##やつ": 9840,
      "##必要がある": 9841,
      "##書き": 9842,
      "##我々の": 9843,
      "##は無い": 9844,
      "##するな": 9845,
      "##の中で": 9846,
      "##を求": 9847,
      "##ぁ　": 9848,
      "##不明": 9849,
      "くそ": 9850,
      "##20": 9851,
      "##してください。": 9852,
      "##んでいる": 9853,
      "私たち": 9854,
      "##の時": 9855,
      "##di": 9856,
      "##ことを ": 9857,
      "##の男": 9858,
      "##気に入": 9859,
      "##どい": 9860,
      "##を返": 9861,
      "##んと": 9862,
      "##警官": 9863,
      "##マシ": 9864,
      "##ッキー": 9865,
      "##まれ": 9866,
      "##らず": 9867,
      "##くなった": 9868,
      "すご": 9869,
      "全て": 9870,
      "##君に": 9871,
      "##価値": 9872,
      "##ことだ": 9873,
      "##ございます": 9874,
      "##ジー": 9875,
      "##? ": 9876,
      "##an ": 9877,
      "##幸せ": 9878,
      "##と呼": 9879,
      "##教え": 9880,
      "##みの": 9881,
      "##かりました": 9882,
      "##と一緒": 9883,
      "##絶対": 9884,
      "##起きた": 9885,
      "##）を": 9886,
      "##気持ち": 9887,
      "##ガン": 9888,
      "##いが": 9889,
      "##でした。": 9890,
      "##それに": 9891,
      "##してみ": 9892,
      "## 今": 9893,
      "##んじゃ": 9894,
      "##運転": 9895,
      "##ありません。": 9896,
      "こいつ": 9897,
      "##ら　": 9898,
      "##わ。": 9899,
      "##せ！": 9900,
      "##待ち": 9901,
      "##利用": 9902,
      "名前": 9903,
      "##のような": 9904,
      "##元気": 9905,
      "##での": 9906,
      "##るのか？": 9907,
      "##しましょう": 9908,
      "##人びと": 9909,
      "##御方": 9910,
      "いつも": 9911,
      "##を買": 9912,
      "##しなかった": 9913,
      "##、この": 9914,
      "##近づ": 9915,
      "##でもいい": 9916,
      "##プレ": 9917,
      "...": 9918,
      "## でも": 9919,
      "##ウス": 9920,
      "##完全": 9921,
      "##閉じ": 9922,
      "##ログ": 9923,
      "##大統領": 9924,
      "##刑事": 9925,
      "##何の": 9926,
      "これで": 9927,
      "僕の": 9928,
      "##と，": 9929,
      "##シェ": 9930,
      "##協力": 9931,
      "##どうぞ": 9932,
      "##してくれる": 9933,
      "##んにち": 9934,
      "##調査": 9935,
      "##別の": 9936,
      "##装置": 9937,
      "##さんの": 9938,
      "でも ": 9939,
      "ウォ": 9940,
      "クソ": 9941,
      "##フレ": 9942,
      "##わり": 9943,
      "##行かない": 9944,
      "##過ご": 9945,
      "##とする": 9946,
      "##ab": 9947,
      "##AR": 9948,
      "##映画": 9949,
      "##あなたがたは，": 9950,
      "##000": 9951,
      "##殺された": 9952,
      "##City ": 9953,
      "##すべての": 9954,
      "##ッカ": 9955,
      "##つく": 9956,
      "##人々": 9957,
      "##ガー": 9958,
      "##だけで": 9959,
      "##ーカー": 9960,
      "##の下": 9961,
      "##愛してる": 9962,
      "##'s ": 9963,
      "##ギー": 9964,
      "##見える": 9965,
      "##考える": 9966,
      "##国の": 9967,
      "##、私は": 9968,
      "##時，": 9969,
      "##証明": 9970,
      "##唯一": 9971,
      "##アッラーが": 9972,
      "##アッラーに": 9973,
      "私に": 9974,
      "##会った": 9975,
      "##年間": 9976,
      "##興味": 9977,
      "##殺す": 9978,
      "##うまく": 9979,
      "##ンが": 9980,
      "##限り": 9981,
      "##小さ": 9982,
      "彼を": 9983,
      "##病院": 9984,
      "##みたいな": 9985,
      "##のが": 9986,
      "##のある": 9987,
      "##相手": 9988,
      "##を与え": 9989,
      "##と言": 9990,
      "##ルダ": 9991,
      "##気分": 9992,
      "##コード": 9993,
      "##いてくれ": 9994,
      "##われが": 9995,
      "私を": 9996,
      "##ルタ": 9997,
      "##ma": 9998,
      "##k ": 9999,
      "##による": 10000,
      "##気づ": 10001,
      "##上の": 10002,
      "##立て": 10003,
      "もちろん": 10004,
      "逃げ": 10005,
      "##いけない": 10006,
      "##してきた": 10007,
      "##打ち": 10008,
      "##永遠": 10009,
      "##もなく": 10010,
      "##イヤ": 10011,
      "##拒否": 10012,
      "あれ": 10013,
      "##キャン": 10014,
      "##わたしたちは": 10015,
      "##があります。": 10016,
      "##かれる": 10017,
      "##わが": 10018,
      "##が出": 10019,
      "##をと": 10020,
      "##プション": 10021,
      "##より ": 10022,
      "##終わり": 10023,
      "##で？": 10024,
      "##一つ": 10025,
      "##ヤツ": 10026,
      "##si": 10027,
      "##御許": 10028,
      "##真理": 10029,
      "##･･･": 10030,
      "##見つけた": 10031,
      "##っています": 10032,
      "##中の": 10033,
      "##じゃないか": 10034,
      "落ち着": 10035,
      "##を呼": 10036,
      "##らい": 10037,
      "##合う": 10038,
      "##用意": 10039,
      "##これが": 10040,
      "##やめ": 10041,
      "##パート": 10042,
      "##信用": 10043,
      "##として ": 10044,
      "##チェック": 10045,
      "ある": 10046,
      "##違い": 10047,
      "##いている": 10048,
      "##くなる": 10049,
      "##を入": 10050,
      "##無かった": 10051,
      "##貴方": 10052,
      "##されます。": 10053,
      "こう": 10054,
      "人間": 10055,
      "##にした": 10056,
      "##E ": 10057,
      "##しかない": 10058,
      "##」 ": 10059,
      "##犠牲": 10060,
      "##人だ": 10061,
      "##地獄": 10062,
      "見て": 10063,
      "##飛行": 10064,
      "##とは ": 10065,
      "##の後": 10066,
      "##のに ": 10067,
      "##知る": 10068,
      "##目的": 10069,
      "##明日": 10070,
      "##まい": 10071,
      "##変更": 10072,
      "##っきり": 10073,
      "失礼": 10074,
      "##なのか": 10075,
      "##きたい": 10076,
      "##連れ": 10077,
      "それに": 10078,
      "##できません": 10079,
      "##スが": 10080,
      "##確か": 10081,
      "##えてる": 10082,
      "##tr": 10083,
      "##に対する": 10084,
      "##だって？": 10085,
      "##近く": 10086,
      "##m ": 10087,
      "ディ": 10088,
      "##をお": 10089,
      "##を選択": 10090,
      "##テン": 10091,
      "##，「": 10092,
      "##投げ": 10093,
      "##それから": 10094,
      "##City in ": 10095,
      "あれは": 10096,
      "##ロード": 10097,
      "##and ": 10098,
      "## そう": 10099,
      "##わかってる": 10100,
      "##ろしい": 10101,
      "##だが ": 10102,
      "##病気": 10103,
      "##するわ": 10104,
      "##自分で": 10105,
      "じゃあ": 10106,
      "##思い出": 10107,
      "##ーイ": 10108,
      "##かれた": 10109,
      "##経験": 10110,
      "##んだろう": 10111,
      "息子": 10112,
      "##け！": 10113,
      "##保護": 10114,
      "##じゃなかった": 10115,
      "##かれらを": 10116,
      "##ほとんど": 10117,
      "全部": 10118,
      "##... ...": 10119,
      "##白い": 10120,
      "##as": 10121,
      "一緒に": 10122,
      "まず": 10123,
      "##と共": 10124,
      "##らん": 10125,
      "##武器": 10126,
      "##万ドル": 10127,
      "##１０": 10128,
      "##ども": 10129,
      "##言わない": 10130,
      "##しました。": 10131,
      "##無駄": 10132,
      "##レビ": 10133,
      "##特別": 10134,
      "トムは": 10135,
      "##やれ": 10136,
      "##ビア": 10137,
      "##上手": 10138,
      "##あります": 10139,
      "##ッジ": 10140,
      "##イケ": 10141,
      "##度と": 10142,
      "マー": 10143,
      "問題": 10144,
      "とても": 10145,
      "言って": 10146,
      "## どう": 10147,
      "##分から": 10148,
      "##年の": 10149,
      "##12": 10150,
      "##やろう": 10151,
      "##良く": 10152,
      "##携帯": 10153,
      "##からな": 10154,
      "##ことがある": 10155,
      "よし　": 10156,
      "フラン": 10157,
      "ロー": 10158,
      "##せた": 10159,
      "##事故": 10160,
      "##ハイ": 10161,
      "##刑務所": 10162,
      "##ー　": 10163,
      "##全く": 10164,
      "##込む": 10165,
      "##されてる": 10166,
      "##そこで": 10167,
      "##」と言う": 10168,
      "たぶん": 10169,
      "どういう": 10170,
      "##はよう": 10171,
      "##ー！": 10172,
      "##許可": 10173,
      "##分か": 10174,
      "どうぞ": 10175,
      "家族": 10176,
      "##飲み": 10177,
      "##された。": 10178,
      "##られた。": 10179,
      "##最後の": 10180,
      "##レク": 10181,
      "##死に": 10182,
      "##出し": 10183,
      "##削除": 10184,
      "##普通": 10185,
      "##ルを": 10186,
      "##みを": 10187,
      "##取引": 10188,
      "さて": 10189,
      "まさ": 10190,
      "##ro": 10191,
      "##馬鹿": 10192,
      "##始めた": 10193,
      "##、お": 10194,
      "##両親": 10195,
      "##の名前": 10196,
      "##も　": 10197,
      "##体を": 10198,
      "## そして": 10199,
      "##と話": 10200,
      "ごめんなさい": 10201,
      "##は?": 10202,
      "##管理": 10203,
      "##、その": 10204,
      "##殺した": 10205,
      "##なのよ": 10206,
      "##ジャー": 10207,
      "##クリス": 10208,
      "##被害": 10209,
      "##彼女に": 10210,
      "##ッツ": 10211,
      "##ッカー": 10212,
      "##実際": 10213,
      "おまえ": 10214,
      "##をして": 10215,
      "##ついた": 10216,
      "##しないと": 10217,
      "##ラク": 10218,
      "##ment": 10219,
      "僕が": 10220,
      "##しも": 10221,
      "##有効": 10222,
      "##事だ": 10223,
      "##）は": 10224,
      "##ば ": 10225,
      "##へ行く": 10226,
      "##外に": 10227,
      "##だと？": 10228,
      "##ダム": 10229,
      "##残念": 10230,
      "##を見る": 10231,
      "かれら": 10232,
      "ジュ": 10233,
      "##保存": 10234,
      "##ヨーク": 10235,
      "##んだけど": 10236,
      "##んでしょ": 10237,
      "いや ": 10238,
      "##こちら": 10239,
      "##部分": 10240,
      "##PHP 4": 10241,
      "##をした": 10242,
      "##を表示": 10243,
      "##現場": 10244,
      "##でしょう。": 10245,
      "##われは，": 10246,
      "##にかく": 10247,
      "##の所": 10248,
      "##記憶": 10249,
      "##啓示": 10250,
      "##するつもり": 10251,
      "##女の子": 10252,
      "##これらの": 10253,
      "悪い": 10254,
      "##es ": 10255,
      "##ってる ": 10256,
      "##を使用": 10257,
      "##と　": 10258,
      "##のない": 10259,
      "##パス": 10260,
      "##てもら": 10261,
      "##非常に": 10262,
      "電話": 10263,
      "##ーパー": 10264,
      "##みろ": 10265,
      "##キュ": 10266,
      "##与え": 10267,
      "##ループ": 10268,
      "##今は": 10269,
      "##ドラ": 10270,
      "##オプション": 10271,
      "##心を": 10272,
      "これを": 10273,
      "##アップ": 10274,
      "##en ": 10275,
      "##予定": 10276,
      "##って！": 10277,
      "仕事": 10278,
      "## （": 10279,
      "##者である。": 10280,
      "##かもしれ": 10281,
      "##に住": 10282,
      "##マル": 10283,
      "##に電話": 10284,
      "##ex": 10285,
      "##のか?": 10286,
      "##パーティー": 10287,
      "##明ら": 10288,
      "なんて": 10289,
      "今日は": 10290,
      "##グラム": 10291,
      "##わ　": 10292,
      "##え、": 10293,
      "##人物": 10294,
      "何の": 10295,
      "##ディー": 10296,
      "##ディア": 10297,
      "##ッキ": 10298,
      "##ot ": 10299,
      "##ああ": 10300,
      "##借り": 10301,
      "##忘れ": 10302,
      "最後": 10303,
      "## %1": 10304,
      "##が無い": 10305,
      "##を撃": 10306,
      "##始め": 10307,
      "##ってくる": 10308,
      "##どうやって": 10309,
      "##のだ": 10310,
      "##望む": 10311,
      "##僕が": 10312,
      "##家の": 10313,
      "##導き": 10314,
      "##って、": 10315,
      "##の上に": 10316,
      "##たくさん": 10317,
      "##長い": 10318,
      "##入り": 10319,
      "##恩恵": 10320,
      "##お前が": 10321,
      "##なのか？": 10322,
      "##タン": 10323,
      "##強い": 10324,
      "##ました ": 10325,
      "##るか": 10326,
      "##ワード": 10327,
      "##美しい": 10328,
      "##かれを": 10329,
      "##な！": 10330,
      "##った？": 10331,
      "きっと": 10332,
      "世界": 10333,
      "##なかった ": 10334,
      "##であった。": 10335,
      "##ルは": 10336,
      "##を使う": 10337,
      "##失礼": 10338,
      "##，その": 10339,
      "##gh": 10340,
      "##アド": 10341,
      "##容疑": 10342,
      "##邪魔": 10343,
      "##スに": 10344,
      "##不義": 10345,
      "##ってこと": 10346,
      "こちら": 10347,
      "彼ら": 10348,
      "##きます": 10349,
      "##テロ": 10350,
      "##彼らの": 10351,
      "##期待": 10352,
      "##するんだ": 10353,
      "##ra": 10354,
      "##嬉しい": 10355,
      "ごめん": 10356,
      "##ルター": 10357,
      "##続けて": 10358,
      "##現在": 10359,
      "##わから": 10360,
      "##差し": 10361,
      "##くれない": 10362,
      "##リーン": 10363,
      "##の人生": 10364,
      "##クロ": 10365,
      "##リー ": 10366,
      "アー": 10367,
      "##ニック": 10368,
      "##ザー": 10369,
      "##さんは": 10370,
      "##してる ": 10371,
      "##私達": 10372,
      "##is": 10373,
      "##合い": 10374,
      "##次の": 10375,
      "##暮ら": 10376,
      "##難しい": 10377,
      "##ンター": 10378,
      "##を解": 10379,
      "##チョ": 10380,
      "##道を": 10381,
      "##精神": 10382,
      "一体": 10383,
      "##車を": 10384,
      "##すぎる": 10385,
      "##少年": 10386,
      "##信者": 10387,
      "##確かに": 10388,
      "##AR_": 10389,
      "##の民": 10390,
      "##カイ": 10391,
      "##のために ": 10392,
      "我々の": 10393,
      "##かげ": 10394,
      "##.0": 10395,
      "##あまり": 10396,
      "##け ": 10397,
      "##ナイ": 10398,
      "##シャー": 10399,
      "##ライト": 10400,
      "##に行った": 10401,
      "だが　": 10402,
      "##カード": 10403,
      "##気付": 10404,
      "##嘘を": 10405,
      "## 1": 10406,
      "##を知ってる": 10407,
      "##だから ": 10408,
      "##BAR_": 10409,
      "- いや": 10410,
      "待て": 10411,
      "##大事": 10412,
      "##よい": 10413,
      "##を着": 10414,
      "##ことは ": 10415,
      "うん": 10416,
      "##じゃ ": 10417,
      "##かれらは，": 10418,
      "##たくない": 10419,
      "##以前": 10420,
      "フォ": 10421,
      "##ねぇ": 10422,
      "##を渡": 10423,
      "##要求": 10424,
      "##今夜": 10425,
      "##るぞ": 10426,
      "##を切": 10427,
      "##カル": 10428,
      "##者だ": 10429,
      "##SA": 10430,
      "##手が": 10431,
      "##政府": 10432,
      "##弁護士": 10433,
      "彼に": 10434,
      "##知りたい": 10435,
      "##なんです": 10436,
      "##クレ": 10437,
      "##助ける": 10438,
      "##あなたがたを": 10439,
      "そこに": 10440,
      "##の為": 10441,
      "##しが": 10442,
      "##200": 10443,
      "##飛び": 10444,
      "##るのよ": 10445,
      "##けた。": 10446,
      "##日本": 10447,
      "##高い": 10448,
      "##その時": 10449,
      "##かしら": 10450,
      "##かどうか": 10451,
      "##セス": 10452,
      "##考えた": 10453,
      "##と思って": 10454,
      "##または": 10455,
      "##な。": 10456,
      "##と 思": 10457,
      "##全ての": 10458,
      "ブラ": 10459,
      "何て": 10460,
      "頼む": 10461,
      "##ムーサー": 10462,
      "##２人": 10463,
      "##ニュース": 10464,
      "##言え": 10465,
      "##いけ": 10466,
      "##んで ": 10467,
      "##レット": 10468,
      "##手紙": 10469,
      "##_BAR_": 10470,
      "##生きて": 10471,
      "おい　": 10472,
      "##tion ": 10473,
      "ずっと": 10474,
      "##われて": 10475,
      "##るべき": 10476,
      "##事実": 10477,
      "##子）": 10478,
      "##伝え": 10479,
      "##inf": 10480,
      "##なもの": 10481,
      "##大学": 10482,
      "##ずに": 10483,
      "なんで": 10484,
      "明日": 10485,
      "約束": 10486,
      "##みに": 10487,
      "##ad": 10488,
      "##へ ": 10489,
      "##かしら？": 10490,
      "でも、": 10491,
      "##を持ってる": 10492,
      "##ピュー": 10493,
      "##あと": 10494,
      "##バス": 10495,
      "##私も": 10496,
      "##上に": 10497,
      "##していない": 10498,
      "##したら ": 10499,
      "彼女を": 10500,
      "アル": 10501,
      "##が欲しい": 10502,
      "##が必要だ": 10503,
      "ファイル": 10504,
      "奴は": 10505,
      "##ロール": 10506,
      "##かす": 10507,
      "##ころ": 10508,
      "##気を": 10509,
      "##くれ ": 10510,
      "##でね": 10511,
      "##まれて": 10512,
      "##止める": 10513,
      "貴方": 10514,
      "##たの": 10515,
      "##かと": 10516,
      "##技術": 10517,
      "##創造": 10518,
      "##リバー": 10519,
      "##年前": 10520,
      "##影響": 10521,
      "##してもら": 10522,
      "##に就いて": 10523,
      "##組織": 10524,
      "##wh": 10525,
      "##想像": 10526,
      "そうだ": 10527,
      "##を守る": 10528,
      "他に": 10529,
      "##っか": 10530,
      "##忘れて": 10531,
      "##gi": 10532,
      "##のところ": 10533,
      "##いなかった": 10534,
      "##行為": 10535,
      "##かせて": 10536,
      "##俺を": 10537,
      "##まれる": 10538,
      "##告げ": 10539,
      "##してる？": 10540,
      "##ライン": 10541,
      "##過去": 10542,
      "##めで": 10543,
      "##チャー": 10544,
      "##抜け": 10545,
      "##突き": 10546,
      "##様に": 10547,
      "##なくなる": 10548,
      "##イレ": 10549,
      "##定め": 10550,
      "##人と": 10551,
      "##子を": 10552,
      "##セット": 10553,
      "##主義": 10554,
      "##ったら ": 10555,
      "##しようと": 10556,
      "バカ": 10557,
      "##テスト": 10558,
      "##oo": 10559,
      "##心に": 10560,
      "##嫌い": 10561,
      "##時代": 10562,
      "##を授": 10563,
      "##こいつ": 10564,
      "##裁判": 10565,
      "##意見": 10566,
      "##知識": 10567,
      "##したこと": 10568,
      "## いい": 10569,
      "##ねば": 10570,
      "##アリー": 10571,
      "##してやる": 10572,
      "##言ってやるがいい。「": 10573,
      "##ショー": 10574,
      "##尋ね": 10575,
      "##いた ": 10576,
      "私達は": 10577,
      "##が来た": 10578,
      "##されない": 10579,
      "##そらく": 10580,
      "##マス": 10581,
      "##メント": 10582,
      "##到着": 10583,
      "##ダン": 10584,
      "##何でも": 10585,
      "##he ": 10586,
      "##ないよ": 10587,
      "##かなり": 10588,
      "##を与える": 10589,
      "##後 ": 10590,
      "いや、": 10591,
      "##かの女": 10592,
      "##小さな": 10593,
      "##50": 10594,
      "##勉強": 10595,
      "あと": 10596,
      "##下の": 10597,
      "##互いに": 10598,
      "##なら　": 10599,
      "その通り": 10600,
      "##れが": 10601,
      "##けろ": 10602,
      "##it ": 10603,
      "##せろ": 10604,
      "##に着": 10605,
      "##を引き": 10606,
      "##付けて": 10607,
      "##するよ": 10608,
      "##があって": 10609,
      "##われの": 10610,
      "##すごい": 10611,
      "出て": 10612,
      "##バート": 10613,
      "##居た": 10614,
      "##%2": 10615,
      "##そういう": 10616,
      "##テキ": 10617,
      "##耐え": 10618,
      "##してるの？": 10619,
      "##だろう？": 10620,
      "##が下": 10621,
      "##しくない": 10622,
      "##警備": 10623,
      "##at ": 10624,
      "##r ": 10625,
      "##合わせ": 10626,
      "##がある ": 10627,
      "##ビル": 10628,
      "##レッド": 10629,
      "##命じ": 10630,
      "##プト": 10631,
      "##動き": 10632,
      "##飛ば": 10633,
      "##治療": 10634,
      "##タイプ": 10635,
      "##う ": 10636,
      "##から離": 10637,
      "##能力": 10638,
      "##追い": 10639,
      "##銀行": 10640,
      "##してください": 10641,
      "ドア": 10642,
      "私には": 10643,
      "##ne": 10644,
      "##じゃないわ": 10645,
      "##ームズ": 10646,
      "##で...": 10647,
      "##気をつけ": 10648,
      "##連中": 10649,
      "##地球": 10650,
      "##ページ": 10651,
      "##尽く": 10652,
      "##してくれた": 10653,
      "## もう": 10654,
      "##フト": 10655,
      "##証言": 10656,
      "##時間を": 10657,
      "##ジャック": 10658,
      "##セル": 10659,
      "##続ける": 10660,
      "##爆弾": 10661,
      "##ですか": 10662,
      "##と思ってる": 10663,
      "##はその": 10664,
      "##のは　": 10665,
      "##エラー": 10666,
      "##までは": 10667,
      "##任務": 10668,
      "##ボン": 10669,
      "##目に": 10670,
      "そこで": 10671,
      "##　どう": 10672,
      "##接続": 10673,
      "##11": 10674,
      "##ut": 10675,
      "##印を": 10676,
      "##よう ": 10677,
      "##に対し": 10678,
      "##はもう": 10679,
      "##さあ": 10680,
      "##命を": 10681,
      "##働いて": 10682,
      "##深く": 10683,
      "##えた。": 10684,
      "##に...": 10685,
      "##後ろ": 10686,
      "##だった？": 10687,
      "##なくても": 10688,
      "##ーズ": 10689,
      "##は... ": 10690,
      "##中で": 10691,
      "##会い": 10692,
      "##語を": 10693,
      "そういう": 10694,
      "タイ": 10695,
      "##　いい": 10696,
      "##だ?": 10697,
      "##待ってる": 10698,
      "##と思ってた": 10699,
      "誰かが": 10700,
      "多分": 10701,
      "##度も": 10702,
      "##犯人": 10703,
      "##帰って": 10704,
      "##後で": 10705,
      "##ですが": 10706,
      "何で": 10707,
      "## 私は": 10708,
      "##一つの": 10709,
      "##ればいい": 10710,
      "##時間が": 10711,
      "##聞こえる": 10712,
      "行く": 10713,
      "##画像": 10714,
      "##りは": 10715,
      "##見る": 10716,
      "##古い": 10717,
      "##について ": 10718,
      "##ジェクト": 10719,
      "##誰かが": 10720,
      "##な事": 10721,
      "##らなかった": 10722,
      "##おい": 10723,
      "##本当にアッラーは": 10724,
      "##ことはない": 10725,
      "##の家": 10726,
      "##知って": 10727,
      "##を飲": 10728,
      "##まさ": 10729,
      "##処理": 10730,
      "##素敵": 10731,
      "##そうと": 10732,
      "##ではありません": 10733,
      "必要": 10734,
      "##()": 10735,
      "##判断": 10736,
      "##ーンズ": 10737,
      "##プログラム": 10738,
      "##さま": 10739,
[...]
